#version: 0.2
▁있 있</w>
으 로</w>
에 서</w>
▁것 것</w>
니 다</w>
▁“ “</w>
습 니다</w>
▁그 그</w>
▁않 않</w>
다 는</w>
다 고</w>
▁없 없</w>
▁1 1</w>
에 게</w>
▁한 다</w>
지 만</w>
▁한 한</w>
한 다</w>
▁말 말</w>
까 지</w>
▁및 및</w>
▁한 국</w>
▁받 받</w>
부 터</w>
면 서</w>
▁경 우</w>
▁2 0
▁대 한</w>
▁우 리</w>
▁때 때</w>
어 요</w>
라 고</w>
▁많 많</w>
▁되 되</w>
0 0</w>
▁필 요</w>
▁같 같</w>
▁사 람</w>
▁위 해</w>
▁했 했</w>
▁좋 좋</w>
▁당 신</w>
도 록</w>
는 데</w>
▁경 기
입 니다</w>
▁때 문</w>
▁더 더</w>
▁가 능</w>
▁지 원</w>
라 는</w>
▁경기 도</w>
▁할 할</w>
▁지 역</w>
▁이 번</w>
▁따 라</w>
▁미 국</w>
▁지 난</w>
▁안 안</w>
해 서</w>
▁20 1
▁통 해</w>
▁함 께</w>
▁관 련</w>
▁1 0</w>
된 다</w>
▁밝 혔</w>
청 장</w>
위 원
▁두 두</w>
▁서 울</w>
▁사 용</w>
통 령</w>
▁높 높</w>
여 야</w>
▁아 니</w>
으 며</w>
▁문 제</w>
▁사 업</w>
▁진 행</w>
▁대 통령</w>
보 다</w>
▁생 각</w>
▁정 부</w>
▁운 영</w>
▁위 한</w>
▁지 난
▁이 상</w>
▁다 음</w>
▁중 국</w>
합 니다</w>
▁가 장</w>
▁대 표</w>
▁다 른</w>
세 요</w>
▁가 가</w>
▁경 기</w>
▁기 업</w>
▁시 작</w>
▁시 간</w>
▁시 장</w>
▁구 청장</w>
이 나</w>
▁대 해</w>
▁싶 싶</w>
▁잘 잘</w>
▁확 인</w>
▁거 거</w>
위원 회</w>
거 나</w>
해 야</w>
기 업</w>
▁김 김</w>
▁해 해</w>
시 간</w>
▁발 생</w>
▁참 여</w>
▁위 원
운 데</w>
▁큰 큰</w>
▁또 는</w>
▁게 게</w>
▁상 황</w>
▁가 운데</w>
나 요</w>
▁만 들</w>
▁결 과</w>
▁알 알</w>
다 면</w>
▁이 후</w>
▁다 양</w>
▁해 당</w>
▁사 회</w>
▁지 금</w>
▁올 해</w>
▁세 계</w>
▁최 근</w>
▁경 찰</w>
▁자 신</w>
▁현 재</w>
기 관</w>
비 스</w>
▁국 내</w>
▁교 육</w>
▁조 사</w>
▁예 정</w>
▁추 진</w>
▁제 품</w>
▁지난 해</w>
▁뒤 뒤</w>
▁경 제</w>
▁모 두</w>
▁프 로
▁많 이</w>
▁특 히</w>
는 지</w>
▁따 른</w>
▁의 원</w>
▁설 명</w>
어 서</w>
▁문 화</w>
시 아</w>
▁학 생</w>
▁이 날</w>
센 터</w>
계 자</w>
으 면</w>
▁2 0</w>
▁북 한</w>
▁정 도</w>
▁하 나</w>
사 업</w>
▁행 사</w>
▁이 용</w>
▁찾 찾</w>
▁국 가</w>
▁다 시</w>
▁계 획</w>
학 교</w>
▁대 상</w>
▁일 본</w>
▁사 실</w>
지 사</w>
▁관 리</w>
▁될 될</w>
▁관 계자</w>
▁이 유</w>
▁설 치</w>
▁직 접</w>
▁앞 앞</w>
▁포 함</w>
0 00</w>
로 운</w>
▁맞 맞</w>
▁관 심</w>
▁내 용</w>
▁3 0</w>
에 요</w>
▁제 공</w>
▁오 늘</w>
▁사 항</w>
시 장</w>
▁기 대</w>
니 까</w>
▁평 가</w>
▁들 어
▁데 데</w>
▁1 9
▁주 민</w>
▁1 2</w>
▁모 든</w>
▁위 하</w>
▁따 르</w>
▁공 개</w>
▁불 불</w>
▁모 습</w>
▁여 성</w>
▁활 동</w>
▁어 려
시 설</w>
▁크 크</w>
그 램</w>
▁마 련</w>
▁결 정</w>
▁네 네</w>
▁규 정</w>
▁나 타
무 원</w>
▁처 음</w>
▁영 화</w>
처 럼</w>
대 로</w>
이 하</w>
▁정 보</w>
▁과 정</w>
▁정 책</w>
▁조 례</w>
▁국 민</w>
▁개 발</w>
▁중 요</w>
▁학 교</w>
▁원 원</w>
▁발 표</w>
▁가 지</w>
으 로
▁참 석</w>
▁서 울
▁방 문</w>
▁기 술</w>
▁오 후</w>
▁사 건</w>
▁위원 장</w>
▁서 비스</w>
스 트</w>
▁너 너</w>
▁「 「</w>
해 요</w>
▁당 시</w>
▁전 망</w>
▁분 석</w>
▁사 진</w>
▁금 융</w>
▁다 만</w>
▁투 자</w>
관 리</w>
지 역</w>
▁주 장</w>
▁준 비</w>
▁일 부</w>
▁동 안</w>
▁증 가</w>
▁날 날</w>
▁노 력</w>
▁보 내</w>
▁확 대</w>
▁관 한</w>
▁기 록</w>
▁업 무</w>
▁실 시</w>
단 체</w>
▁추 가</w>
▁회 사</w>
인 다</w>
어 지</w>
▁됐 됐</w>
▁너 무</w>
▁친 구</w>
▁개 최</w>
▁만 큼</w>
국 인</w>
▁새 로운</w>
▁정 상</w>
자 리</w>
▁된 다</w>
▁어 떤</w>
▁자 리</w>
▁또 또</w>
▁수 사</w>
▁구 성</w>
▁지 적</w>
▁이 런</w>
▁요 구</w>
▁기 준</w>
▁예 산</w>
▁합 니다</w>
▁전 국</w>
▁첫 첫</w>
▁프로 그램</w>
▁감 사</w>
▁선 수</w>
▁아 이</w>
지 원</w>
▁산 업</w>
▁위 원</w>
▁예 상</w>
▁연 구</w>
으 나</w>
▁현 장</w>
▁검 찰</w>
▁보 이</w>
▁가 족</w>
▁가 격</w>
▁시 민</w>
▁여 기</w>
럼 프</w>
아 요</w>
▁지 급</w>
▁그 리
▁선 정</w>
▁알 려
▁약 약</w>
▁넘 넘</w>
▁기 존</w>
교 육</w>
▁활 용</w>
▁도 시</w>
▁제 출</w>
라 도</w>
▁국 회</w>
▁개 선</w>
의 회</w>
가 요</w>
▁시 행</w>
이 트</w>
▁트 럼프</w>
▁관 계</w>
▁공 연</w>
▁입 입</w>
▁오 전</w>
▁중 심</w>
▁감 독</w>
▁영 향</w>
▁안 전</w>
▁된 된</w>
문 화</w>
▁계 속</w>
야 기</w>
▁1 5</w>
▁판 매</w>
▁고 객</w>
문 가</w>
▁지 속</w>
▁규 모</w>
▁건 건</w>
특 별
▁법 법</w>
▁환 경</w>
▁배 우</w>
▁이 야기</w>
▁1 00</w>
▁분 야</w>
▁열 린</w>
▁의 견</w>
▁공 동</w>
랜 드</w>
▁요 청</w>
▁개 인</w>
▁사 고</w>
정 부</w>
▁볼 볼</w>
▁주 요</w>
▁없 이</w>
▁부 분</w>
▁전 문</w>
▁적 용</w>
▁지 방</w>
▁피 해</w>
▁직 원</w>
▁혐 의</w>
▁보 인다</w>
조 사</w>
대 표</w>
▁문 문</w>
▁우 려</w>
어 나</w>
▁기 간</w>
▁나 오</w>
▁전 체</w>
▁국 제</w>
▁부 산</w>
▁그 것</w>
▁신 청</w>
▁인 터
▁여 러</w>
▁특 별</w>
▁자 유</w>
▁사 랑</w>
동 안</w>
▁그 녀</w>
▁상 태</w>
▁비 롯</w>
▁판 단</w>
▁건 강</w>
떻 게</w>
어 야</w>
업 체</w>
▁아 직</w>
산 업</w>
▁마 음</w>
▁어 떻게</w>
사 회</w>
까 요</w>
▁입 장</w>
▁좀 좀</w>
▁20 0
계 획</w>
특별 시</w>
스 템</w>
▁아 이
는 다</w>
위원 장</w>
▁강 조</w>
▁적 극</w>
▁성 장</w>
렇 게</w>
회 담</w>
▁강 화</w>
▁길 길</w>
▁의 미</w>
▁목 적</w>
▁어 느</w>
▁못 하</w>
▁보 도</w>
▁지 정</w>
▁최 고</w>
다 가</w>
부 분</w>
▁방 법</w>
▁낮 낮</w>
▁효 과</w>
▁후 보</w>
▁인 정</w>
▁같 이</w>
▁생 활</w>
▁시 설</w>
▁해 외</w>
▁조 성</w>
▁음 식</w>
전 자</w>
이 터</w>
▁생 산</w>
고 자</w>
▁수 준</w>
동 차</w>
▁회 장</w>
▁교 수</w>
▁처 리</w>
▁대 해서</w>
▁바 로</w>
▁전 문가</w>
▁소 속</w>
▁그리 고</w>
▁대 학</w>
개 월</w>
▁차 량</w>
▁이 뤄
▁무 엇</w>
▁발 전</w>
▁못 못</w>
▁성 공</w>
▁공 무원</w>
▁만 나</w>
▁행 정</w>
와 대</w>
▁장 관</w>
▁사 이</w>
▁위원 회</w>
▁업 체</w>
▁알 려</w>
▁쉽 쉽</w>
▁얻 얻</w>
▁더 욱</w>
▁돌 아
▁역 할</w>
환 경</w>
라 인</w>
▁인 기</w>
요 일</w>
2 0
▁매 우</w>
▁고 려</w>
▁상 대</w>
▁최 대</w>
▁도 지사</w>
▁청 와대</w>
▁팬 팬</w>
▁정 말</w>
▁보 여</w>
▁인 사</w>
▁회 의</w>
▁자 료</w>
기 술</w>
조 제</w>
▁변 화</w>
▁기 회</w>
▁남 북</w>
▁유 지</w>
▁눈 눈</w>
▁경 험</w>
주 당</w>
마 다</w>
▁방 식</w>
인 지</w>
▁팀 팀</w>
경 제</w>
▁이 미</w>
▁기 관</w>
▁집 중</w>
▁일 자리</w>
▁의 혹</w>
▁잡 잡</w>
▁제 기</w>
▁난 난</w>
▁상 품</w>
▁확 보</w>
네 요</w>
▁조 치</w>
진 다</w>
▁대 부분</w>
▁이 것</w>
▁해 결</w>
소 년</w>
▁작 품</w>
▁도 움</w>
▁일 정</w>
▁5 0</w>
▁주 문</w>
업 자</w>
▁방 송</w>
공 사</w>
▁드 러
▁손 손</w>
정 보</w>
기 간</w>
▁비 용</w>
로 벌</w>
▁위 해서</w>
▁먼 저</w>
▁이 름</w>
▁또 한</w>
▁측 측</w>
▁전 했</w>
너 지</w>
▁논 란</w>
▁일 반</w>
▁부 담</w>
려 고</w>
비 자</w>
▁나 왔</w>
은 행</w>
정 책</w>
▁저 희</w>
▁정 치</w>
▁신 고</w>
▁논 의</w>
▁심 의</w>
▁위 치</w>
▁현 지</w>
▁범 위</w>
위 원</w>
▁한 국
위 기</w>
시 키</w>
▁조 금</w>
▁구 매</w>
▁부 족</w>
개 발</w>
▁돈 돈</w>
▁스 마
▁역 사</w>
▁왔 왔</w>
레 이
▁1 8</w>
▁선 택</w>
▁교 육
로 부터</w>
거 리</w>
▁이 해</w>
▁이 어
▁여 행</w>
복 지</w>
▁새 새</w>
▁어 린
▁1 6</w>
▁합 의</w>
▁글 로벌</w>
▁자 체</w>
▁2 5</w>
▁인 상</w>
▁대 비</w>
▁도 입</w>
▁1 4</w>
▁대 하</w>
▁밖 밖</w>
▁발 견</w>
▁1 3</w>
리 아</w>
▁영 어</w>
▁활 성</w>
▁단 체</w>
▁그 래
인 데</w>
▁협 력</w>
▁내 년</w>
온 다</w>
▁물 론</w>
▁우 수</w>
▁검 토</w>
▁게 임</w>
▁책 책</w>
▁공 간</w>
학 생</w>
▁우 선</w>
▁나타 났</w>
▁아 닌</w>
▁작 성</w>
▁늘 늘</w>
회 의</w>
라 마</w>
▁맡 맡</w>
▁영 상</w>
▁참 가</w>
▁역 시</w>
▁나 라</w>
20 1
2 0</w>
▁고 용</w>
한 다는</w>
파 트</w>
▁소 개</w>
▁삶 삶</w>
▁소 비자</w>
자 인</w>
▁수 출</w>
예 요</w>
▁그 런</w>
▁끝 끝</w>
▁해 요</w>
활 동</w>
▁앞 서</w>
나 라</w>
▁규 제</w>
▁과 거</w>
▁제 도</w>
소 리</w>
▁각 종</w>
▁한 다는</w>
▁이 제</w>
라 며</w>
▁주 목</w>
▁기 자</w>
주 택</w>
한 다고</w>
▁방 안</w>
▁어 렵</w>
▁각 각</w>
▁반 영</w>
전 히</w>
▁미 래</w>
▁대 회</w>
소 기업</w>
▁음 악</w>
다 며</w>
▁해 야</w>
▁1 7</w>
그 룹</w>
▁1 9</w>
▁올 올</w>
▁제 외</w>
▁계 약</w>
▁못 했</w>
▁제 작</w>
5 0</w>
▁장 애</w>
▁2 4</w>
도 시</w>
▁공 급</w>
▁주 변</w>
▁이 전</w>
▁어 디</w>
▁서울 특별시</w>
▁여 자</w>
▁남 자</w>
▁기 능</w>
▁구 조</w>
▁작 작</w>
연 구
▁실 제</w>
▁하 루</w>
▁수 행</w>
▁지난 달</w>
▁온 온</w>
아 서</w>
▁찾 아
▁나 온다</w>
▁작 업</w>
▁여 부</w>
▁건 물</w>
▁변 경</w>
▁인터 넷</w>
▁차 지</w>
해 자</w>
▁민 간</w>
▁청 년</w>
▁겪 겪</w>
▁자 동차</w>
▁비 판</w>
▁외 국인</w>
▁4 0</w>
▁인 천</w>
▁전 화</w>
▁뜻 뜻</w>
▁대 한
이 스</w>
▁힘 힘</w>
▁시 스템</w>
로 서</w>
▁드 라마</w>
▁전 통</w>
▁이 러</w>
▁보 호</w>
▁알려 졌</w>
▁떨 어
▁사 례</w>
▁전 달</w>
본 부</w>
려 는</w>
사 장</w>
▁인 해</w>
▁이 내</w>
▁행 복</w>
의 원</w>
대 회</w>
▁위 험</w>
▁본 본</w>
▁운 동</w>
운 영</w>
▁구 축</w>
▁러 시아</w>
▁상 승</w>
▁감 소</w>
▁이 어</w>
립 니다</w>
▁연 락</w>
▁이 렇게</w>
▁열 리</w>
▁환 자</w>
▁기 다
▁무 역</w>
디 어</w>
텐 츠</w>
▁병 원</w>
▁담 당</w>
▁아 파트</w>
린 다</w>
▁왜 왜</w>
▁외 외</w>
▁서 로</w>
▁사 전</w>
▁삼 성</w>
▁기 본</w>
고 서</w>
▁모 르</w>
▁공 부</w>
생 활</w>
▁경 쟁</w>
▁청 소년</w>
▁2 1</w>
▁심 사</w>
▁그 동안</w>
▁삼 성
아 야</w>
▁내 일</w>
▁가 치</w>
▁유 명</w>
▁성 과</w>
▁뿐 뿐</w>
▁노 동
▁목 표</w>
지 막</w>
재 인</w>
▁체 험</w>
▁기 획</w>
▁제 안</w>
게 요</w>
▁도 내</w>
상 자</w>
▁효 율</w>
▁높 이</w>
▁최 초</w>
▁채 채</w>
▁주 택</w>
▁위 탁</w>
▁언 제</w>
▁공 유</w>
▁아 니
에 선</w>
▁분 위기</w>
규 모</w>
▁협 상</w>
▁제 시</w>
▁수 립</w>
▁그 룹</w>
습 니까</w>
▁도 착</w>
▁2 3</w>
▁홍 보</w>
▁마 지막</w>
▁광 주</w>
▁본 격</w>
▁부 모</w>
머 니</w>
▁현 실</w>
▁중 소기업</w>
▁그 렇</w>
▁브 랜드</w>
▁달 리</w>
▁가 까
▁중 구</w>
▁어려 운</w>
▁마 을</w>
▁내 부</w>
서 관</w>
▁그 러
▁2 7</w>
▁안 정</w>
지 방</w>
▁대 법
▁2 2</w>
▁핵 심</w>
▁이 곳</w>
▁최 종</w>
회 사</w>
▁대 응</w>
트 남</w>
▁수 업</w>
관 계</w>
주 의</w>
민 국</w>
임 금</w>
▁매 년</w>
▁혁 신</w>
▁남 성</w>
핵 화</w>
▁책 임</w>
▁버 스</w>
▁치 료</w>
▁도 로</w>
먼 지</w>
▁자 연</w>
서 비스</w>
▁대 화</w>
▁디 자인</w>
▁추 천</w>
3 0</w>
▁호 텔</w>
▁제 대로</w>
▁별 지</w>
▁한 류</w>
▁인 근</w>
▁더 불</w>
▁201 8</w>
▁얘 기</w>
▁협 의</w>
▁설 립</w>
없 이</w>
▁연 결</w>
▁원 인</w>
▁제 한</w>
▁근 무</w>
동 산</w>
▁검 사</w>
▁건 설</w>
▁진 출</w>
▁무 대</w>
▁독 일</w>
사 항</w>
▁시 대</w>
▁주 제</w>
▁선 보
▁몸 몸</w>
국 당</w>
▁정 하</w>
회 장</w>
▁얼 마
▁놓 놓</w>
▁2 8</w>
▁문 재인</w>
▁201 6</w>
▁불 법</w>
▁온 라인</w>
평 가</w>
▁말 씀</w>
▁언 론</w>
▁비 핵화</w>
해 졌</w>
▁누 구</w>
랍 니다</w>
▁얼마 나</w>
원 장</w>
▁됩 니다</w>
▁시 험</w>
▁기 반</w>
밖 에</w>
병 원</w>
▁베 트남</w>
▁만 든</w>
▁평 균</w>
▁이 용
▁스 타
▁평 화</w>
▁그 러</w>
▁거 래</w>
▁2 6</w>
▁대 신</w>
▁축 제</w>
이 지</w>
가 지</w>
▁올 라
▁반 대</w>
▁등 록</w>
▁선 거</w>
반 기</w>
▁의 사</w>
▁표 현</w>
▁가 수</w>
▁취 소</w>
▁장 소</w>
가 능</w>
▁관 광
▁목 소리</w>
1 0</w>
▁수 요</w>
드 리</w>
▁조 직</w>
▁어린 이</w>
어 난</w>
▁법 원</w>
▁부 부</w>
▁모 델</w>
▁넣 넣</w>
▁동 시</w>
구 청장</w>
▁유 럽</w>
▁바 랍니다</w>
▁공 식</w>
▁현 대</w>
▁거 쳐</w>
▁종 합</w>
주 시</w>
으 니</w>
▁위 반</w>
▁재 판</w>
▁출 신</w>
더 라도</w>
▁아 래</w>
▁최 최</w>
▁보 유</w>
▁경 영</w>
▁이 어지</w>
으로 써</w>
사 자</w>
▁소 득</w>
무 리</w>
대 상</w>
▁가 진</w>
▁예 약</w>
▁서울 시</w>
▁의 료</w>
▁나 섰</w>
▁힘 들</w>
려 면</w>
▁대 형</w>
운 동</w>
▁전 략</w>
▁듣 듣</w>
▁그 럼</w>
▁노 래</w>
▁예 방</w>
▁밤 밤</w>
▁대 책</w>
▁접 수</w>
▁확 정</w>
교 육
▁방 향</w>
▁피 해자</w>
호 사</w>
▁혹 시</w>
▁구 체</w>
달 러</w>
은 데</w>
▁비 해</w>
부 서</w>
▁점 검</w>
▁중 앙</w>
사 고</w>
협 회</w>
▁조 정</w>
▁수 입</w>
▁방 침</w>
▁카 드</w>
▁부 동산</w>
수 록</w>
광 역
▁파 악</w>
▁절 차</w>
▁공 사</w>
▁글 글</w>
▁콘 텐츠</w>
% )</w>
세 먼지</w>
▁들어 가</w>
▁대한 민국</w>
▁비 교</w>
▁어려 움</w>
▁인 식</w>
▁수 도</w>
서 식</w>
▁관 광</w>
▁불 편</w>
라 면</w>
▁지 사</w>
스 로</w>
▁연 기</w>
▁아 름
▁출 시</w>
▁나 가</w>
▁거 리</w>
▁내 려
▁시 기</w>
▁국 토</w>
▁꿈 꿈</w>
젝 트</w>
▁촬 영</w>
▁은 행</w>
▁정 신</w>
만 큼</w>
▁주 관</w>
▁영 국</w>
현 지</w>
▁2 9</w>
▁위 촉</w>
▁시 즌</w>
치 원</w>
▁실 적</w>
▁전 시</w>
버 지</w>
▁복 지</w>
▁사 무
반 도</w>
▁질 문</w>
▁차 이</w>
▁소 식</w>
공 무원</w>
▁3 1</w>
▁늦 늦</w>
▁국 무</w>
제 로</w>
스 러
과 정</w>
▁201 7</w>
▁이 하</w>
▁취 업</w>
▁이 동</w>
▁자 기</w>
▁형 태</w>
▁저 녁</w>
▁부 탁</w>
▁가 져
▁못 한</w>
▁공 장</w>
▁통 합</w>
투 자</w>
▁삼성 전자</w>
▁사 장</w>
▁수 익</w>
▁한 다고</w>
▁업 계</w>
자 치</w>
▁구 속</w>
▁화 재</w>
▁6 0</w>
레 이</w>
광역 시</w>
▁에 너지</w>
▁정 확</w>
▁확 산</w>
▁향 후</w>
▁하 지만</w>
▁희 망</w>
▁법 률</w>
했 으며</w>
으로 부터</w>
▁걱 정</w>
이 크</w>
▁실 제로</w>
▁북 미</w>
▁스 스로</w>
▁201 5</w>
른 다</w>
▁언 급</w>
▁영 업</w>
▁미 세먼지</w>
▁아 침</w>
▁등 장</w>
’ (</w>
으로 서</w>
▁읽 읽</w>
▁출 연</w>
안 전</w>
경 기</w>
▁사 유</w>
▁잘 못</w>
▁앞 두</w>
▁제 주</w>
▁창 업</w>
단 지</w>
▁상 담</w>
▁프로 젝트</w>
▁발 언</w>
▁움 직
▁선 발</w>
▁승 리</w>
을 까요</w>
▁시 도</w>
▁매 출</w>
세 대</w>
▁바 이
트 폰</w>
▁속 도</w>
▁작 가</w>
▁소 재</w>
▁금 액</w>
▁가 정</w>
협 력</w>
▁아 시아</w>
한 테</w>
▁기 여</w>
▁노 동</w>
▁완 료</w>
▁19 9
▁계 기</w>
▁능 력</w>
▁항 상</w>
▁신 규</w>
▁믿 믿</w>
▁거 의</w>
▁소 송</w>
데 요</w>
▁보 였</w>
▁여 전히</w>
▁조 선</w>
민 주당</w>
▁아 동</w>
행 사</w>
▁노 인</w>
▁서 류</w>
통 신</w>
▁공 공</w>
▁듯 듯</w>
스 럽</w>
▁경 쟁
▁민 주당</w>
포 츠</w>
▁연 구
▁채 용</w>
▁어 제</w>
주 민</w>
▁기 억</w>
구 역</w>
▁전 환</w>
▁편 편</w>
결 과</w>
기 준</w>
▁총 리</w>
▁( (</w>
▁스마 트폰</w>
공 원</w>
▁돼 돼</w>
▁하 락</w>
▁교 통</w>
▁행 위</w>
▁통 한</w>
▁세 상</w>
▁맛 맛</w>
▁특 징</w>
어 도</w>
▁부 과</w>
제 도</w>
▁중 단</w>
▁나 서</w>
버 스</w>
▁체 결</w>
▁선 물</w>
스 타</w>
행 정</w>
한 국</w>
▁이 르</w>
▁약 속</w>
▁대 출</w>
▁규 칙</w>
▁봤 봤</w>
▁향 상</w>
▁위 기</w>
재 단</w>
▁행 동</w>
드 립니다</w>
주 도</w>
페 인</w>
▁갈 등</w>
리 그</w>
▁자 원</w>
▁결 국</w>
산 물</w>
▁광 고</w>
▁한 반도</w>
▁주 도</w>
▁깊 깊</w>
▁해 서</w>
▁기 금</w>
시 지</w>
처 리</w>
▁보 다</w>
과 장</w>
▁요 즘</w>
▁고 민</w>
▁사 망</w>
▁예 술</w>
▁단 계</w>
▁반 응</w>
제 품</w>
로 자</w>
▁자 금</w>
▁사 업
▁달 러</w>
▁기 사</w>
▁데 이터</w>
▁결 제</w>
▁하 나
▁프 랑
▁그래 서</w>
▁괜 찮</w>
▁과 학</w>
▁개 정</w>
▁경 남</w>
▁축 구</w>
▁존 재</w>
▁의 한</w>
이 션</w>
▁통 과</w>
▁인 한</w>
▁대 구</w>
▁회 원</w>
▁승 인</w>
발 전</w>
▁아 아</w>
널 드</w>
▁오 래</w>
▁도 와</w>
▁줄 어
▁외 부</w>
라 서</w>
▁센 터</w>
▁재 정</w>
▁강 원
▁자 녀</w>
스 터</w>
▁전 반</w>
▁한국 어</w>
▁장 기</w>
금 융</w>
됩 니다</w>
▁차 례</w>
▁빠 르</w>
▁교 회</w>
▁예 예</w>
라 이
▁소 통</w>
▁얼 굴</w>
▁인 구</w>
▁제 재</w>
▁이 루</w>
▁관 객</w>
▁주 로</w>
▁화 장
▁유 통</w>
카 드</w>
▁다 르</w>
▁해 도</w>
▁내 놓</w>
다 운</w>
▁공 정</w>
▁비 슷</w>
▁20 0</w>
▁도 널드</w>
▁공 격</w>
자 금</w>
▁무 료</w>
▁멤 버</w>
▁의 장</w>
▁이 끌</w>
도 체</w>
▁육 성</w>
아 가</w>
▁인 도</w>
▁특 정</w>
▁갔 갔</w>
페 이지</w>
▁택 시</w>
미 지</w>
심 사</w>
▁창 출</w>
▁아 주</w>
▁만 드</w>
▁인 간</w>
▁자 주</w>
▁빨 리</w>
▁전 기</w>
자 원</w>
디 오</w>
▁인 인</w>
셔 서</w>
레 스</w>
▁직 무</w>
▁물 건</w>
▁대 중</w>
▁별 도</w>
▁연 장</w>
▁그 림</w>
▁불 구</w>
대 책</w>
사 관</w>
마 을</w>
▁7 0</w>
성 장</w>
▁강 강</w>
장 관</w>
▁의 지</w>
▁특 성</w>
▁상 당</w>
자 자</w>
▁수 상</w>
▁옷 옷</w>
▁관광 객</w>
▁도 민</w>
▁피 부</w>
% ,</w>
거 운</w>
▁바 람</w>
▁결 혼</w>
직 원</w>
연구 원</w>
▁인 력</w>
▁비 중</w>
▁덧 붙
벤 트</w>
▁투 입</w>
예 술</w>
장 애</w>
▁성 적</w>
▁하나 님</w>
▁선 고</w>
▁사 이
▁부 문</w>
해 도</w>
▁늘 어나</w>
▁시 절</w>
가 족</w>
▁추 정</w>
▁보 장</w>
업 무</w>
▁보 고서</w>
▁배 송</w>
▁선 생</w>
▁죄 송</w>
▁마 무리</w>
시 스템</w>
▁긍 정</w>
▁배 경</w>
▁커 지</w>
▁보 수</w>
▁따 로</w>
▁주 최</w>
▁출 석</w>
▁본 인</w>
▁거 주</w>
▁전 자</w>
총 리</w>
1 9</w>
▁학 습</w>
운 드</w>
▁여 름</w>
▁프랑 스</w>
▁나 온</w>
▁범 죄</w>
▁해 소</w>
▁단 지</w>
▁엄 마</w>
▁일 상</w>
▁완 화</w>
대 학교</w>
부 모</w>
▁느 끼</w>
▁장 면</w>
법 인</w>
▁이 루
청 자</w>
▁주 말</w>
께 서</w>
▁경 북</w>
▁메 시지</w>
국 장</w>
분 기</w>
▁아 들</w>
▁머 리</w>
▁그 렇게</w>
▁홍 콩</w>
▁이 미지</w>
▁한 국인</w>
수 료</w>
▁현 상</w>
▁이 벤트</w>
▁의 해</w>
보 험</w>
▁통 보</w>
▁얼 마</w>
▁비 율</w>
자 체</w>
도 지사</w>
▁인 천
▁변 호사</w>
당 국</w>
▁그 대로</w>
▁아 버지</w>
▁미 리</w>
▁해 석</w>
므 로</w>
▁이 재
▁딸 딸</w>
▁펼 쳐
스 크</w>
인 가요</w>
▁이뤄 지
▁소 리</w>
소 득</w>
거 래</w>
▁지 도</w>
▁지 나</w>
▁스 타</w>
▁둘 러
연 금</w>
▁마 치</w>
을 지</w>
▁의 무</w>
폭 력</w>
교 회</w>
▁부 정</w>
▁노동 자</w>
▁201 4</w>
스 트
행 위</w>
▁사 무</w>
정 상</w>
서 트</w>
▁청 구</w>
▁민 주</w>
▁덧붙 였</w>
▁차 원</w>
▁매 장</w>
기 물</w>
1 2</w>
▁젊 젊</w>
▁경쟁 력</w>
▁조 건</w>
내 대표</w>
조 금</w>
공 단</w>
▁잃 잃</w>
▁교 류</w>
▁교 사</w>
▁최 소</w>
▁여 러
▁배 출</w>
o p</w>
▁홈 페이지</w>
▁발 굴</w>
▁동 물</w>
▁원 내대표</w>
▁심 각</w>
▁김 정
▁인 증</w>
T V</w>
문 화
▁바 탕</w>
▁가 구</w>
▁부 상</w>
’ ,</w>
체 인</w>
자 기</w>
식 품</w>
▁소 비</w>
▁동 의</w>
▁201 9</w>
▁반 도체</w>
▁연 계</w>
▁할 인</w>
담 회</w>
▁임 명</w>
▁강원 도</w>
▁뉴 욕</w>
게 임</w>
▁아 시
▁교 체</w>
1 8</w>
가 격</w>
화 폐</w>
으 면서</w>
기 구</w>
▁판 결</w>
2 5</w>
▁임 기</w>
심 히</w>
▁가 입</w>
▁인터 뷰</w>
▁나타 나</w>
도 로</w>
▁여러 분</w>
▁형 성</w>
▁현 대
▁스마 트</w>
미 래</w>
▁요 리</w>
공 항</w>
▁매 력</w>
▁혜 택</w>
▁의 하</w>
▁인 도
▁공 항</w>
나 가</w>
▁기 초</w>
대 학</w>
▁순 간</w>
▁만 약</w>
주 년</w>
드 컵</w>
▁지 하
▁셈 셈</w>
케 팅</w>
▁이용 자</w>
▁여 론</w>
▁산 산</w>
▁보 험</w>
▁정 리</w>
연 구</w>
B S</w>
1 3</w>
차 장</w>
N S</w>
▁재 난</w>
▁기다 리</w>
▁연 속</w>
▁내 리</w>
▁소 방</w>
바 이
▁사 라
히 려</w>
림 픽</w>
교 통</w>
▁혼 자</w>
▁체 계</w>
선 거</w>
▁금 리</w>
▁우 승</w>
▁최 저</w>
메 라</w>
▁식 식</w>
▁근 로자</w>
영 장</w>
영 상</w>
▁노 조</w>
▁시 점</w>
▁강 한</w>
▁롯 데</w>
8 0</w>
▁알 리</w>
▁지 시</w>
▁오 히려</w>
▁옆 옆</w>
냐 는</w>
▁전 부</w>
페 이</w>
▁회 계</w>
산 시</w>
▁스 트
▁금 지</w>
전 쟁</w>
▁취 지</w>
▁5 00</w>
무 부</w>
가 포
▁운 행</w>
▁신 뢰</w>
▁자 율</w>
록 체인</w>
▁올 리</w>
▁법 인</w>
▁농 업</w>
등 학교</w>
가포 르</w>
▁임 금</w>
관 리
▁문 화
아 들
▁오 르</w>
▁회 담</w>
니 스</w>
▁훈 련</w>
▁실 무</w>
워 크</w>
▁주 식</w>
▁원 칙</w>
이 라고</w>
실 장</w>
▁회 복</w>
▁준 준</w>
▁둘 둘</w>
▁건 가요</w>
1 1</w>
이 스
인 트</w>
▁장 비</w>
▁새 로</w>
▁이 행</w>
▁전 혀</w>
▁첨 부</w>
▁모 여</w>
▁최 선</w>
▁전 시
▁인 물</w>
▁모 집</w>
란 다</w>
대 한</w>
▁수 술</w>
▁돕 돕</w>
▁뭐 뭐</w>
조 정</w>
4 0</w>
▁허 가</w>
▁근 로</w>
한 다면</w>
▁다 가
▁나 누</w>
▁의 심</w>
▁아 무
▁열 심히</w>
▁매 일</w>
지 털</w>
정 안</w>
▁납 부</w>
▁감 정</w>
▁지 자체</w>
▁과 제</w>
▁기 념</w>
▁외 국</w>
경 찰
▁측 면</w>
▁식 당</w>
▁좋 아
▁T V</w>
▁받 아들
▁대 북</w>
▁교 통
▁떨 어지</w>
▁답 변</w>
▁기 념
중 앙</w>
▁관 측</w>
▁물 품</w>
협 의회</w>
▁8 0</w>
▁201 3</w>
▁대 기</w>
▁넘 어
문 제</w>
▁3 00</w>
▁국 립</w>
B C</w>
교육 청</w>
▁국 방
▁근 거</w>
▁겁 니다</w>
드 시</w>
▁강 남</w>
▁바 라</w>
▁미 치</w>
▁바 른</w>
노 동
계 약</w>
▁일 어나</w>
스러 운</w>
▁반 발</w>
▁식 사</w>
▁바 뀌</w>
▁싱 가포르</w>
▁블 록체인</w>
바 일</w>
▁입 주</w>
▁반 드시</w>
물 관</w>
▁투 자자</w>
▁사 태</w>
▁날 씨</w>
▁수 정</w>
▁불 과</w>
▁대 만</w>
라 질</w>
▁늘 어
▁눈 길</w>
▁정 당</w>
지 구</w>
을 까</w>
변 인</w>
▁출 발</w>
▁담 긴</w>
검 사</w>
2 1</w>
▁경 찰
▁안 내</w>
▁평 소</w>
6 0</w>
네 시아</w>
▁제 일</w>
▁강 력</w>
▁살 펴
▁통 화</w>
이 익</w>
▁다 수</w>
시 민</w>
▁부 인</w>
▁생 기</w>
▁제 조</w>
▁인 하</w>
▁연 간</w>
자 료</w>
구 조</w>
▁콘 서트</w>
▁장 점</w>
▁이 란</w>
자 동차</w>
▁앉 앉</w>
이 드</w>
▁무 슨</w>
세 계</w>
▁식 품</w>
차 례</w>
▁직 업</w>
▁전 날</w>
▁전 해졌</w>
▁프 리
▁나 이</w>
같 이</w>
▁유 일</w>
2 2</w>
분 야</w>
▁참 참</w>
▁줄 이</w>
▁대 체</w>
▁종 류</w>
▁스 포츠</w>
▁남 편</w>
▁강 제</w>
공 간</w>
▁시 각</w>
▁전 년</w>
▁호 주</w>
▁전 남</w>
▁배 치</w>
▁구 민</w>
1 5</w>
비 용</w>
▁폭 염</w>
▁그러 나</w>
▁크 리
▁차 별</w>
▁목 사</w>
나 무</w>
나 다</w>
▁도 전</w>
▁민 원</w>
금 리</w>
▁전 쟁</w>
사 진</w>
항 공</w>
서 울
▁유 치</w>
▁맛 있</w>
▁대 전</w>
▁겨 울</w>
체 계</w>
▁통 신</w>
▁접 근</w>
▁보 여
▁협 조</w>
▁드 리</w>
5 00</w>
▁정 기</w>
조 치</w>
▁당 국</w>
의 료</w>
▁일 으
▁완 성</w>
기 금</w>
▁커 피</w>
▁처 벌</w>
▁인도 네시아</w>
▁가 득</w>
조 합</w>
▁정 비</w>
우 스</w>
▁그 냥</w>
▁인 권</w>
▁긴 급</w>
▁201 2</w>
▁폭 행</w>
▁부 서</w>
▁라 이
▁개 혁</w>
웨 이</w>
개 선</w>
▁악 화</w>
▁품 질</w>
▁분 양</w>
▁느 낌</w>
퓨 터</w>
▁수 원</w>
▁진 단</w>
동 체</w>
▁떠 나</w>
▁국 회
▁재 산</w>
▁거 부</w>
▁촉 구</w>
▁초 기</w>
▁설 계</w>
▁곧 곧</w>
의 자</w>
▁빠 른</w>
▁즐 길</w>
▁마 케팅</w>
▁사 용
▁곳 곳</w>
▁작 년</w>
▁메 일</w>
▁플 랫</w>
▁즐 기</w>
건 설</w>
▁탓 탓</w>
▁지 켜
▁지 식</w>
▁화 제</w>
해 진</w>
▁어 머니</w>
분 히</w>
▁진 술</w>
▁생 명</w>
▁원 장</w>
저 임금</w>
▁불 리</w>
▁학 부모</w>
▁소 방
경 기
▁표 시</w>
▁특 수</w>
▁바 란다</w>
▁전 력</w>
▁관 하</w>
▁수 수료</w>
했 으나</w>
▁참 가
당 자</w>
▁잇 따
▁상 당
▁국 정</w>
이스 북</w>
▁S NS</w>
고 기</w>
▁답 답</w>
▁평 양</w>
▁땅 땅</w>
이 사</w>
▁초 과</w>
▁통 일</w>
▁궁 금</w>
주 일</w>
▁교육 감</w>
과 학</w>
▁양 국</w>
트 워크</w>
방 송</w>
시 대</w>
▁끝 나</w>
▁짧 짧</w>
▁지 지</w>
▁디 지털</w>
릭 터</w>
▁모 바일</w>
▁맺 맺</w>
▁선 언</w>
터 리</w>
준 다</w>
스 토
러 스</w>
▁도 서관</w>
청 서</w>
▁본 다</w>
▁국방 부</w>
학 년</w>
▁동 일</w>
▁지 도
▁열 렸</w>
행 령</w>
▁원 하</w>
우 리</w>
▁유 치원</w>
▁실 질</w>
▁나 와</w>
▁기 재</w>
회 견</w>
▁훨 씬</w>
▁아름 다운</w>
▁부 진</w>
가 구</w>
▁반 복</w>
자 는</w>
▁고 양
▁보 안</w>
▁밝 힌</w>
▁허 용</w>
전 거</w>
▁증 거</w>
▁년 년</w>
교 통
▁캐 나다</w>
▁자 격</w>
▁최 대한</w>
국 가</w>
▁다 소</w>
▁올 랐</w>
어 진</w>
직 자</w>
▁캐 릭터</w>
▁권 리</w>
▁공 모</w>
▁운 전</w>
▁L G</w>
▁독 립</w>
▁낸 낸</w>
▁참가 자</w>
▁자 동</w>
▁임 시</w>
▁인 수</w>
▁졸 업</w>
▁이 달</w>
▁페 이스북</w>
▁종 료</w>
▁이 익</w>
▁양 성</w>
▁거 기</w>
▁의 회</w>
행 기</w>
프 라</w>
학 원</w>
▁충 분히</w>
▁세 대</w>
▁직 후</w>
▁강 남
▁자 문</w>
▁의 결</w>
▁컴 퓨터</w>
▁감 안</w>
▁보 관</w>
▁군 사</w>
▁처 분</w>
▁끝 난</w>
▁교육 부</w>
▁절 반</w>
▁핵 핵</w>
▁멕 시
▁국회 의원</w>
▁비 상</w>
▁카 메라</w>
▁알 아
▁아시 안</w>
▁넓 넓</w>
관 광</w>
▁상 호</w>
▁다 니</w>
7 0</w>
▁암 호</w>
프 로
▁지 키</w>
▁적 발</w>
▁달 성</w>
▁김 영
▁역 량</w>
▁영 화
▁묻 묻</w>
개 국</w>
국 제</w>
▁충 분</w>
▁바 다</w>
▁관 세</w>
아 지</w>
▁평 생</w>
▁제 주도</w>
▁실 패</w>
이 번</w>
탁 자</w>
▁S K</w>
이 집</w>
▁협 약</w>
▁요 인</w>
가 스</w>
▁예 측</w>
스 탄</w>
감 사</w>
보 호</w>
▁실 현</w>
내 외</w>
▁발 행</w>
스 코</w>
▁맞 춰</w>
▁발 급</w>
▁위 협</w>
▁드러 났</w>
의 장</w>
능 력</w>
▁즉 시</w>
▁법 안</w>
시 켜</w>
▁기 분</w>
▁취 약</w>
▁설 정</w>
▁그 런
▁바 꾸</w>
머 지</w>
다 른</w>
인 공</w>
▁충 남</w>
▁순 위</w>
201 8</w>
▁앱 앱</w>
▁밝 히</w>
뮤 니
▁카 페</w>
▁대법 원</w>
상 황</w>
▁재 판
▁구 분</w>
법 원</w>
준 히</w>
▁판 매
▁건 축</w>
▁당 부</w>
▁인 생</w>
▁자 세</w>
▁방 지</w>
▁꾸 준히</w>
▁나 머지</w>
▁보 통</w>
▁개 편</w>
▁붙 붙</w>
▁검 증</w>
▁가까 운</w>
▁성 격</w>
▁개 정안</w>
상 금</w>
▁흐 름</w>
▁그 때</w>
▁시 행령</w>
▁사 이트</w>
해 선</w>
▁갖 추</w>
▁전 면</w>
업 계</w>
▁반 면</w>
물 질</w>
▁부 여</w>
▁공 정
군 요</w>
▁벌 이</w>
▁친 환경</w>
▁운 용</w>
▁아 마
▁거 래
▁시 청자</w>
▁나 무</w>
감 독</w>
▁구 입</w>
▁직 장</w>
메 일</w>
▁보 조금</w>
▁사무 실</w>
▁보 냈</w>
▁메 뉴</w>
▁기 소</w>
▁토 지</w>
▁새 롭</w>
▁나 선</w>
▁증 상</w>
▁소 요</w>
▁따 뜻</w>
▁초 청</w>
▁시 군</w>
▁공 기</w>
리 카</w>
▁세 부</w>
▁사 과</w>
▁마 시</w>
▁작 용</w>
▁기 대
천 만</w>
▁출 전</w>
▁미 만</w>
▁특 별
시 켰</w>
▁확 장</w>
▁일 단</w>
▁아 내</w>
▁갑 자기</w>
▁그 곳</w>
▁근 처</w>
▁포 기</w>
▁집 행</w>
▁주 거</w>
▁상 반기</w>
▁동 영상</w>
▁사 업자</w>
▁맞 춤</w>
▁태 풍</w>
▁충 격</w>
▁풍 부</w>
i n
▁유 리</w>
▁시 청</w>
▁카 카
▁대 변인</w>
▁서 식</w>
▁한 편</w>
▁주 차</w>
▁실 력</w>
재 산</w>
훈 련</w>
▁최 저임금</w>
허 가</w>
▁폐 지</w>
▁일 본
운 용</w>
▁별 표</w>
▁멕시 코</w>
▁보 상</w>
▁9 0</w>
▁시 범</w>
트 업</w>
▁건 립</w>
단 계</w>
▁보 건</w>
▁단 위</w>
▁생 태</w>
주 자</w>
연 합</w>
▁압 박</w>
아 도</w>
▁전 용</w>
체 육
혁 신</w>
번 호</w>
릴 게요</w>
▁새 벽</w>
▁바 라
▁징 수</w>
▁권 한</w>
▁1 0
▁영 역</w>
여 성</w>
▁중 간</w>
▁태 국</w>
▁비 행기</w>
기 에</w>
예 산</w>
▁간 사</w>
▁세 금</w>
▁따 른다</w>
우 드</w>
규 직</w>
▁여 야</w>
▁이어 졌</w>
▁개 별</w>
규 칙</w>
▁진 입</w>
▁하 반기</w>
축 물</w>
▁외 교</w>
▁주 가</w>
▁요 금</w>
▁강 하</w>
▁매 체</w>
스 티
▁월 드컵</w>
▁활 약</w>
지 도</w>
▁만 족</w>
부 장</w>
▁조 기</w>
▁가 르
▁한 계</w>
▁타 이
▁월 월</w>
1 4</w>
개 혁</w>
시 험</w>
▁강남 구</w>
▁수 용</w>
▁나 올</w>
▁언 어</w>
▁미 안</w>
건 강</w>
친 구</w>
▁현 금</w>
체 험</w>
▁아이 디어</w>
교 사</w>
▁추 세</w>
▁브 라질</w>
▁부 회장</w>
▁경 비</w>
▁자 전거</w>
축 제</w>
람 회</w>
▁대 로</w>
▁상 장</w>
▁불 가
지 수</w>
▁시 선</w>
▁관 람
협 상</w>
설 물</w>
▁줄어 들</w>
▁단 순</w>
종 합</w>
느 냐</w>
▁편 의</w>
▁자 산</w>
▁커 뮤니
▁신 속</w>
▁불 안</w>
▁계 산</w>
리 핀</w>
▁예 비</w>
▁가 졌</w>
▁전시 회</w>
▁이 사장</w>
▁집 단</w>
▁앨 범</w>
▁기 온</w>
선 언</w>
마 트</w>
▁당 연</w>
▁좋아 하</w>
1 6</w>
는 데요</w>
▁초 등</w>
▁이 슈</w>
▁크 기</w>
2 4</w>
▁신 경</w>
사 단</w>
▁수 많</w>
바이 오</w>
▁기 부</w>
▁통 하</w>
▁이 사</w>
▁신 용</w>
▁부 품</w>
▁이 외</w>
선 다</w>
▁저 렴</w>
시 행</w>
▁촉 진</w>
▁지 구</w>
▁적 절</w>
▁지하 철</w>
▁사 정</w>
▁사 실
회 계</w>
▁편 리</w>
▁책 임
▁공 원</w>
▁선 호</w>
공 개</w>
▁프 로</w>
▁임 대</w>
▁걸 쳐</w>
2 3</w>
▁상 징</w>
▁겸 겸</w>
▁수 집</w>
▁축 하</w>
▁선 임</w>
▁노 선</w>
상 품</w>
사 건</w>
▁윤 윤</w>
▁요 소</w>
▁손 해</w>
▁뛰 어
문 수</w>
▁잠 시</w>
▁다 이
▁해 제</w>
▁걸 리</w>
증 권</w>
셔 야</w>
점 검</w>
▁기대 감</w>
▁구 간</w>
화 점</w>
이 블</w>
▁이 메일</w>
▁스타 트업</w>
▁단 속</w>
▁수 탁자</w>
농 업</w>
세 기</w>
▁열 린다</w>
공 장</w>
▁주 소</w>
▁주 인공</w>
▁일 어
▁완 전히</w>
▁쉬 쉬</w>
▁취 하</w>
▁정 한</w>
▁안 건</w>
▁모 양</w>
▁가까 이</w>
▁자 랑</w>
▁201 1</w>
연구 소</w>
▁점 점</w>
▁포 장</w>
▁역 역</w>
▁달 라
시 킬</w>
▁필 수</w>
▁사실 상</w>
▁갖 춘</w>
▁투 표</w>
▁자 치</w>
▁노 출</w>
▁극 극</w>
사 무
▁소 유</w>
▁사 법</w>
▁돌아 가</w>
▁김 정</w>
▁결 론</w>
진 흥</w>
▁강 사</w>
▁원 활</w>
▁북 부</w>
▁명 예</w>
▁항 공
▁지 지
▁분 명</w>
▁절 대</w>
▁꽃 꽃</w>
▁교 환</w>
▁재 미
▁오 른
신 청</w>
▁스 페인</w>
▁개 입</w>
▁테 테</w>
현 장</w>
▁쓴 쓴</w>
▁의 식</w>
▁유 출</w>
▁움직 임</w>
▁201 0</w>
수 사</w>
▁적 합</w>
▁고 통</w>
전 문</w>
▁활 발</w>
▁국 내외</w>
▁연 출</w>
1 7</w>
판 사</w>
▁당 장</w>
2 7</w>
효 과</w>
▁힘 든</w>
▁지 분</w>
▁후 반</w>
▁종 목</w>
▁인 재</w>
▁울 산</w>
▁경기 도지사</w>
아 리</w>
▁일 제</w>
▁예 고</w>
▁응 원</w>
▁부 당</w>
▁달 하</w>
▁향 해</w>
▁드 드</w>
▁신 설</w>
▁사 안</w>
▁만 난</w>
거 래
▁환 불</w>
▁통 신
▁출 산</w>
▁인 프라</w>
▁알려 진</w>
P op</w>
▁오 랜</w>
▁뉴 스</w>
▁공 감</w>
학 습</w>
기 술
국 민</w>
개 소</w>
실 히</w>
▁문 건</w>
확 히</w>
▁함 함</w>
▁토 론</w>
▁토 대</w>
▁지 연</w>
▁필 리핀</w>
▁정 권</w>
시 오</w>
▁경 고</w>
▁미 디어</w>
▁담 겨</w>
로 구</w>
▁치 열</w>
지 부</w>
▁심 리</w>
▁베 이
▁났 났</w>
흥 원</w>
스 타
▁산 하</w>
▁부 장</w>
아 시아</w>
선 수</w>
▁지 내</w>
▁징 계</w>
▁가 동</w>
▁폭 발</w>
▁주 의</w>
▁김 문수</w>
즈 니스</w>
▁지 나
▁의 도</w>
흥 민</w>
서울 특별시</w>
▁아 르
▁봉 사</w>
▁내 렸</w>
▁기 타</w>
▁기 계</w>
▁강 의</w>
로 잡</w>
▁제 거</w>
▁불 거
▁통 계</w>
▁총 괄</w>
▁사 상</w>
▁아 무</w>
▁19 8
는 다는</w>
▁안 전
▁문 서</w>
할 지</w>
▁오 픈</w>
연 히</w>
▁풀 이</w>
파 크</w>
조 차</w>
▁유 엔</w>
▁백 백</w>
등 급</w>
경기 도</w>
▁지 원
▁비 밀</w>
▁공 시</w>
▁개 방</w>
레이 시아</w>
▁걷 걷</w>
▁그래 도</w>
영 화</w>
▁토 론
▁1 8
인 력</w>
▁화장 품</w>
▁이 틀</w>
▁전 해</w>
▁인 원</w>
▁살펴 보</w>
동 물</w>
▁터 키</w>
▁원 래</w>
▁실 천</w>
▁보 급</w>
사 일</w>
▁펼 치</w>
▁정 한다</w>
▁보 완</w>
▁그 간</w>
▁출 장</w>
▁올 렸</w>
▁비 난</w>
다 니</w>
▁연구 원</w>
유 치원</w>
에 너지</w>
▁프리 미
▁끌 어
▁증 시</w>
▁법 령</w>
▁혹 은</w>
▁파 일</w>
▁차 관</w>
▁본 사</w>
영 업</w>
▁개 성</w>
조 건</w>
▁케 이</w>
수 당</w>
▁부 르</w>
▁손 흥민</w>
▁될 까요</w>
▁강 원</w>
▁대법 원장</w>
▁대 학생</w>
회 관</w>
▁전 북</w>
▁이어 질</w>
▁역 대</w>
리 트</w>
교통 부</w>
▁철 도</w>
▁짓 짓</w>
▁아 쉬
▁불 만</w>
▁냈 냈</w>
▁보 험
▁20 00</w>
▁만 날</w>
든 지</w>
▁어린 이집</w>
▁누 가</w>
평 화</w>
가 치</w>
▁표 표</w>
▁모 으</w>
▁알려 져</w>
▁개 설</w>
레 기</w>
▁운 전자</w>
▁싫 싫</w>
▁3 5</w>
▁클 럽</w>
▁인 공
북 부</w>
▁골 골</w>
경 찰</w>
▁의 뢰</w>
▁재미 있</w>
▁일 찍</w>
▁초 대</w>
▁밥 밥</w>
포 구</w>
▁보 조</w>
▁체 육</w>
여 서</w>
혁 명</w>
▁예 전</w>
도 서관</w>
▁재판 부</w>
▁살 아
▁네 트워크</w>
▁구 글</w>
▁점 수</w>
▁인천 광역시</w>
▁말 레이시아</w>
▁마 이크</w>
▁단 독</w>
▁폼 페이</w>
▁김 성
▁경 력</w>
▁문 제
▁밝 혀
▁태 도</w>
▁샘 플</w>
▁가 을</w>
▁느 낄</w>
등 록</w>
▁후 원</w>
▁취 임</w>
▁출 범</w>
▁법 정</w>
는 가</w>
▁와 서</w>
▁다 녀
▁여 의
▁미 술</w>
▁어 울
방 안</w>
▁전 개</w>
▁아 닌
공 인</w>
▁간 담회</w>
소 년
▁진 정</w>
▁기 울
▁댓 글</w>
이 너</w>
▁패 션</w>
▁생 겼</w>
국 어</w>
처 분</w>
▁권 고</w>
▁데 뷔</w>
▁덕 분</w>
▁고 발</w>
▁200 9</w>
▁헌 법</w>
▁다 리</w>
▁고 등학교</w>
▁키 우</w>
▁관 할</w>
▁보 존</w>
e r
인 가</w>
▁거 론</w>
전 화</w>
▁집 계</w>
여 행</w>
대 출</w>
난 다</w>
교 류</w>
▁정 황</w>
▁잠 잠</w>
▁노 사</w>
범 죄</w>
▁메 이
▁마 약</w>
▁체 제</w>
▁일 대</w>
▁유 사</w>
▁훼 손</w>
2 8</w>
▁외 교
▁벗 어나</w>
▁난 민</w>
▁그 린</w>
으 시</w>
▁할 머니</w>
▁정 체</w>
▁어 린</w>
▁쌓 쌓</w>
▁보 낸</w>
공 연</w>
▁채 널</w>
▁주 차장</w>
▁뛰 뛰</w>
▁담 당자</w>
▁가 게</w>
십 시오</w>
놀 이</w>
▁청 소</w>
▁만 남</w>
▁유 해</w>
환 자</w>
플 레이</w>
설 팅</w>
튜 브</w>
▁흥 미</w>
▁폐 기물</w>
▁전 하</w>
▁항 공</w>
협 약</w>
감 원</w>
▁웃 웃</w>
대 상자</w>
▁정 착</w>
▁뜨 거운</w>
▁지 출</w>
▁이 건</w>
▁목 목</w>
▁누 군
▁면 접</w>
▁나 갈</w>
돼 야</w>
▁문 자</w>
신 고</w>
▁범 행</w>
a r
▁종 전</w>
▁극 복</w>
학 자</w>
▁이 동
▁기 상
아 이</w>
관 련</w>
▁광 주시</w>
계 층</w>
▁화 면</w>
▁환 경
▁차 단</w>
▁종 교</w>
▁이 해
▁연 습</w>
지 능</w>
▁공 익</w>
▁형 사</w>
▁컸 컸</w>
▁그런 데</w>
▁연 말</w>
▁불가 피</w>
▁중 소</w>
▁완 벽</w>
▁빚 빚</w>
경찰 서</w>
▁휴 대</w>
▁충 북</w>
▁따 라
▁관 리
▁전 공</w>
▁동 료</w>
▁재 개</w>
▁잊 잊</w>
▁매 각</w>
근 혜</w>
▁스트 레스</w>
▁포 인트</w>
▁반 환</w>
고 요</w>
▁편 성</w>
▁200 8</w>
▁수 석</w>
▁비 즈니스</w>
데 이터</w>
봉 사</w>
▁통 제</w>
입 니까</w>
▁모 아</w>
▁농 가</w>
▁금 감원</w>
조 업</w>
보 건</w>
▁찾아 가</w>
▁아이 돌</w>
▁그러 면</w>
▁그 리</w>
▁유 도</w>
▁업 종</w>
사 업자</w>
▁실 시간</w>
▁오 른</w>
▁뽑 뽑</w>
▁현 황</w>
▁커뮤니 티</w>
▁여 건</w>
▁수 능</w>
a n
2 6</w>
▁관 람</w>
총 장</w>
유 자</w>
▁당 초</w>
이 상</w>
▁화 려</w>
▁못 해</w>
▁확 실</w>
수 단</w>
▁형 식</w>
▁진 짜</w>
▁작 동</w>
▁임 임</w>
▁서 명</w>
▁빛 빛</w>
▁수 학</w>
▁시 정</w>
▁시 위</w>
▁모 임</w>
▁임 원</w>
▁1 50</w>
o r
폭 행</w>
추 진</w>
입 자</w>
▁관람 객</w>
토 리</w>
▁총 장</w>
▁스타 일</w>
▁실 험</w>
▁실 수</w>
▁코 스
▁적 정</w>
▁상 위</w>
▁도 심</w>
▁가 방</w>
평 등</w>
▁세 월</w>
▁선보 이</w>
▁당 일</w>
▁20 20</w>
장 히</w>
리 즈</w>
▁측 정</w>
▁전 원</w>
운 전</w>
▁연 령</w>
▁빅 빅</w>
▁나 아가</w>
▁부 지</w>
▁그 만큼</w>
▁수 리</w>
▁부 총리</w>
▁기 도</w>
프로 그램</w>
정 원</w>
연 맹</w>
▁이 끄</w>
▁들어 오</w>
니 아</w>
▁실 태</w>
▁단 축</w>
▁열 정</w>
방 법</w>
리 스</w>
▁점 심</w>
▁드러 나</w>
▁굉 장히</w>
▁판 사</w>
▁이 탈
▁대 폭</w>
▁급 증</w>
이 버</w>
소년 단</w>
노 동</w>
▁추 석</w>
▁보 육</w>
▁나 선다</w>
참 여</w>
▁현대 차</w>
▁주 주</w>
▁A I</w>
요 금</w>
동 구</w>
▁완 전</w>
▁신 문</w>
문 점</w>
▁티 켓</w>
▁응 답</w>
▁여 당</w>
▁농 농</w>
▁김정 은</w>
청 소년</w>
▁방 송
▁번 호</w>
작 업</w>
▁뮤 지
안 정</w>
▁야 당</w>
▁유 튜브</w>
▁위 주</w>
▁신 체</w>
▁연 예
▁밝 밝</w>
▁늘 리</w>
한 지</w>
▁크리 스
▁실 행</w>
▁대 안</w>
어 졌</w>
▁채 택</w>
▁합 동</w>
▁지 하</w>
▁김 동
라 운드</w>
▁발 송</w>
이 랑</w>
▁계 정</w>
▁상 처</w>
탄 소년단</w>
▁둔 둔</w>
코 리아</w>
▁계 좌</w>
악 관</w>
시 티</w>
▁수 당</w>
가 량</w>
▁실 내</w>
지 대</w>
▁화장 실</w>
됐 으며</w>
기 기</w>
▁해 양</w>
▁기상 청</w>
독 교</w>
결 정</w>
▁통 해서</w>
▁재 료</w>
▁마 찬
▁올 린</w>
▁수 여</w>
▁임 직원</w>
차 량</w>
▁마찬 가지</w>
지 법</w>
▁복 합</w>
▁지 불</w>
▁입 학</w>
▁안 타
▁대 상자</w>
▁성 인</w>
▁특 허</w>
▁숨 숨</w>
▁사 립</w>
▁분 리</w>
태 료</w>
▁가 슴</w>
원 구</w>
▁통 지</w>
특 별</w>
연 장</w>
내 용</w>
무 사</w>
▁테 스트</w>
▁들어 갔</w>
웨 어</w>
▁한 인</w>
2 9</w>
일 보</w>
▁유 입</w>
금 액</w>
▁조 작</w>
▁성 폭력</w>
▁선 사</w>
▁백 악관</w>
▁자 극</w>
나 마</w>
▁충 돌</w>
▁봐 봐</w>
▁농 촌</w>
▁개 념</w>
비 아</w>
리 어</w>
▁아니 하</w>
▁나 중</w>
▁투 명</w>
▁지 방
▁올 림픽</w>
티 브</w>
▁토 요일</w>
▁왜 냐
▁연 휴</w>
▁여의 도</w>
▁둔 화</w>
약 서</w>
▁융 자</w>
행 자</w>
▁민 족</w>
▁모 니
해 져</w>
프 리카</w>
북 한</w>
르 신</w>
해 질</w>
▁인 정
▁대 사</w>
▁1 3
▁벌 써</w>
▁노 후</w>
▁품 목</w>
▁복 잡</w>
▁발 달</w>
▁박 물관</w>
전 하</w>
▁귀 귀</w>
피 해</w>
▁주 인</w>
스티 벌</w>
▁예 수</w>
▁엄 청
▁앞 둔</w>
▁초 반</w>
▁자 본</w>
▁파 견</w>
▁감 동</w>
더 니</w>
▁정 원</w>
▁동 기</w>
▁누군 가</w>
▁상 영</w>
▁무 리</w>
▁늘 어난</w>
▁1 000</w>
무 자</w>
▁인정 받</w>
▁음 식
▁웹 웹</w>
▁배 제</w>
▁국 제
▁지 배</w>
▁사업 장</w>
장 치</w>
란 드</w>
▁투 어</w>
▁사 우
▁예 술
▁관 내</w>
용 품</w>
신 문</w>
생 명</w>
▁축 소</w>
▁사용 료</w>
▁호 소</w>
▁춤 춤</w>
▁모 색</w>
▁당 사자</w>
▁과 태료</w>
▁이 른
▁사 로잡</w>
1 9
드 러
▁집 회</w>
▁제 정</w>
▁방 탄소년단</w>
▁C C
▁통 상</w>
▁독 립
▁각 자</w>
▁점 차</w>
▁복 귀</w>
천 시</w>
보 장</w>
소 장</w>
▁표 정</w>
피 스</w>
사 랑</w>
부 문</w>
▁하 늘</w>
▁반 려</w>
된 다고</w>
▁분 쟁</w>
등 학생</w>
▁이 웃</w>
▁대 선</w>
▁권 권</w>
▁떨어 진</w>
▁동 원</w>
▁황 황</w>
란 히</w>
▁이탈 리아</w>
질 환</w>
▁로 봇</w>
▁산 불</w>
▁바 닥</w>
▁폭 력</w>
▁탄 력</w>
▁연 주</w>
작 용</w>
▁향 한</w>
▁진 료</w>
한 데</w>
▁1 6
▁펀 드</w>
▁찬 성</w>
▁표 준</w>
201 9</w>
리 오</w>
서 구</w>
▁조 선
▁변 동</w>
o n
절 차</w>
미 국</w>
▁참 고</w>
▁대 거</w>
a t
명 회</w>
▁진 화</w>
▁입 법</w>
▁문제 점</w>
▁매 매</w>
▁대 행</w>
업 단지</w>
생 산</w>
▁행 정부</w>
▁시 책</w>
▁숨 진</w>
▁몽 골</w>
상 태</w>
▁쓰 레기</w>
▁물 량</w>
▁체 포</w>
▁안 팎</w>
▁바라 보</w>
▁구 단</w>
▁인공 지능</w>
체 육</w>
상 담</w>
▁지 점</w>
▁I T</w>
전 략</w>
▁휴 가</w>
▁합 리</w>
장 비</w>
▁맞 추</w>
오 염</w>
▁입 증</w>
▁그 건</w>
▁㈜ ㈜</w>
벤 처</w>
합 회</w>
메 달</w>
▁홍 홍</w>
노 총</w>
▁날 짜</w>
협 의</w>
▁협 업</w>
▁문 의</w>
▁둘러 싼</w>
타 운</w>
방 식</w>
레이 드</w>
된 다는</w>
▁상 생</w>
▁못 할</w>
▁거 듭</w>
청 사</w>
전 소</w>
▁착 용</w>
▁마 감</w>
여 금</w>
하 나</w>
▁영 장</w>
▁소 녀</w>
▁별 로</w>
치 료</w>
년 도</w>
▁금 요일</w>
▁커 커</w>
▁오른 쪽</w>
▁여 유</w>
사 실</w>
▁첨 단</w>
▁유 력</w>
▁광 역</w>
서 울</w>
사 원</w>
▁월 요일</w>
져 야</w>
리 스트</w>
▁쇼 핑</w>
▁단 어</w>
▁편 지</w>
▁준 용</w>
철 도</w>
담 당</w>
▁제 작
▁이뤄 졌</w>
전 문가</w>
▁그 게</w>
▁경 영
▁결 합</w>
▁시 설물</w>
▁고 급</w>
▁가 량</w>
▁1 4
▁핸 드
▁장 치</w>
▁과 목</w>
티 스트</w>
이 즈</w>
디 자인</w>
▁출 동</w>
▁미 군</w>
▁긴 장</w>
e r</w>
수 색</w>
▁탄 생</w>
▁선 박</w>
▁꼽 꼽</w>
려 야</w>
▁주 력</w>
▁사이 즈</w>
남 도</w>
▁정 의
▁질 환</w>
▁문 재</w>
▁법 무부</w>
▁공정 위</w>
케 이션</w>
군 수</w>
▁예 능</w>
저 히</w>
▁섬 섬</w>
▁징 역</w>
▁연 방</w>
호 텔</w>
위 터</w>
▁캠 페인</w>
▁수 소</w>
예 방</w>
▁진 로</w>
▁애 플</w>
▁생 일</w>
▁떠 오
재 정</w>
닙 니다</w>
재 정부</w>
▁웃 음</w>
▁선 출</w>
▁학 원</w>
▁조 언</w>
▁보 건
▁대 학교</w>
▁검 색</w>
은 이</w>
마 저</w>
▁죽 음</w>
▁제 조업</w>
▁병 병</w>
▁번 역</w>
▁세 종</w>
▁빠 져</w>
1 00</w>
3 2</w>
▁지 진</w>
▁증 명</w>
중 국</w>
▁이른 바</w>
▁착 수</w>
▁따 라서</w>
▁가 시</w>
기 능</w>
미 나</w>
▁추 억</w>
의 점</w>
겨 진</w>
e n
조 선</w>
노 조</w>
▁허 위</w>
▁소 중</w>
▁보 호
▁뛰 어난</w>
성 원</w>
▁외교 부</w>
▁올라 가</w>
▁암 암</w>
▁분 류</w>
▁남 부</w>
▁방 북</w>
▁박 근혜</w>
▁내 린</w>
▁낳 낳</w>
폐 기물</w>
▁생 산
▁맞 이</w>
▁눈 물</w>
▁과 도</w>
활 용</w>
하 면</w>
▁틀 틀</w>
체 제</w>
시 즌</w>
사 이트</w>
▁배 달</w>
▁마 이
▁구 현</w>
▁트 위터</w>
▁진 전</w>
% )
▁취 득</w>
자 산</w>
▁상 임</w>
▁둔 다</w>
▁나 눠</w>
3 1</w>
시 킨</w>
▁폐 기</w>
▁아 마</w>
▁부 처</w>
▁고 위</w>
▁성 분</w>
▁부 산
▁폐 쇄</w>
▁질 병</w>
▁압 수
▁이루 어지</w>
▁서울 대</w>
▁CC TV</w>
였 으며</w>
건 축</w>
▁추 구</w>
▁의 료
▁무 게</w>
▁혼 란</w>
▁너 희</w>
▁낼 낼</w>
재 난</w>
박 스</w>
▁파 티</w>
▁침 해</w>
▁면 제</w>
체육 관</w>
맹 점</w>
▁거 대</w>
임 스</w>
▁홈 홈</w>
▁협 협</w>
▁장 르</w>
의 실</w>
힌 다</w>
펀 드</w>
조 례</w>
봐 야</w>
▁세 우</w>
▁발 휘</w>
▁만 났</w>
▁스 케
▁마 친</w>
▁공 인</w>
▁훌 륭</w>
▁현 안</w>
▁떠 올
E O</w>
▁증 진</w>
▁전 기
▁심 화</w>
▁물 질</w>
▁200 7</w>
스 틱</w>
▁한 화</w>
▁소 관</w>
▁어 르신</w>
집 니다</w>
▁숲 숲</w>
핑 몰</w>
▁제 목</w>
▁4 5</w>
는 다고</w>
▁시 내</w>
마 스</w>
▁편 안</w>
▁유 형</w>
▁왼 쪽</w>
고 용</w>
▁왜냐 하면</w>
▁아 티스트</w>
▁명 절</w>
▁이 승
▁느 껴
비 전</w>
프 트</w>
▁진 실</w>
▁이루 어
▁4 00</w>
속 도</w>
▁휴 식</w>
고 인</w>
▁이뤄 질</w>
▁교 부</w>
▁설 비</w>
바 로</w>
▁화 웨이</w>
▁조 절</w>
▁부 대</w>
▁간 단</w>
조 직</w>
▁일 시</w>
▁수 비</w>
▁부 산시</w>
▁녹 색</w>
공 동</w>
▁개 봉</w>
상 공</w>
무 역</w>
▁수 강</w>
▁동 생</w>
▁권 력</w>
▁정 식</w>
▁도 모</w>
▁행 보</w>
▁신 청서</w>
▁노 원구</w>
간 다</w>
▁비 리</w>
했 었</w>
스 플레이</w>
당 관</w>
▁잇따 라</w>
▁균 형</w>
용 차</w>
시 다</w>
▁타 격</w>
▁이 목</w>
원 시</w>
노 이</w>
▁지도 자</w>
▁어 떻</w>
디 션</w>
▁소 장</w>
▁상당 히</w>
▁들 어서</w>
▁수 량</w>
▁서 면</w>
증 진</w>
▁프리미 엄</w>
▁대 처</w>
▁고양 이</w>
통 신
열 사</w>
▁고 마
▁한 식</w>
▁피 의자</w>
▁아 빠</w>
▁독 자</w>
공 업</w>
▁호 응</w>
▁소 집</w>
▁성 폭행</w>
▁재 무</w>
▁성 장
▁서 초
▁무 기</w>
▁기 술
일 자리</w>
올 림픽</w>
실 적</w>
▁협 의회</w>
▁하 이
▁압수 수색</w>
정 비</w>
▁설 문</w>
▁바이 오</w>
▁놀 이</w>
▁기 독교</w>
책 임</w>
▁환 영</w>
▁이 뤄</w>
소 득
▁맥 주</w>
향 력</w>
▁자 영업</w>
▁독 서</w>
▁공 동체</w>
싱 턴</w>
바 지</w>
드 릴게요</w>
▁온 도</w>
2 00</w>
▁아 닙니다</w>
▁흔 들
▁유 발</w>
▁아 기</w>
▁사업 비</w>
사무 소</w>
업 소</w>
▁포 착</w>
▁이재 명</w>
▁영 향력</w>
▁직 전</w>
으 신</w>
▁한 글</w>
▁벌 어지</w>
▁당 선</w>
애 인</w>
보 이</w>
▁오 염</w>
▁강 릉</w>
▁3 2</w>
▁파 트
▁움직 이</w>
▁스 테
▁떨어 져</w>
속 히</w>
▁정 확히</w>
▁쌀 쌀</w>
▁불 러</w>
▁배 터리</w>
▁마 리</w>
▁동 네</w>
▁끊 끊</w>
니 어</w>
▁재 미</w>
수 석</w>
▁컨 설팅</w>
▁연예 인</w>
▁담 겼</w>
▁가 계</w>
3 5</w>
▁검 검</w>
센 트</w>
▁명 시</w>
▁돼 요</w>
범 위</w>
진 단</w>
▁열 차</w>
▁동 반</w>
▁골 프</w>
▁지 체</w>
▁라 인</w>
▁된 다는</w>
▁갈 수록</w>
o n</w>
안 보</w>
▁절 감</w>
▁장 식</w>
뉴 스</w>
마 리</w>
기 사</w>
▁연 극</w>
▁고 정</w>
가 정</w>
▁해 명</w>
▁대 표
▁거래 소</w>
▁1 5
가 락</w>
▁자 살</w>
보 고서</w>
▁보 낼</w>
진 구</w>
▁일 요일</w>
▁각 국</w>
키 스탄</w>
대 사</w>
▁레 이
▁김 치</w>
확 실</w>
테 크</w>
사 무</w>
▁짐 짐</w>
▁불 러
▁3 3</w>
▁정 의</w>
▁어 우
▁삭 제</w>
▁박 사</w>
▁리 그</w>
임 자</w>
▁담 배</w>
▁용 인</w>
▁부 위원장</w>
▁구 하</w>
져 서</w>
정 지</w>
▁선 도</w>
▁서 구</w>
▁궁 금
▁K T</w>
재 생</w>
▁쏟 쏟</w>
▁숨 지</w>
▁이 때</w>
▁그 려
주 행</w>
▁수 급</w>
▁빠 지</w>
▁상 인</w>
▁띄 띄</w>
▁기 각</w>
▁전 역</w>
▁일 원</w>
▁음 료</w>
▁과 연</w>
말 로</w>
▁저 장</w>
▁어려 워</w>
▁보 고</w>
▁재 단</w>
▁올 려</w>
▁돌 파</w>
▁6 5</w>
스 포츠</w>
변 화</w>
규 정</w>
▁일 각</w>
▁소 셜</w>
▁공 고</w>
▁승 객</w>
▁선 적</w>
▁산 정</w>
▁모 았</w>
▁매 입</w>
▁숫 자</w>
▁핸드 폰</w>
▁천 안</w>
▁나 설</w>
▁입 원</w>
▁수 단</w>
▁근 본</w>
망 자</w>
듯 이</w>
구 나</w>
▁피 하</w>
▁용 역</w>
▁가 로
릅 니다</w>
▁한 정</w>
▁출 근</w>
▁가 끔</w>
▁투 수</w>
▁썼 썼</w>
▁북 측</w>
▁중 점</w>
▁살 해</w>
▁경 계</w>
▁편 의점</w>
클 럽</w>
▁인 지</w>
▁도 쿄</w>
▁워 싱턴</w>
▁생 생</w>
▁김 경
▁공 약</w>
▁감 면</w>
▁상 상</w>
▁고 교</w>
▁경 제
▁건 축물</w>
파 구</w>
연 합회</w>
관 광
▁여 권</w>
▁새 해</w>
▁경 위</w>
상 식</w>
▁안 보</w>
▁선 거
▁명 단</w>
인 구</w>
▁세 트</w>
▁과 장</w>
▁고 향</w>
▁즐 거
▁인 용</w>
▁네 이버</w>
▁넘 치</w>
▁게 시
▁하 노이</w>
▁트 렌
▁철 저</w>
▁소 상</w>
수 증</w>
루 션</w>
▁문화 재</w>
▁단 원</w>
▁베이 징</w>
▁경기 장</w>
관 장</w>
▁접 촉</w>
▁당 했</w>
근 로</w>
▁신 분</w>
하 우스</w>
▁총 선</w>
▁입 력</w>
의 식</w>
▁정 치
▁쇼 쇼</w>
▁생 존</w>
퍼 스</w>
순 환</w>
▁청 원</w>
▁목 숨</w>
▁개 막</w>
▁시 급</w>
업 인</w>
경 영</w>
▁종 이</w>
▁입 구</w>
▁끝 내</w>
▁중 앙
▁어우 러
▁소 화</w>
▁부 실</w>
▁매 주</w>
이 용</w>
▁토론 회</w>
출 액</w>
규 제</w>
▁어 떠</w>
▁아이 템</w>
▁쏟 아
▁비 치</w>
%) ,</w>
전 기</w>
▁환경 부</w>
▁한 층</w>
▁자 국</w>
E D</w>
▁품 품</w>
▁입 지</w>
▁손 님</w>
▁복 구</w>
▁벤 처</w>
▁독 특</w>
판 매</w>
▁어려 울</w>
해 진다</w>
워 서</w>
럭 시</w>
▁경 향</w>
▁가 맹점</w>
▁바 꿔</w>
세 점</w>
▁클 라
▁카카 오</w>
▁약 간</w>
▁빠 진</w>
▁극 단</w>
순 히</w>
▁지 명</w>
▁쏠 리</w>
▁전 담</w>
▁영화 제</w>
▁숙 소</w>
▁휴 대
▁옛 옛</w>
▁아 무리</w>
로 드</w>
려 서</w>
▁동 장</w>
▁단 장</w>
정 신</w>
▁충 족</w>
▁세 력</w>
▁몰 몰</w>
기술 원</w>
▁이 정
▁연 관</w>
▁정의 당</w>
▁상 승
사 용</w>
▁플 라
▁특 검</w>
▁기 후</w>
▁즐 거운</w>
자 고</w>
▁해 상</w>
순 위</w>
공 동체</w>
▁의 문</w>
▁손 실</w>
▁명 확</w>
▁대법 관</w>
시 트</w>
▁비 전</w>
▁통 증</w>
▁상 가</w>
한 가요</w>
대 문
▁현 행</w>
▁용 기</w>
▁내 세
▁채 권</w>
▁제 고</w>
▁재 고</w>
▁멋 진</w>
▁강 서구</w>
▁방 문
▁면 적</w>
데 이</w>
4 5</w>
포 럼</w>
사 례</w>
▁합 격</w>
▁자 발</w>
▁깊 이</w>
▁종 사자</w>
▁동 남
k m</w>
전 시</w>
▁지난 주</w>
▁에 어
▁밟 밟</w>
▁돌아 오</w>
▁단 기</w>
축 구</w>
▁최 창
▁이 자</w>
▁물 류</w>
▁댄 스</w>
▁꽤 꽤</w>
트 리</w>
스 크
▁합 류</w>
▁존 중</w>
▁서초 구</w>
▁뿌 리</w>
줍 니다</w>
북 도</w>
▁종 로구</w>
▁성 향</w>
카 르
총 회</w>
약 품</w>
▁지 목</w>
▁제 약</w>
▁신 호</w>
▁손 상</w>
▁브 리
▁계 열사</w>
▁5 2</w>
▁3 4</w>
▁19 7
▁젊 은이</w>
▁생 긴</w>
▁색 상</w>
▁박 람회</w>
▁다 루</w>
▁남 녀</w>
▁야 구</w>
해 안</w>
세 자</w>
▁즐 겁</w>
▁유 학</w>
▁교육 청</w>
극 장</w>
▁고 위
▁챔 피
▁1 7
술 관</w>
▁추 락</w>
▁고 령</w>
▁호 의</w>
▁유 행</w>
▁아 프리카</w>
▁뚜 렷</w>
출 산</w>
▁확 충</w>
▁방 해</w>
▁코 치</w>
▁수 치</w>
▁성 능</w>
▁떨어 졌</w>
으 세요</w>
▁진 심</w>
▁스 웨
▁부 적
▁궁금 증</w>
▁내 내</w>
▁검 출</w>
여 부</w>
▁스 크
차 별</w>
노동 부</w>
▁우 리
유 산</w>
▁창 의</w>
▁유 니
▁관 해</w>
6 5</w>
바 이</w>
▁중 학교</w>
▁용 도</w>
▁실 장</w>
▁스 티
▁게 재</w>
▁감 시</w>
격 자</w>
▁출 마</w>
교 수</w>
▁코 스</w>
▁지 인</w>
▁에 에</w>
▁뮤지 컬</w>
▁거 두</w>
▁실 종</w>
▁치 매</w>
▁철 거</w>
▁멀 멀</w>
▁금 금</w>
연 대</w>
대 장</w>
▁포 항</w>
▁부 작용</w>
▁문 학</w>
▁내 다
▁강 연</w>
협 정</w>
▁편 하</w>
▁진 상</w>
▁일 환</w>
▁석 유</w>
주 운전</w>
▁출 입</w>
▁공 직</w>
▁위 임</w>
▁고 기</w>
래 요</w>
▁충 전</w>
▁스 스</w>
▁무 더
▁두 려
추 행</w>
▁시 신</w>
▁백 화점</w>
▁우 주</w>
▁벽 벽</w>
티 즌</w>
아 동</w>
▁파 주</w>
▁특별 히</w>
▁줬 줬</w>
▁어 어</w>
▁구 성원</w>
터 링</w>
서 부터</w>
배 상</w>
면 적</w>
매 매</w>
런 스</w>
▁들어 간</w>
▁김 현
지 요</w>
소 송</w>
▁폭 로</w>
▁실 정</w>
▁마 세요</w>
▁단 순히</w>
수 행</w>
산 안</w>
바 른</w>
랫 동안</w>
▁지 역
▁득 점</w>
▁깨 끗</w>
재 판
명 히</w>
▁신 선</w>
▁간 부</w>
으 니까</w>
▁세 미나</w>
트 랙</w>
▁최창 식</w>
▁일 반
▁동 아리</w>
박 물관</w>
▁공 포</w>
▁휴대 폰</w>
▁페 스티벌</w>
▁시 원</w>
는 다면</w>
▁육 아</w>
▁유 기</w>
▁집 값</w>
▁조 명</w>
▁김 태
▁기 원</w>
▁기 기</w>
▁국 장</w>
▁교통 사고</w>
본 법</w>
▁주 체</w>
▁자 아
▁오 랫동안</w>
▁열 릴</w>
▁김 종
▁국 경</w>
▁익 숙</w>
▁야 외</w>
▁배 려</w>
보 험
▁서 민</w>
▁무 상</w>
▁대 구
▁고 양</w>
주 주의</w>
먼 스</w>
▁항 목</w>
▁입 금</w>
▁스 튜
▁물 러
짜 리</w>
지 어</w>
보 호
▁청 약</w>
▁신 임</w>
▁벌 였</w>
▁방 영</w>
▁동 참</w>
체 장</w>
▁병 역</w>
▁광 장</w>
프 트
서 장</w>
▁아 베</w>
▁스 토리</w>
▁성 별</w>
▁분 노</w>
▁메 르
포 먼스</w>
▁조 화</w>
▁유 족</w>
▁무 너
수 원</w>
버 그</w>
▁정 지</w>
▁상당 수</w>
창 업</w>
▁천 천</w>
▁지 표</w>
▁지 수</w>
▁고 소</w>
▁『 『</w>
진 국</w>
석 자</w>
다 수</w>
▁만 족
▁극 장</w>
분 석</w>
▁사 찰</w>
▁명 령</w>
민 주</w>
▁본 부</w>
% (</w>
▁시 리즈</w>
▁방 치</w>
▁며 칠</w>
아 버지</w>
▁사라 지</w>
▁미 사일</w>
▁건 조</w>
3 7</w>
3 3</w>
▁전 형</w>
▁양 측</w>
▁수 탁</w>
▁복 원</w>
▁물 가</w>
공 정</w>
▁후 속</w>
▁써 써</w>
▁밝 혀</w>
▁대 목</w>
▁늘어 날</w>
▁포 럼</w>
▁K BS</w>
연 도</w>
▁나 눔</w>
▁관 점</w>
▁행 정
▁심 장</w>
▁돌 입</w>
▁냄 새</w>
▁3 8</w>
리 티</w>
▁주 석</w>
▁농 산물</w>
담 당관</w>
▁수 십</w>
▁농 도</w>
▁기다 려</w>
통 상</w>
방 향</w>
▁이 명
▁상승 세</w>
▁상 대
▁매 니
영 향</w>
▁최 우
▁이 민
▁음 주운전</w>
▁발 령</w>
▁지 위</w>
▁아마 존</w>
▁바이 어</w>
▁네 티즌</w>
잖 아</w>
공 자</w>
▁청 주</w>
▁점 유</w>
▁받아들 이</w>
▁바 람
급 식</w>
▁개 통</w>
3 4</w>
▁전 액</w>
▁승 용차</w>
미 디어</w>
▁풍 경</w>
▁스웨 덴</w>
▁미 팅</w>
▁명 칭</w>
▁가 사</w>
▁클 래
▁크리스 마스</w>
▁좁 좁</w>
▁조 처</w>
▁임 대
▁이뤄 진</w>
▁성 남</w>
▁국 방</w>
▁국 무
▁고양 시</w>
i t
촬 영</w>
인 터
여 건</w>
▁표 창</w>
▁침 체</w>
▁맑 맑</w>
위 탁</w>
분 간</w>
려 요</w>
▁캠 프</w>
▁이 래</w>
▁쇼 핑몰</w>
▁부 스</w>
낸 다</w>
▁재 배</w>
▁상 용</w>
▁느 꼈</w>
▁경 상
전 부</w>
마 크</w>
▁프 레
▁이 상
▁반 박</w>
▁기 조</w>
러 리</w>
▁팀 장</w>
▁건 의</w>
▁갤 럭시</w>
평 양</w>
▁몰 랐</w>
토 록</w>
중 교통</w>
정 규직</w>
였 을</w>
급 여</w>
▁화 학</w>
▁할 지</w>
▁등 급</w>
3 00</w>
평 균</w>
▁올 라</w>
▁된 다고</w>
콘 텐츠</w>
▁중 대</w>
▁시 사</w>
▁분 명히</w>
▁논 문</w>
음 악</w>
소 통</w>
광 장</w>
▁트렌 드</w>
▁참 석자</w>
▁성 사</w>
▁끼 끼</w>
▁귀 사</w>
수 도</w>
계 획
▁코 리아</w>
▁자 연
▁살 아가</w>
▁따 따</w>
▁누 적</w>
▁계 절</w>
T A</w>
악 구</w>
문 학</w>
▁창 원</w>
▁무 려</w>
유 지</w>
분 쟁</w>
대 문</w>
▁정 규</w>
▁샀 샀</w>
▁보험 료</w>
▁무 시</w>
근 무</w>
▁즉 즉</w>
택 시</w>
받 침</w>
▁퍼 포먼스</w>
▁정 규직</w>
▁상 환</w>
농 단</w>
▁파 리</w>
▁세 무</w>
▁매 월</w>
이 어</w>
▁파 업</w>
▁비 행</w>
카르 타</w>
기 록</w>
▁전 파</w>
I C
원 인</w>
미 터</w>
▁파트 너</w>
▁택 배</w>
▁조 합
▁오 프
로 스</w>
▁진 보</w>
▁적 응</w>
▁안 녕</w>
▁아름 다
▁사 기</w>
▁발 주</w>
▁구 상</w>
▁과 일</w>
▁곧 바로</w>
▁격 차</w>
제 재</w>
인 사</w>
다 시</w>
▁확 신</w>
▁이 게</w>
▁생 겨
수 요</w>
▁판 정</w>
▁아 프</w>
▁시 상식</w>
▁색 깔</w>
▁마 음
▁격 려</w>
9 0</w>
▁조 심</w>
▁간 편</w>
밸 리</w>
기 한</w>
▁태 양
▁지 휘</w>
▁이 스
▁건 설
유 통</w>
운 동
▁구 역</w>
준 비</w>
문 회</w>
마 자</w>
▁항공 기</w>
스토 랑</w>
보 수</w>
▁호 흡</w>
▁주 재</w>
▁심 지어</w>
▁관 여</w>
▁거 치</w>
체 로</w>
자 치
서 류</w>
대 비</w>
▁저 번</w>
▁대 중교통</w>
▁자 카르타</w>
▁융 합</w>
▁언 제
▁스 위
▁당 분간</w>
▁감 염</w>
즈 베
▁특 화</w>
▁맨 맨</w>
리 지</w>
▁통 일
▁탑 승</w>
▁널 리</w>
확 인</w>
사 령
▁차 트</w>
▁관리 자</w>
학 금</w>
사 업
모 델</w>
드 릴</w>
▁획 득</w>
▁테 이블</w>
비 율</w>
▁화 성</w>
▁최 적</w>
▁차 질</w>
▁신 발</w>
▁깨 깨</w>
▁급 여</w>
▁감 성</w>
a l</w>
진 다는</w>
와 서</w>
서 요</w>
도 민</w>
권 자</w>
고 등학교</w>
▁존 존</w>
▁머 물</w>
하 우</w>
▁송 금</w>
▁부 위</w>
촉 직</w>
▁준 공</w>
▁임 신</w>
▁붕 괴</w>
▁I C
▁커 졌</w>
▁지켜 보</w>
▁블 랙</w>
▁드 론</w>
▁가 스</w>
배 우</w>
데 이트</w>
너 스</w>
고 사</w>
워 드</w>
구 민</w>
감 독
4 8</w>
정 기</w>
세 히</w>
복 합</w>
느 라</w>
▁조 항</w>
▁경찰 관</w>
친 다</w>
▁흔 적</w>
▁비 서</w>
▁미 소</w>
▁3 7</w>
코 인</w>
격 히</w>
▁살 리</w>
▁배 정</w>
▁도 중</w>
▁건 전</w>
어 린
동 생</w>
공 급</w>
▁희 생</w>
▁판 문점</w>
▁순 서</w>
▁부 채</w>
영 리</w>
공 공</w>
▁아 울
▁살 인</w>
▁관 장</w>
투 표</w>
▁부 착</w>
▁닿 닿</w>
▁위 축</w>
▁옮 겨</w>
▁발 효</w>
▁뮤 직</w>
▁가 질</w>
동 조합</w>
▁중 동</w>
▁전기 차</w>
▁뒷 받침</w>
▁당 한</w>
▁개 막
▁치 료
▁월 드</w>
▁보 전</w>
▁느 껴</w>
▁너 무
통 합</w>
끼 리</w>
▁입 시</w>
▁공 공
▁게 시</w>
▁3 6</w>
▁클라 우드</w>
▁음식 점</w>
▁음 성</w>
▁연 금</w>
▁엄청 난</w>
▁언 론
▁소 외</w>
▁상 관
▁레 스토랑</w>
▁고 장</w>
▁강 아지</w>
자 이너</w>
▁어 깨</w>
▁산 림</w>
▁자 치
▁연 합</w>
▁리 더</w>
▁대 외</w>
4 9</w>
과 제</w>
▁엔 진</w>
부 처</w>
▁흘 러
▁유 관</w>
▁1 20</w>
요 원</w>
노 인</w>
격 증</w>
▁친 절</w>
▁치 킨</w>
▁원 전</w>
▁드러 내</w>
▁결 승</w>
인 상</w>
수 지</w>
▁일본 인</w>
▁언제 나</w>
▁신 입</w>
▁남 양
O P</w>
대문 구</w>
▁영 수증</w>
유 치</w>
▁재 직</w>
a l
▁수 주</w>
▁대 가</w>
자 마자</w>
▁조 합</w>
▁보 인</w>
▁두 산</w>
▁가 해자</w>
자 재</w>
세 포</w>
기 자</w>
▁탑 재</w>
▁증 언</w>
방 지</w>
▁소 설</w>
▁선보 였</w>
▁드러 냈</w>
▁당 해</w>
▁공 연장</w>
중 소기업</w>
세 청</w>
▁선 배</w>
▁롯 데
p op</w>
화 학</w>
시 청</w>
소득 층</w>
명 서</w>
담 금</w>
▁텐 데</w>
▁객 실</w>
▁퇴 직</w>
▁추 적</w>
▁설 득</w>
▁그 럴</w>
▁M BC</w>
프트 웨어</w>
▁세 계
▁나타 내</w>
프 로</w>
이 프</w>
기 지</w>
▁최 소
▁상 업</w>
▁문 장</w>
▁만 료</w>
인 권</w>
▁좌 석</w>
버 리</w>
▁잇 잇</w>
▁연 수</w>
▁식 물</w>
▁200 6</w>
할 게요</w>
쇼 핑</w>
▁초 점</w>
▁업 데이트</w>
화 제</w>
장 기</w>
들 이</w>
▁예 외</w>
▁알아 보</w>
▁너무 나</w>
해 양</w>
▁시 중</w>
▁도 서</w>
▁문 구</w>
3 8</w>
화 문</w>
영 자</w>
산 구</w>
▁뷰 티</w>
▁보여 준다</w>
▁밴 드</w>
학 과</w>
▁회 수</w>
▁재 학</w>
▁쉬 운</w>
▁수 질</w>
▁둘 째</w>
▁대 체로</w>
▁고 려
캠 프</w>
전 형</w>
에 서부터</w>
리 드</w>
▁아 예</w>
▁들 여
▁감 각</w>
주 주</w>
▁카카 오
▁창 조</w>
▁응 급</w>
▁걸 렸</w>
마 당</w>
▁하 여금</w>
▁적 자</w>
▁변 하</w>
5 2</w>
재 료</w>
사 람</w>
▁중 심
▁요 건</w>
▁금 메달</w>
라 스</w>
▁증 권</w>
3 6</w>
좌 관</w>
▁자 회사</w>
▁아무 런</w>
▁모니 터링</w>
▁관광 지</w>
에 겐</w>
▁안 심</w>
▁시 인</w>
▁바람 직</w>
지 인</w>
▁일 방</w>
▁심 하</w>
▁P C</w>
▁차 장</w>
▁여 행
▁양 식</w>
▁벌 금</w>
▁가 입자</w>
키 지</w>
사 법</w>
▁최 악</w>
▁체 감</w>
▁전 세</w>
▁일어 났</w>
▁수 상자</w>
▁버 버</w>
▁6 00</w>
야 구</w>
▁차 세대</w>
천 구</w>
▁아 쉽</w>
▁선 진국</w>
▁단 일</w>
T X</w>
일 러</w>
로 그</w>
▁예 산안</w>
▁변 수</w>
▁돌 봄</w>
▁대 량</w>
▁1 19</w>
티 나</w>
명 령</w>
▁주 한</w>
▁재 원</w>
▁쓰 러
▁놀 라
경찰 청</w>
▁플 레이</w>
▁저 자</w>
▁재 능</w>
▁당 연히</w>
▁논 리</w>
역 사</w>
▁지 닌</w>
▁김 용
▁고 령
▁판매 량</w>
▁애 초</w>
▁몇 몇</w>
▁대 다수</w>
▁그 날</w>
기 획</w>
▁취 급</w>
▁지도 부</w>
▁뇌 물</w>
▁노 하우</w>
▁걸 릴</w>
e s
▁싸 움</w>
▁미 칠</w>
▁군 인</w>
3 9</w>
다 리</w>
기 반</w>
▁저 소득층</w>
▁이 거</w>
▁의 정부</w>
▁국무 총리</w>
케 이</w>
▁접 속</w>
▁입 찰</w>
▁야 간</w>
문화 원</w>
▁우 즈베
▁스 피
▁박 스</w>
▁디 스플레이</w>
▁드 립니다</w>
▁200 5</w>
임 대</w>
교육 감</w>
경 쟁</w>
▁최 신</w>
▁준 다</w>
▁심 한</w>
▁부 천</w>
▁다 채</w>
▁교 실</w>
여 자</w>
버 렸</w>
▁협 회</w>
▁피 곤</w>
▁일반 인</w>
▁솔 루션</w>
▁20 22</w>
보 드</w>
▁중 기</w>
▁돌 려
▁대 결</w>
▁남 쪽</w>
▁광 진구</w>
▁에 이
▁수 렴</w>
▁모 인</w>
스 테
법 부</w>
▁연 임</w>
▁다 행</w>
뜨 리</w>
▁환 율</w>
▁향 하</w>
▁똑 같</w>
▁끈 다</w>
미 널</w>
▁이뤄지 지</w>
▁여 사</w>
▁앞 장
▁버 전</w>
▁뒤 늦</w>
시 로</w>
봉 사자</w>
▁침 대</w>
▁점 포</w>
▁인 명</w>
▁숙 박</w>
정 치</w>
▁서 버</w>
▁고 조</w>
▁전 직</w>
은 데요</w>
모 전</w>
▁챔피 언</w>
▁법 관</w>
▁발 의</w>
▁물 리</w>
인 원</w>
▁중 부</w>
▁사 회
▁발 사</w>
▁모 범</w>
▁높 였</w>
마 켓</w>
기 념
근 성</w>
▁워 크
▁비 싸</w>
▁끊 임
케 어</w>
얀 마</w>
▁연 동</w>
▁다 섯</w>
▁태양 광</w>
▁소 년</w>
▁대 리</w>
▁납 품</w>
▁각 호</w>
▁포 상</w>
▁이 렇</w>
▁음 주</w>
▁압 도</w>
▁모 이</w>
▁관 악구</w>
부 대</w>
▁여 름
▁아름 답</w>
▁빠 졌</w>
▁브 렉</w>
▁김 상
▁가 짜</w>
▁출 국</w>
▁진 흥</w>
▁지원 금</w>
▁사 퇴</w>
▁무 죄</w>
▁쾌 적</w>
▁어울 리</w>
아 웃</w>
사 태</w>
▁취 재</w>
▁전 후</w>
▁배 상</w>
▁밀 집</w>
▁흐 르</w>
▁한 진</w>
▁열 기</w>
▁감 축</w>
원 금</w>
▁카카오 톡</w>
▁여 지</w>
▁신 용
▁감 상</w>
i c
F C</w>
수 익</w>
년 층</w>
▁피 아
▁타 당</w>
▁수 시로</w>
▁만족 도</w>
문 서</w>
▁추 추</w>
▁진 학</w>
▁지 켜</w>
▁자 격증</w>
▁입 국</w>
▁소 유자</w>
▁리 스크</w>
▁뇌 뇌</w>
▁고 유</w>
월 드컵</w>
보 전</w>
된 다면</w>
냐 고</w>
▁체 크</w>
▁정 서</w>
▁방 학</w>
5 5</w>
적 지</w>
▁민 감</w>
▁뜨 겁</w>
의 사</w>
인 증</w>
신 청서</w>
▁파 괴</w>
▁여 파</w>
▁어 른</w>
▁소 프트웨어</w>
▁성 명</w>
광 고</w>
▁재 생</w>
▁E U</w>
코 드</w>
득 이</w>
▁마 스크</w>
▁김 민
▁터 터</w>
▁3 9</w>
으 므로</w>
▁특 유</w>
▁창 립</w>
▁맞 서</w>
▁대 답</w>
▁당 직</w>
▁꼽 힌다</w>
▁국 비</w>
행 히</w>
플 리
장 인</w>
▁김 진
▁기술 력</w>
5 3</w>
▁유 아</w>
▁몰 리</w>
▁리 스트</w>
▁떠오 르</w>
▁닫 닫</w>
릴 까요</w>
▁퇴 근</w>
▁통신 원</w>
▁부 각</w>
중 공업</w>
인 천
던 데</w>
▁테 마</w>
▁최소 한</w>
▁유 물</w>
▁우리 나라</w>
▁구 청</w>
단 장</w>
▁체 력</w>
▁일으 키</w>
▁이어 진</w>
▁오 류</w>
▁대 해선</w>
▁공 단</w>
▁고 문</w>
▁평 택</w>
▁중 국인</w>
▁부 득이</w>
▁그 치</w>
o u
인터 넷</w>
시 피</w>
▁흥 행</w>
▁펼 쳤</w>
▁오 해</w>
▁소 환</w>
▁비 정규직</w>
▁북 쪽</w>
▁조 율</w>
▁조 각</w>
▁윤 리</w>
▁우즈베 키스탄</w>
▁수 요일</w>
▁다이 어
▁귀 국</w>
▁5 5</w>
퍼 런스</w>
▁확 실히</w>
▁전 수</w>
▁인 형</w>
▁없 애</w>
▁안타 까
▁수 백</w>
▁성 경</w>
▁4 2</w>
농 가</w>
▁증 권
▁유 동</w>
▁영 등
M W</w>
플리 케이션</w>
게 서</w>
▁사 망자</w>
▁한 때</w>
▁꼽 히</w>
▁깜 짝</w>
▁계 시</w>
▁게시 판</w>
▁거 세</w>
설 비</w>
▁사 후</w>
▁김 재
▁건 수</w>
▁초 래</w>
▁앓 앓</w>
▁무 산</w>
▁면 세점</w>
in g</w>
대 응</w>
▁음 악
▁아이 폰</w>
A I</w>
본 다</w>
▁행 사장</w>
▁첫 날</w>
▁참 사</w>
▁지 상</w>
▁업 업</w>
▁수 거</w>
▁무 릎</w>
▁이 집
▁세 워
▁관 찰</w>
▁4 3</w>
바 이트</w>
건 비</w>
▁주 위</w>
M Z</w>
헨 티나</w>
트 넘</w>
유 아</w>
염 병</w>
부 지사</w>
랜 만</w>
▁학 술</w>
▁즉 각</w>
▁벌 인</w>
▁면 담</w>
▁국 어</w>
키 로</w>
▁흉 기</w>
▁탄 핵</w>
▁이 른</w>
▁상대 방</w>
▁걸 려</w>
▁가 공</w>
학 회</w>
누 리</w>
▁한 복</w>
▁주 행</w>
▁와 인</w>
▁의 의</w>
▁벌 어졌</w>
▁누 리</w>
▁경 주</w>
라 엘</w>
▁지나 치</w>
▁은 퇴</w>
▁빌 려</w>
▁19 6
단 히</w>
▁소 형</w>
▁먹 거리</w>
▁된 다면</w>
▁농 협</w>
▁급 격히</w>
▁과 세</w>
▁경 연</w>
4 00</w>
이 드
▁런 던</w>
▁대 우</w>
▁김 병
자 연</w>
▁아니 한</w>
▁방문 객</w>
▁대구 시</w>
▁다가 오</w>
장 감</w>
구 장</w>
▁의 존</w>
▁양 승
▁강 좌</w>
에 게서</w>
메 이션</w>
▁체 크
▁올 바른</w>
▁연구 소</w>
▁스케 줄</w>
▁소 감</w>
▁결 혼
4 4</w>
청 원</w>
재 진</w>
인천 광역시</w>
언 스</w>
소 심</w>
▁화 물</w>
▁컬 러</w>
▁동 력</w>
▁강 요</w>
레이 션</w>
결 제</w>
▁향 향</w>
▁코 드</w>
▁추 산</w>
▁오 랜만</w>
▁성 추행</w>
▁상 금</w>
▁미 얀마</w>
▁고 백</w>
▁가 상</w>
▁디 자이너</w>
▁근 육</w>
4 1</w>
모 리</w>
다 면서</w>
▁포 스코</w>
▁계 약서</w>
보 증</w>
문화 재</w>
만 간</w>
동 력</w>
▁펼쳐 진다</w>
▁유 포</w>
▁어려 웠</w>
▁공 직자</w>
▁공 중</w>
C C</w>
지 표</w>
영 화제</w>
박 람회</w>
락 세</w>
▁조합 원</w>
▁대 피</w>
플 러스</w>
▁확 률</w>
▁한 강</w>
▁응 응</w>
▁아울 러</w>
▁스크 린</w>
▁분 기</w>
▁보 입니다</w>
▁S BS</w>
4 2</w>
봉 투</w>
▁일 어난</w>
▁연 인</w>
속 도로</w>
답 자</w>
▁지 났</w>
▁운 송</w>
▁신 중</w>
▁슈 퍼
▁급 격</w>
▁금 연</w>
▁공 격
▁경 과</w>
▁접 근성</w>
▁이명 박</w>
▁위 해선</w>
▁연 설</w>
▁생 길</w>
▁그 나마</w>
무 현</w>
▁해 체</w>
▁저 지
▁위 생</w>
▁버 리</w>
▁무 한</w>
▁매니 저</w>
킨 다</w>
선 거
물 류</w>
▁전 주</w>
▁이 송</w>
▁워크 숍</w>
▁연 봉</w>
▁고 맙</w>
201 7</w>
청 년</w>
뱅 크</w>
▁오 리
▁아니 한다</w>
▁싸 싸</w>
▁시 술</w>
▁스 페
대 원</w>
▁인 건비</w>
▁유 효</w>
▁옮 기</w>
▁다 행히</w>
파 이</w>
장 소</w>
소 방
▁치 르</w>
▁철 회</w>
▁정치 인</w>
▁연 도</w>
▁시 너지</w>
▁봐 야</w>
▁발 간</w>
▁겨 냥</w>
4 6</w>
백 만</w>
▁송 파구</w>
▁선 두</w>
▁별 다른</w>
수 준</w>
▁하 원</w>
▁취 미</w>
▁응 답자</w>
▁사이 버</w>
▁배 당</w>
▁마 포구</w>
▁낮 추</w>
S T</w>
끄 러
근 로자</w>
▁인천 시</w>
▁농 민</w>
0 1</w>
엑 스</w>
십 니다</w>
별 지</w>
▁국 무부</w>
▁경찰 청</w>
▁해 군</w>
▁통 장</w>
▁철 저히</w>
▁진 주</w>
▁이 중</w>
▁소 수</w>
▁사우 디</w>
▁비 싼</w>
▁강 세</w>
현 진</w>
워 하</w>
긴 다</w>
▁즐 겨</w>
▁사 연</w>
▁불 안
▁방 어</w>
수 기</w>
민 원</w>
▁테 러</w>
▁저 기</w>
▁밑 밑</w>
▁국 국</w>
▁지지 율</w>
▁재 밌</w>
▁명 품</w>
▁메 인</w>
▁거 뒀</w>
통 제</w>
산 부</w>
무 기</w>
대 전</w>
▁커 질</w>
▁아르 헨티나</w>
▁발 목</w>
▁값 값</w>
크 노</w>
반 수</w>
▁항 공사</w>
▁패 널</w>
▁짙 짙</w>
▁승 부</w>
r e
주 체</w>
백 화점</w>
▁장 학금</w>
▁아니 면</w>
▁소 지</w>
▁비 록</w>
짓 말</w>
자 력</w>
릭 스</w>
겨 져</w>
▁지 장</w>
▁예 배</w>
▁붉 붉</w>
▁디 디</w>
▁그 걸</w>
▁광 화문</w>
▁고 도</w>
▁고 개</w>
▁브리 핑</w>
▁과 반수</w>
촉 진</w>
▁유 전자</w>
▁에어 컨</w>
▁압 력</w>
▁만 화</w>
호 인</w>
테 리어</w>
일 본</w>
▁취 재진</w>
▁수 영</w>
▁도 약</w>
▁내 수</w>
팀 장</w>
투 어</w>
▁자 사</w>
▁이 슬
▁가 깝</w>
▁통 계
▁위 상</w>
▁오 가</w>
▁아쉬 움</w>
▁신 한</w>
▁멀 리</w>
▁돼 지</w>
▁당 하</w>
▁나 쁜</w>
▁기 쁨</w>
▁거 절</w>
8 00</w>
사 지</w>
▁이스 라엘</w>
▁의 자</w>
▁위 로</w>
▁열 악</w>
▁시 공</w>
▁동 향</w>
▁그 래</w>
4 3</w>
비 리</w>
▁지 휘
▁세 운</w>
▁베 네
▁끊 이</w>
▁4 8</w>
으 러</w>
예 술
아 차</w>
남 시</w>
▁홈 런</w>
▁항 소심</w>
▁학 대</w>
▁조 만간</w>
▁시 세</w>
▁시 달
▁대한 항공</w>
▁고 용
아 주</w>
▁케 이
▁소 식
▁먼 먼</w>
▁데 이
▁낫 낫</w>
▁주 류</w>
▁워 낙</w>
▁미 흡</w>
▁매 출액</w>
▁금 고</w>
지 검</w>
▁지 침</w>
▁겨 울
▁걸 어
6 00</w>
걸 음</w>
▁진 행
▁순 수</w>
▁불 량</w>
▁본 선</w>
▁과 과</w>
계획 서</w>
▁성장 세</w>
▁몰 려
▁개 발
든 요</w>
▁증 대</w>
▁줄어 든</w>
▁좌 우</w>
▁운 항</w>
▁보 일</w>
▁남 기</w>
▁기 차</w>
▁기 구</w>
▁그 쳤</w>
▁광 역
천 억</w>
진 핑</w>
줘 야</w>
성 시</w>
거 든요</w>
▁잦 잦</w>
▁이 례</w>
▁동 행</w>
▁신 라</w>
▁빠 져
▁동 해</w>
▁꿈 꾸</w>
▁김 포</w>
▁공 모전</w>
▁경 로</w>
보 조금</w>
구 속</w>
▁파 손</w>
▁조 별</w>
▁조 달</w>
▁열 려</w>
▁심 의회</w>
▁스튜 디오</w>
▁거 짓말</w>
4 7</w>
증 금</w>
연 수</w>
국 회</w>
▁체 육
▁엘 리
▁데 려
점 기</w>
발 전소</w>
기 본법</w>
▁쥐 쥐</w>
▁비 상
▁도 구</w>
▁대 여</w>
▁꺼 내</w>
▁국 면</w>
일 지</w>
드 렸</w>
▁패 키지</w>
▁쏟 아지</w>
▁병 행</w>
▁뛰 어나</w>
▁개 시</w>
▁2 50</w>
▁플라 스틱</w>
▁차 기</w>
▁중 순</w>
▁쟁 점</w>
카 데
오 스</w>
래 도</w>
▁하 락세</w>
▁아르 바이트</w>
▁목 요일</w>
조 트</w>
작 품</w>
머 리</w>
▁내 려</w>
▁C EO</w>
▁연 루</w>
▁실 효</w>
▁멈 추</w>
▁내 놨</w>
5 1</w>
드 라마</w>
감독 원</w>
▁출 제</w>
▁인 연</w>
▁돌 리</w>
▁도 출</w>
▁끌어 올
▁김 수
셔 도</w>
▁집 행
▁민 주주의</w>
쳐 야</w>
변 경</w>
▁현 직</w>
▁한 번</w>
▁하 천</w>
▁이집 트</w>
▁신 앙</w>
▁내 릴</w>
▁내 게</w>
였 으나</w>
어 촌</w>
▁진행 할</w>
▁이 견</w>
▁울 울</w>
▁승 진</w>
▁수 원시</w>
▁세 웠</w>
▁변 신</w>
▁목 회</w>
▁대 리
집 행</w>
럽 연합</w>
늘 날</w>
▁항 의</w>
▁통 행</w>
▁지원 자</w>
▁이 산
▁어 쩔</w>
▁메이 저</w>
▁급 등</w>
▁개 척</w>
5 6</w>
공 학</w>
▁접 목</w>
▁시 진핑</w>
▁수 색</w>
a c
단 위</w>
▁허 리</w>
▁달 했</w>
▁긴 장감</w>
▁관 행</w>
▁결 코</w>
▁거 점</w>
작 가</w>
▁직 직</w>
▁아 우
▁밀 밀</w>
▁당 선
i s
a n</w>
경 비</w>
▁페 이지</w>
▁패 스트</w>
▁운 동
▁미 국인</w>
▁달 려
▁공 화</w>
아 이
▁조 회</w>
▁임 용</w>
▁이 탈</w>
▁원 내</w>
▁수 년</w>
▁배 울</w>
▁대 단</w>
▁기념 식</w>
▁그 랬</w>
방 문</w>
▁총 재</w>
▁정 해</w>
▁아무 것</w>
▁슈 퍼</w>
▁서 부</w>
▁다이어 트</w>
목 적</w>
고 리</w>
가 세</w>
▁인 접</w>
▁우 유</w>
▁부 딪
▁국 민
▁계 층</w>
▁가 이드
전 지</w>
리 포
류 장</w>
대 행</w>
▁투 기</w>
▁연 일</w>
▁민 선</w>
▁로 맨
▁고위 급</w>
5 9</w>
학 기</w>
월 드</w>
시 각</w>
더 라</w>
▁청 사</w>
▁제 게</w>
▁유 용</w>
▁블 라
▁통계 청</w>
▁의 류</w>
카데 미</w>
▁활 력</w>
▁민 간
▁떠 났</w>
▁돌아 왔</w>
▁거 친</w>
▁7 5</w>
이 란</w>
▁클 클</w>
▁창 작</w>
▁위 법</w>
▁약 화</w>
▁소 음</w>
▁본 회의</w>
▁박 수</w>
C D</w>
5 000</w>
합 의</w>
개 인</w>
▁한 다면</w>
▁중 독</w>
▁수 면</w>
▁떠 난</w>
▁나 아
▁결 성</w>
▁강 동구</w>
▁강 도</w>
취 업</w>
신 감</w>
벨 트</w>
미 술</w>
리 즘</w>
▁한 창</w>
▁추 모</w>
▁종 종</w>
▁상 시</w>
▁사 법부</w>
▁목 록</w>
▁가 축</w>
▁접 어
▁입 점</w>
▁높 일</w>
▁규 명</w>
하 이
드 린다</w>
관 계자</w>
검 토</w>
▁패 턴</w>
▁초 등학생</w>
▁자 세히</w>
▁이 론</w>
▁섭 취</w>
▁비 디오</w>
▁방 금</w>
▁로 이터</w>
▁고 시</w>
수 입</w>
세 트</w>
레 인</w>
돌 봄</w>
▁한 미</w>
▁주 어
▁저 하</w>
▁유 망</w>
▁양 산</w>
▁대 립</w>
겨 졌</w>
▁학 기</w>
▁저 감</w>
▁언 니</w>
▁소 문</w>
▁매 수</w>
▁떼 떼</w>
▁들 려
▁드 릴게요</w>
5 4</w>
천 군</w>
인 회</w>
나 갈</w>
공 유</w>
▁자 리
▁땀 땀</w>
▁내 외</w>
창 단</w>
육 성</w>
▁출 입
▁실 업</w>
▁신 축</w>
푸 드</w>
산 지</w>
대 표
▁들어 갈</w>
▁노 무현</w>
▁기 무사</w>
▁극 대</w>
▁C J</w>
5 8</w>
▁오 늘날</w>
▁섬 유</w>
▁뭔 가</w>
▁담 보</w>
▁국 적</w>
▁공 략</w>
▁고 스
F A</w>
B O</w>
자 유</w>
더 십</w>
가 리</w>
▁지 문</w>
▁정 밀</w>
▁인 류</w>
▁오프 라인</w>
▁수 위</w>
▁믿 음</w>
▁기 증</w>
▁걸 린</w>
탄 소</w>
줘 서</w>
욕 장</w>
엔 터</w>
금 지</w>
▁표 면</w>
▁통일 부</w>
▁탈 퇴</w>
▁영 입</w>
▁금 품</w>
주 사</w>
닉 스</w>
간 담회</w>
▁회 신</w>
▁지방 세</w>
▁운 명</w>
▁매 진</w>
▁내려 가</w>
▁나 란히</w>
▁가 리</w>
▁4 4</w>
현 재</w>
▁흡 수</w>
▁학 업</w>
▁폐 폐</w>
▁재 발</w>
▁오 를</w>
▁엇 갈
▁될 지</w>
▁해 수
▁포 털</w>
▁클래 식</w>
▁영 광</w>
▁수 시</w>
▁발 매</w>
▁기 업인</w>
주 간</w>
▁호 에</w>
▁호 선</w>
▁총 회</w>
▁총 수</w>
▁정 부
▁절 실</w>
▁- -</w>
계 사</w>
▁상 관</w>
P OP</w>
원 전</w>
▁용 어</w>
▁외 모</w>
▁열 풍</w>
▁부 활</w>
▁강 점</w>
5 7</w>
매 김</w>
▁프 린
▁자리 매김</w>
▁인 테리어</w>
▁블 랙
▁동 작</w>
▁단 점</w>
▁내 신</w>
I T</w>
후 보</w>
위 험</w>
부 담</w>
▁할 아버지</w>
▁접 하</w>
▁잠 깐</w>
▁석 탄</w>
▁서 기</w>
▁기 상</w>
▁근 대</w>
라 이</w>
▁일 치</w>
▁마 주</w>
▁누 르</w>
▁건 지</w>
▁회 의
▁죄 죄</w>
▁이 혼</w>
▁숨 졌</w>
▁불안 감</w>
▁보호 자</w>
▁벗 벗</w>
▁미 니</w>
▁두 드러
▁남 긴</w>
▁고스 란히</w>
정 보
산 업단지</w>
로 써</w>
공 식</w>
고 받</w>
경 영자</w>
▁힘 입</w>
▁철 수</w>
▁집 권</w>
▁수 습</w>
▁비 자</w>
▁보 복</w>
▁결혼 식</w>
흥 국</w>
지 식</w>
▁토 트넘</w>
▁억 제</w>
▁방 사
▁길 이</w>
포 시</w>
특 위</w>
야 말로</w>
스 텔</w>
생 물</w>
▁산 업단지</w>
▁부 사장</w>
▁보 증</w>
▁발 부</w>
삼 성</w>
▁주 고받</w>
▁유 럽연합</w>
▁열 람</w>
▁아 끼</w>
▁수 험</w>
▁솔 로</w>
▁B MW</w>
엘 라</w>
▁호 평</w>
▁정 작</w>
▁습 관</w>
▁상 원</w>
▁급 식</w>
▁펼쳐 지</w>
▁케 이크</w>
▁준 수</w>
▁양승 태</w>
▁앞 선</w>
▁아마 도</w>
▁벌 어
▁마 쳤</w>
▁공 통</w>
6 4</w>
타 임</w>
에 스</w>
▁증 인</w>
▁장 기간</w>
▁오 직</w>
▁수 비
▁공 감
퍼 센트</w>
키 퍼</w>
지 급</w>
비 디오</w>
▁취 업자</w>
▁4 1</w>
0 5</w>
통 일</w>
재 해</w>
작 물</w>
대 체</w>
건 물</w>
▁중 지</w>
▁전 당</w>
▁높 여</w>
▁곤 란</w>
▁200 2</w>
현 실</w>
준 영</w>
으 려고</w>
▁지 갑</w>
▁임 무</w>
▁일 종</w>
▁이 기</w>
▁실 망</w>
▁붙 잡
▁그 저</w>
워 요</w>
센 티브</w>
담 당자</w>
▁입 사</w>
▁유 연</w>
▁경 유</w>
휴 일</w>
안 부</w>
극 기</w>
▁자 라</w>
▁응 시</w>
▁원 유</w>
▁옳 옳</w>
▁영 양</w>
형 발전</w>
소 시
대 교</w>
니 메이션</w>
공 헌</w>
▁집 안</w>
▁완 공</w>
▁부 탁
▁버 튼</w>
▁더 위</w>
▁가르 치</w>
의 견</w>
▁헬 기</w>
▁투 쟁</w>
▁철 학</w>
▁예술 가</w>
▁민 생</w>
▁내 역</w>
▁e e</w>
친 화</w>
주 차장</w>
안 전
심 리</w>
▁찬 찬</w>
▁지 나가</w>
▁조 리</w>
▁전 제</w>
▁메르 스</w>
▁든 다</w>
▁공감 대</w>
▁공 방</w>
축 산</w>
자 문</w>
▁표 명</w>
▁첫 째</w>
▁직 장인</w>
▁엄 격</w>
▁신 분
▁성 범죄</w>
▁선보 인</w>
▁분 과</w>
▁부 드러
▁보여 준</w>
▁들 이
▁내다 봤</w>
▁끊임 없이</w>
▁꾸 준</w>
▁간 호사</w>
포 인트</w>
카 이</w>
자 본</w>
버 린</w>
▁전 라
▁임대 료</w>
▁여 비</w>
▁수 차례</w>
▁바 꿀</w>
I A</w>
주 석</w>
장 고</w>
요 자</w>
경 필</w>
▁후 보
▁탄 탄</w>
▁영 세</w>
▁아시 아
▁명 의</w>
▁국 외</w>
▁구 정</w>
▁골 목</w>
0 8</w>
희 롱</w>
투 자자</w>
▁한 쪽</w>
▁포 상금</w>
▁육 군</w>
▁기 록
▁군 수</w>
▁결 심</w>
▁객 관</w>
제 한</w>
▁흔 들</w>
▁체 류</w>
▁이해 관계</w>
▁무 관</w>
▁건 데</w>
m m</w>
자 면</w>
사 이
구 서</w>
▁매 달</w>
▁200 4</w>
▁휴 일</w>
▁후 기</w>
▁코 너</w>
▁예 선</w>
▁생 계</w>
▁드 릴</w>
▁기 한</w>
▁기 쁘</w>
평 구</w>
재 판</w>
매 체</w>
냅 니다</w>
광 부</w>
▁자 칫</w>
▁양 쪽</w>
▁안 방</w>
▁보 편</w>
▁늘어 났</w>
▁넌 넌</w>
▁구 름</w>
▁흔들 리</w>
▁이 바지</w>
▁박 정
▁후 배</w>
▁양 상</w>
▁앞 세
▁아 트</w>
▁모 양
▁막 대</w>
▁들어 왔</w>
▁김경 수</w>
▁간 판</w>
올 해</w>
사 유</w>
미 사일</w>
▁카 자
▁이 걸</w>
▁수 령</w>
▁성 매매</w>
▁면 허</w>
▁리 더십</w>
▁김 기
트 코인</w>
타 민</w>
정 당</w>
인 식</w>
사 카</w>
▁잠 재
▁여름 철</w>
▁아니 요</w>
▁부 근</w>
▁모양 새</w>
▁가 요</w>
타 워</w>
모 집</w>
▁했 었</w>
▁타 인</w>
▁연 내</w>
o l
지 서</w>
중 심</w>
보 도</w>
국 제
▁채 소</w>
▁종 사</w>
▁제 자</w>
▁의 제</w>
▁원 료</w>
▁선 포</w>
▁내 년도</w>
▁남 경필</w>
택 항</w>
노동 자</w>
▁중 복</w>
▁전 투</w>
▁인 센티브</w>
▁연 대</w>
▁몰 려</w>
▁경 관</w>
e l
D P</w>
▁적 어도</w>
▁외 신</w>
▁골 키퍼</w>
▁고 르</w>
▁가 벼
▁희 생
▁충 청
▁지 향</w>
▁자 신감</w>
▁막 판</w>
▁내 비
▁구 로구</w>
▁결 의</w>
T S</w>
복 지부</w>
라 이트</w>
▁집 중
▁아 까</w>
▁노동 당</w>
전 선</w>
수 엘라</w>
부 산</w>
랜 차
▁4 6</w>
최 근</w>
수 술</w>
교 실</w>
▁코스 피</w>
▁축 산</w>
▁창 고</w>
▁짚 짚</w>
▁직 면</w>
▁음 원</w>
▁위 안</w>
▁불거 진</w>
▁구 호</w>
▁개 관</w>
품 권</w>
▁시 나
▁5 000</w>
N G</w>
하 고</w>
텍 스</w>
▁일 산</w>
▁용 산구</w>
▁쓰 이</w>
▁사 내</w>
▁복 수</w>
▁꺾 꺾</w>
▁기울 이</w>
6 3</w>
승 인</w>
랜차 이즈</w>
▁파 워</w>
▁줄 일</w>
▁유 죄</w>
▁엔 터</w>
▁스 탠
▁성 실</w>
▁보 인
▁벨 기에</w>
▁무 서
▁달 아
▁논 쟁</w>
▁게 스트</w>
인 과</w>
융 합</w>
▁홀 로</w>
▁신 혼</w>
▁계 단</w>
▁가이드 라인</w>
발 생</w>
▁재 해</w>
▁싱 글</w>
▁센 서</w>
▁닮 닮</w>
▁금 속</w>
▁가져 가</w>
▁가 중</w>
▁안타 깝</w>
▁소 스</w>
▁반 전</w>
7 5</w>
책 임자</w>
수 수료</w>
바 다</w>
기 계</w>
관리 법</w>
거 지</w>
▁회 회</w>
▁애 플리케이션</w>
▁던 지</w>
▁건 축
▁개막 식</w>
▁지난 번</w>
▁정 면</w>
▁의 상</w>
▁대 대</w>
▁고 대</w>
▁감 지</w>
7 00</w>
0 7</w>
부 금</w>
▁판 교</w>
▁존 경</w>
▁장 악</w>
▁견 제</w>
위 대</w>
기 심</w>
▁해 안</w>
▁플 레이
▁앞장 서</w>
▁시 험
▁선보 인다</w>
▁복 무</w>
▁밝혀 졌</w>
▁도 달</w>
▁구 미</w>
주 기</w>
원 회</w>
승 자</w>
▁현 지인</w>
▁찾아 보</w>
▁대 사관</w>
▁199 0</w>
i on</w>
투 기</w>
청 인</w>
식 장</w>
수 산</w>
렉 스</w>
단 체장</w>
▁횟 수</w>
▁풍 성</w>
▁추 측</w>
▁장 착</w>
▁덕 덕</w>
▁가 이드</w>
제 안</w>
레 비전</w>
▁임 상</w>
▁연 이</w>
▁어 떨
▁상 정</w>
▁명 소</w>
▁놀 라</w>
▁그리 스
▁교 민</w>
어 스</w>
도 자</w>
▁타 결</w>
▁조 현
▁선 수단</w>
▁보건 복지부</w>
▁근 절</w>
k g</w>
유 예</w>
식 당</w>
▁횡 령</w>
▁함 유</w>
▁전 송</w>
▁와 이
▁수 입
▁수 사관</w>
▁넥 센</w>
▁가 속</w>
▁가 볍</w>
▁가 난</w>
할 까요</w>
퇴 근</w>
서 는</w>
▁적 혀</w>
▁일 관</w>
▁의 사
▁상 하</w>
▁거 짓</w>
통신 부</w>
작 구</w>
아 파트</w>
부 총리</w>
과 목</w>
▁평 창</w>
▁착 공</w>
▁여 수</w>
▁아 픔</w>
▁상 무</w>
▁검 거</w>
▁갑 니다</w>
▁C N
6 2</w>
스 팅</w>
▁해 킹</w>
▁치 러
▁정 해진</w>
▁사 령
a s
6 1</w>
카 페</w>
증 서</w>
약 자</w>
숙 사</w>
부 진</w>
나 항공</w>
금 제</w>
▁입 니다</w>
▁알 렸</w>
▁신 인</w>
▁무 단</w>
▁데 이트</w>
▁뉴 뉴</w>
아 내</w>
시 스</w>
스타 일</w>
성 군</w>
기 본</w>
과 서</w>
▁평 범</w>
▁최 고
▁주 기</w>
▁영등 포구</w>
▁어 두
▁스위 스</w>
▁세 입</w>
▁반 납</w>
▁바 닷
▁돼 서</w>
▁구 멍</w>
번 에</w>
▁안전 사고</w>
▁동남 아</w>
▁D MZ</w>
투 명</w>
용 역</w>
스 턴</w>
▁파 장</w>
▁털 어
▁태 권</w>
▁타이 틀</w>
▁출 자</w>
▁직 권</w>
▁이슬 람</w>
▁애 정</w>
▁수 분</w>
▁뜨 뜨</w>
옵 니다</w>
▁협 박</w>
▁정 할</w>
▁베네 수엘라</w>
▁미 쳤</w>
▁목 포</w>
▁명 동</w>
▁되 돌
▁동 물
▁결 함</w>
흐 스탄</w>
아 트</w>
▁환 승</w>
▁홀 홀</w>
▁태 극기</w>
▁챙 기</w>
▁저 출산</w>
▁자 꾸</w>
▁3 000</w>
처 장</w>
랫 폼</w>
다 란</w>
강 산</w>
▁분 산</w>
▁골 프
저 스</w>
음 식</w>
르 크</w>
▁회의 록</w>
▁화 요일</w>
▁코스 닥</w>
▁증 가세</w>
▁벌 어진</w>
▁배 포</w>
▁무 선</w>
▁류 현진</w>
방 학</w>
▁포 토</w>
▁포 스터</w>
▁패 배</w>
▁특 혜</w>
▁커 플</w>
▁심 판</w>
▁서 해</w>
▁민 관</w>
▁묘 사</w>
▁라 디오</w>
▁넘어 가</w>
▁남 겼</w>
▁김 지
▁군 대</w>
▁공 무</w>
▁갑 작
화 기</w>
소 문</w>
▁했 으나</w>
▁탈 락</w>
▁줍 니다</w>
▁잠 재</w>
▁신 청자</w>
▁부 러
▁농 림</w>
▁L A</w>
유 럽</w>
▁판 로</w>
▁전 산</w>
▁인 지도</w>
▁셀 셀</w>
▁명 성</w>
▁농 장</w>
지 로</w>
구 매</w>
▁안 내
▁아무 래도</w>
▁아 픈</w>
▁금 호</w>
청 구</w>
모 임</w>
그 레이드</w>
▁휩 싸
▁해 고</w>
▁왜 곡</w>
▁성 희롱</w>
▁사무 총장</w>
▁빅 뱅</w>
▁불 어
▁묶 묶</w>
▁동 부</w>
▁독 점</w>
▁갤 러리</w>
▁가르 쳐</w>
설 계</w>
다 음</w>
▁이뤄지 는</w>
▁상 응</w>
▁물 어
▁놓 치</w>
▁납 세자</w>
1 8
소 재</w>
디 아</w>
▁피 자</w>
▁장 난
▁자 립</w>
▁의 거</w>
▁유 료</w>
▁연구 자</w>
▁비 트코인</w>
▁볼 거리</w>
i l
복 무</w>
도 청</w>
▁흡 연</w>
▁후 회</w>
▁타 자</w>
▁짜 짜</w>
▁시 키</w>
▁불 가</w>
▁미 술관</w>
▁강 행</w>
▁20 21</w>
E U</w>
▁상 권</w>
▁북 한
▁보건 소</w>
▁바이 러스</w>
▁무 장</w>
0 4</w>
특 구</w>
거래 위</w>
▁창 문</w>
▁입 주자</w>
▁원 고</w>
▁오 디션</w>
▁실 감</w>
▁성 남시</w>
▁선 전</w>
▁선 교사</w>
▁대 륙</w>
▁그 려</w>
▁고 수</w>
▁8 00</w>
의 학</w>
싸 움</w>
▁프 랜차이즈</w>
▁표 기</w>
▁비 타민</w>
▁반 입</w>
▁목 격</w>
필 요</w>
전 시
모 션</w>
룸 버그</w>
▁학 과</w>
▁피아 노</w>
▁탔 탔</w>
▁중 반</w>
▁주 간</w>
▁저 축</w>
▁약 물</w>
▁액 션</w>
▁애 니메이션</w>
▁아시아 나항공</w>
▁극 심</w>
▁《 《</w>
▁1 80</w>
합 니까</w>
▁합 병</w>
▁주 축</w>
▁분 실</w>
▁맞 춰
▁대표 단</w>
▁끄 끄</w>
▁관 중</w>
▁공 판</w>
▁강 경
▁감 당</w>
십 니까</w>
심 의</w>
▁핀 테크</w>
▁진 영</w>
▁봐 도</w>
▁드 루</w>
여 서는</w>
베 이</w>
네 트워크</w>
급 자</w>
▁진 지</w>
▁인 쇄</w>
▁인 공</w>
▁실 형</w>
▁시 상</w>
▁라이 브</w>
▁굳 이</w>
테 이너</w>
지 금</w>
졌 으며</w>
유 공자</w>
부 부</w>
다 보</w>
▁칭 찬</w>
▁인 종</w>
▁업 그레이드</w>
▁시 계</w>
▁성 도</w>
▁무 조건</w>
▁나타 난</w>
▁감 기</w>
러 스터</w>
니 스트</w>
▁화 합</w>
▁출 생</w>
▁우 호</w>
▁영화 관</w>
▁생 활
▁상 해</w>
▁대 입</w>
▁노 트
▁공정 거래위</w>
▁개 장</w>
G A</w>
초 등</w>
▁확 립</w>
▁청 탁</w>
▁일 선</w>
사 기</w>
경 쟁
▁편 집</w>
▁탈 출</w>
▁전 문
▁부 패</w>
▁기 름</w>
▁강 구</w>
▁5 1</w>
타 임스</w>
캠 퍼스</w>
▁영 양
▁에 스</w>
▁그 거</w>
▁귀 여
▁공격 수</w>
▁견 인</w>
포 스트</w>
진 영</w>
▁치 유</w>
▁최 다</w>
▁주 방</w>
▁시 일</w>
▁블 룸버그</w>
▁나타 냈</w>
▁고 충</w>
▁거 둔</w>
▁19 80</w>
c m</w>
둥 이</w>
▁형 제</w>
▁커 다란</w>
▁캘 리포
▁카자 흐스탄</w>
▁적 립</w>
▁잇따 르</w>
▁운 전
▁소식 통</w>
▁바 뀐</w>
▁공 론</w>
홍 보</w>
▁퍼 지</w>
▁치 즈</w>
▁입 장
▁우 즈</w>
▁수 료
▁바 르</w>
▁몫 몫</w>
▁200 3</w>
비 서관</w>
▁전 무</w>
▁박 성
▁모 자</w>
▁구 매
h e</w>
의 보</w>
사 히</w>
기 온</w>
▁재 현</w>
▁원 천</w>
▁수 출
▁모 른다</w>
▁구 경</w>
오 늘</w>
란 색</w>
▁환 호</w>
▁저 항</w>
▁용 이</w>
▁상 자</w>
▁라 면</w>
▁넘 기</w>
▁강 렬</w>
▁해 결
▁축 적</w>
▁제 조사</w>
▁오 사카</w>
▁시나 리오</w>
▁답 했</w>
▁공 존</w>
▁호 기심</w>
▁허 락</w>
▁펴 펴</w>
▁지 붕</w>
▁중 재</w>
▁숙 제</w>
▁대 장</w>
▁강 경</w>
7 7</w>
6 7</w>
역 량</w>
▁이어 져</w>
▁언 젠
▁사 흘</w>
▁바 쁘</w>
▁나 갔</w>
▁구 직자</w>
콜 릿</w>
용 기</w>
▁켜 켜</w>
▁질 서</w>
▁증권 사</w>
▁즐거 움</w>
▁유 예</w>
▁속 하</w>
▁땐 땐</w>
▁남 용</w>
▁국 악</w>
제 역</w>
은 지</w>
로 나</w>
▁환 수</w>
▁장 벽</w>
▁입 건</w>
▁야 생</w>
▁아름다 움</w>
▁메 모리</w>
▁김 대
▁고 생</w>
▁겨울 철</w>
행 장</w>
으 려는</w>
워 졌</w>
여 름</w>
▁태 양</w>
▁이 영
▁용 산</w>
▁선 제</w>
▁생 성</w>
▁상 실</w>
▁무 척</w>
0 2</w>
다 시피</w>
▁출 판</w>
▁책임 지</w>
▁책임 자</w>
▁작 전</w>
▁유 의</w>
▁아 파
▁산 책</w>
▁로 비</w>
종 시</w>
정 도</w>
▁흔 히</w>
▁해 법</w>
▁처 방</w>
▁상 세</w>
▁박 원
▁명 확히</w>
▁뚫 뚫</w>
▁김성 태</w>
▁그 만
이 브</w>
우 자</w>
스트 라</w>
부 채</w>
▁평 일</w>
▁탑 탑</w>
▁이뤄지 고</w>
▁분 할</w>
▁부 합</w>
포 트</w>
주 인</w>
주 로</w>
용 량</w>
완 화</w>
수 수</w>
▁제작 진</w>
▁경찰 서</w>
테 크노</w>
요 인</w>
시 원</w>
바 람</w>
관광 공사</w>
▁외 치</w>
▁수 록</w>
▁기 숙사</w>
▁권 장</w>
6 6</w>
을 수록</w>
무 대</w>
▁특별 법</w>
▁투 약</w>
▁케 이블</w>
▁자치 구</w>
▁외 출</w>
▁승 무원</w>
▁빌 빌</w>
▁답 장</w>
▁개 인
조 작</w>
실 가스</w>
병 대</w>
리 안</w>
대 금</w>
▁희생 자</w>
▁탁 월</w>
▁침 수</w>
▁치 솟</w>
▁신 곡</w>
▁분 당</w>
▁급 락</w>
▁교 원</w>
▁가 전</w>
0 9</w>
테 일</w>
자 격</w>
세 스</w>
벤 션</w>
동 원</w>
남 북</w>
▁이민 자</w>
▁사라 졌</w>
▁드러 난</w>
▁돋 보이</w>
▁나 쁘</w>
▁7 00</w>
직 스</w>
▁줄 여</w>
▁정 산</w>
▁이용 객</w>
▁벤 투</w>
▁김 해</w>
▁거 듭
▁4 7</w>
r o
U V</w>
현 대</w>
태 평양</w>
밀 히</w>
됐 으나</w>
걸 이</w>
▁장 애인</w>
▁위 안부</w>
▁우 우</w>
▁생산 량</w>
▁뭘 뭘</w>
▁단 가</w>
▁농 구</w>
일 으
▁텔 레비전</w>
▁싸 우</w>
▁민 정</w>
▁당 황</w>
▁교 정</w>
▁갖 춰
L ED</w>
7 2</w>
법 안</w>
로 직스</w>
로 움</w>
경쟁 력</w>
▁틈 틈</w>
▁악 악</w>
▁소 규모</w>
▁미 루</w>
▁단 서</w>
징 수</w>
인 드</w>
우 수</w>
사 이</w>
강 료</w>
▁화 상</w>
▁무 렵</w>
▁동 구</w>
▁금 방</w>
활 동
플 릭스</w>
크 업</w>
상 승</w>
▁토 크</w>
▁태 어나</w>
▁연 다</w>
▁범 범</w>
▁까 다
▁김동 연</w>
▁5 4</w>
학 부</w>
양 호</w>
리 사</w>
남 부</w>
▁푸 틴</w>
▁중 증</w>
▁중 국어</w>
▁일 자</w>
▁분 식</w>
▁대 략</w>
▁기 량</w>
▁국 세청</w>
태 프</w>
의 결</w>
세 안</w>
미 군</w>
▁플 랫폼</w>
▁재 벌</w>
▁소방 서</w>
▁로 드
캔 들</w>
이 도</w>
▁절 약</w>
▁자 진</w>
▁이 종
▁원 합니다</w>
▁경 매</w>
진 이</w>
스 키</w>
서 다</w>
▁회 원
▁유 가족</w>
▁서 대문구</w>
▁사 물</w>
▁비 하</w>
▁부적 절</w>
▁미 세</w>
▁경영 진</w>
자 가</w>
▁헬 스</w>
▁초 콜릿</w>
▁업 소</w>
▁먹 이</w>
련 자</w>
▁챙 겨</w>
▁재 활</w>
▁올라 오</w>
▁예 매</w>
▁에 어</w>
▁악 재</w>
▁세 포</w>
▁등 재</w>
▁동 계</w>
▁데 리</w>
황 실</w>
나 눔</w>
▁청 취</w>
▁채 우</w>
▁무 언
효 율</w>
행 동</w>
지 주</w>
유 소</w>
복 구</w>
대 위</w>
기 부</w>
▁프로 모션</w>
▁커 버</w>
▁책 정</w>
▁외 면</w>
▁옛 날</w>
▁순 환</w>
▁배 우자</w>
▁만 세</w>
▁광 주
▁공 군</w>
▁간 접</w>
세 력</w>
될 지</w>
▁잃 어
▁손 가락</w>
▁생 물</w>
▁눈 빛</w>
▁권 역</w>
▁공 세</w>
r a
창 출</w>
에 다</w>
대 사관</w>
내 역</w>
경 원</w>
가 운</w>
▁혈 액</w>
▁토 로</w>
▁정 무</w>
▁장 병</w>
▁입 양</w>
▁옥 상</w>
▁어떨 까</w>
▁안 산</w>
▁아 닐</w>
▁비 례</w>
▁들 여</w>
▁더 욱
0 6</w>
큐 멘
큐멘 터리</w>
레 나</w>
▁폭 우</w>
▁특 강</w>
▁트 트</w>
▁접 접</w>
▁의 약품</w>
▁신분 증</w>
▁수 영장</w>
▁닦 닦</w>
▁관 심사</w>
▁견 해</w>
화 물</w>
품 질</w>
전 력</w>
승 전</w>
▁콜 콜</w>
▁취 할</w>
▁지역 구</w>
▁이 뤘</w>
▁손 쉽</w>
▁선 행</w>
▁매 도</w>
▁교 복</w>
▁고 가</w>
민 족</w>
▁페 널
▁코 트</w>
▁추 첨</w>
▁아 닐
▁모 은
▁고 인</w>
쳐 서</w>
전 환</w>
셉 트</w>
▁피 고인</w>
▁트 럭</w>
▁주 연</w>
▁응 하</w>
▁스 캔들</w>
▁상 주</w>
▁본 질</w>
▁넘 어서</w>
▁깔 끔</w>
▁국 정원</w>
6 8</w>
절 히</w>
잡 이</w>
셔 츠</w>
▁회 동</w>
▁종 일</w>
▁조 세</w>
▁의료 진</w>
▁언젠 가</w>
▁약 세</w>
▁소방 관</w>
▁붙잡 혔</w>
▁불 교</w>
어 났</w>
디 움</w>
▁자 택</w>
▁예 보</w>
▁맞 물
▁뒤 집</w>
9 2</w>
활 성</w>
라 고요</w>
느 냐는</w>
▁패 스</w>
▁컨 테이너</w>
▁잠 정</w>
▁얼 음</w>
▁속 한</w>
S A</w>
9 5</w>
약 식</w>
시 기</w>
생 태</w>
글 랜드</w>
▁유 독</w>
▁송 치</w>
▁무더 위</w>
▁대 금</w>
▁금 강산</w>
회 원</w>
라이 브</w>
가 루</w>
▁해 운
▁전 자
▁응 급
▁세 워</w>
▁선 진</w>
▁불러 일으
▁배 웠</w>
▁미 친</w>
▁공 백</w>
▁갚 갚</w>
산 세</w>
렘 방</w>
▁증 폭</w>
▁제 보</w>
▁이 민</w>
▁요 양</w>
▁무언 가</w>
▁네 덜
B A</w>
8 4</w>
화 장
통 화</w>
벅 스</w>
디 언</w>
둘 러</w>
대 학원</w>
꺼 번에</w>
▁지 낸</w>
▁유 권자</w>
▁월 급</w>
▁쌍 용</w>
▁들어 온</w>
▁달 려</w>
▁건 너
▁5 3</w>
7 1</w>
0 3</w>
오 프</w>
부 품</w>
동 강</w>
교 안</w>
▁코 미
▁조 용
▁인 사
▁역 전</w>
▁모 은</w>
e d</w>
케 스트라</w>
중 독</w>
산 서</w>
▁헌 신</w>
▁해 설</w>
▁한 꺼번에</w>
▁줄어 드</w>
▁온 실가스</w>
▁시 리아</w>
▁샌 드
▁부 구</w>
질 서</w>
일 리</w>
부 지</w>
대 기</w>
당 시</w>
▁조 짐</w>
▁제 임스</w>
▁자 재</w>
▁위 대</w>
▁슛 슛</w>
▁선보 일</w>
▁복 용</w>
▁보 석</w>
확 대</w>
하 이</w>
터 미널</w>
실 태</w>
▁학 계</w>
▁편 입</w>
▁캐 캐</w>
▁저지 른</w>
▁재 건축</w>
▁어 릴</w>
▁무 인</w>
▁들 리</w>
▁8 5</w>
천 히</w>
버 트</w>
기 소</w>
▁흘 리</w>
▁플 래
▁특 이</w>
▁앞 당
▁아닌 가</w>
▁모은 다</w>
▁만 성</w>
▁리 콜</w>
8 5</w>
법 규</w>
단 원</w>
공 립</w>
갑 니다</w>
▁최우 선</w>
▁연 준</w>
▁여 가</w>
▁악 취</w>
▁불 렀</w>
▁봉 투</w>
▁그 릇</w>
▁200 1</w>
9 9</w>
징 용</w>
조 성</w>
이 닝</w>
리 우드</w>
리 라</w>
경기 장</w>
▁화 해</w>
▁춘 천</w>
▁자 본
▁심 해</w>
▁드 디어</w>
▁남 측</w>
▁군 산</w>
▁고 등학생</w>
▁4 9</w>
8 8</w>
라 면서</w>
뉴 얼</w>
▁태 어난</w>
▁최 종
▁철 강</w>
▁천 천히</w>
▁제 안
▁정 준영</w>
▁자 제</w>
▁원 정</w>
▁예 쁘</w>
▁봅 니다</w>
북 구</w>
대 구</w>
▁회 피</w>
▁축 사</w>
▁조 국</w>
▁저 소득</w>
▁일 괄</w>
▁외 환</w>
▁영 하</w>
▁시 간
▁복 음</w>
▁도 정</w>
6 9</w>
지 침</w>
레 콤</w>
드 니</w>
기 압</w>
거 부</w>
▁한 데</w>
▁제 어</w>
▁속 속</w>
▁상 습</w>
▁사 각
▁남 겨</w>
▁곁 곁</w>
지 출</w>
신 가요</w>
대 한
▁우 린</w>
▁브 라
▁불 법
▁메이 크업</w>
▁머 물
▁대 변</w>
▁달 콤</w>
▁교 과서</w>
▁공 표</w>
▁K BO</w>
식 물</w>
료 비</w>
갈 등</w>
▁패 러
▁전 격</w>
▁양 보</w>
▁모니 터</w>
▁느 낀</w>
채 용</w>
보 고</w>
를 린</w>
검 진</w>
▁한국 은행</w>
▁쿠 폰</w>
▁창 업자</w>
▁유 가</w>
▁연 료</w>
▁신 원</w>
▁수비 수</w>
▁뼈 뼈</w>
▁맡 기</w>
▁누 릴</w>
▁내 륙</w>
▁나 름</w>
▁긴 밀</w>
▁각 급</w>
잖 아요</w>
수 상</w>
수 급</w>
려 금</w>
기 록
글 로벌</w>
가 전</w>
▁해 경</w>
▁타 임</w>
▁자 유
▁임 종
▁이 력</w>
▁옵 션</w>
▁신 장</w>
▁송 도</w>
▁사 인</w>
▁붙 여</w>
▁반 성</w>
▁넷 플릭스</w>
▁구 제역</w>
7 3</w>
창 조</w>
▁해 산</w>
▁프 리</w>
▁추 후</w>
▁일어 날</w>
▁신용 카드</w>
▁방 역</w>
▁둘러 보</w>
▁F TA</w>
텔 레콤</w>
지 난
울 증</w>
업 종</w>
소 비</w>
▁펼 쳐</w>
▁정 류장</w>
▁접 할</w>
▁저 질
▁에 스
▁승 소</w>
▁수 강료</w>
▁보 행</w>
▁무 용</w>
▁맥 락</w>
피 스텔</w>
위 생</w>
더 블</w>
▁혐 오</w>
▁청 도</w>
▁천 안
▁지 니</w>
▁주 자</w>
▁쏘 쏘</w>
▁돋 보
▁구 비</w>
▁과 감</w>
▁1 30</w>
e c
T BC</w>
채 널</w>
▁흰 색</w>
▁행 진</w>
▁학 자</w>
▁터 지</w>
▁인 보</w>
▁사 료</w>
▁공 조</w>
이 전</w>
와 야</w>
소 방</w>
고 속도로</w>
▁취 향</w>
▁줘 줘</w>
▁용 의자</w>
▁신 속히</w>
▁백 신</w>
▁방송 인</w>
▁김 부
▁근 데</w>
▁골 자</w>
재판 소</w>
납 원</w>
▁한 도</w>
▁팝 팝</w>
▁짐 작</w>
▁동 북
▁공 지</w>
7 4</w>
라 비아</w>
강 화</w>
▁평 택항</w>
▁정 성</w>
▁예 쁜</w>
▁문화 원</w>
▁당 내</w>
▁네덜 란드</w>
▁내 주</w>
▁감 사원</w>
o T</w>
집 단</w>
워 야</w>
보 관</w>
▁해 임</w>
▁출 구</w>
▁잡 지</w>
▁이 수
▁의사 소통</w>
▁바 르
▁경 상</w>
평 군</w>
징 금</w>
강 사</w>
▁용 량</w>
▁외 무</w>
▁영 구</w>
▁어 렸</w>
▁성 황
▁밀 접</w>
7 6</w>
피 아</w>
득 점</w>
더 스</w>
금 고</w>
▁할 게요</w>
▁터 져</w>
▁콘 셉트</w>
▁출 간</w>
▁일 가</w>
▁인 체</w>
▁이해 찬</w>
▁이 수</w>
▁여 동생</w>
▁엔 엔</w>
▁양 질</w>
▁세 제</w>
▁석 방</w>
▁바 쁜</w>
▁메 이</w>
▁도 주</w>
▁달라 지</w>
▁노트 북</w>
현 황</w>
농 구</w>
▁해결 책</w>
▁전 임</w>
▁잠재 력</w>
▁유 류</w>
▁소 폭</w>
▁발 길</w>
▁머 무
201 6</w>
질 랜드</w>
바 닥</w>
당 하</w>
노 선</w>
▁환 전</w>
▁우 세</w>
▁신 화</w>
▁신 기</w>
▁상 향</w>
▁블 로그</w>
▁관 관</w>
8 2</w>
자 녀</w>
생 아</w>
분 양</w>
머 스</w>
▁협 동조합</w>
▁인 턴</w>
▁욕 구</w>
▁쉴 쉴</w>
▁소 망</w>
▁부드러 운</w>
▁두려 움</w>
▁깨 닫</w>
9 00</w>
화 재</w>
직 히</w>
면 허</w>
▁해 지</w>
▁접어 들</w>
▁임 의</w>
▁유 착</w>
▁약 한</w>
▁동 작구</w>
▁달 한다</w>
▁경 사</w>
O C</w>
현 상</w>
사령 부</w>
▁통 학</w>
▁주어 진다</w>
▁전 방</w>
▁적 힌</w>
▁인 가</w>
▁이 태
▁원 가</w>
▁십 십</w>
▁보 좌</w>
▁방송 사</w>
▁닭 닭</w>
▁규 격</w>
▁과 시</w>
P S</w>
일 랜드</w>
스 코
▁파 급</w>
▁지 능</w>
▁재 무
▁살 려</w>
▁본 청</w>
▁되 찾</w>
▁권 익</w>
7 9</w>
훼 손</w>
회 의
요 구</w>
남 용</w>
구 단</w>
▁씻 씻</w>
▁신 청인</w>
▁떠올 랐</w>
▁과 실</w>
▁결 렬</w>
▁K B</w>
▁5 6</w>
진 다면</w>
신 용</w>
시 킨다</w>
브 랜드</w>
▁호 수</w>
▁편 견</w>
▁찾아 오</w>
▁유 감</w>
▁안 쪽</w>
▁스 토
▁순 천</w>
▁석 석</w>
▁김 희
▁5 9</w>
O U</w>
▁전 이</w>
▁외 국어</w>
▁성황 리</w>
▁면 역</w>
▁로맨 스</w>
▁돼 지
▁돼 야</w>
▁나타 날</w>
▁귀 추</w>
▁고 성</w>
소 비자</w>
물 량</w>
▁황 교안</w>
▁질 의</w>
▁입 맛</w>
▁어 때</w>
▁수 장</w>
▁선 별</w>
▁빌 딩</w>
▁비 준</w>
▁변 호인</w>
▁배 분</w>
▁기 뻐
▁고 의</w>
8 6</w>
7 8</w>
으 려면</w>
▁컨 컨</w>
▁둘러 싸</w>
▁도 청</w>
▁김 명
▁가벼 운</w>
▁가 정
▁5 7</w>
2 000</w>
스 포</w>
도 급</w>
고 객</w>
▁힐 링</w>
▁연 애</w>
▁신 세계</w>
▁보 좌관</w>
▁배 운</w>
▁몰 래</w>
▁떨어 질</w>
▁다 짐</w>
▁김 학
▁구 도</w>
▁고 전</w>
조 리</w>
시 설물</w>
수 리</w>
드 리드</w>
▁해 촉</w>
▁정 전</w>
▁장난 감</w>
▁염 증</w>
▁아 메
▁국 산</w>
▁공 로</w>
i v
요 소</w>
기 회</w>
균 형</w>
▁협 정</w>
▁푸 푸</w>
▁포 괄</w>
▁중심 지</w>
▁조 용</w>
▁연 세대</w>
▁부 자</w>
▁부 리</w>
▁뜨 거
▁기 적</w>
일 자</w>
부 가</w>
베 이터</w>
디 아
광 주</w>
고 문</w>
▁체 납</w>
▁전 술</w>
▁잉 글랜드</w>
▁우 정</w>
▁오 피스텔</w>
▁악 기</w>
▁신 약</w>
▁불거 지</w>
▁누 락</w>
주 얼</w>
위 치</w>
울 루</w>
요 청</w>
러 드</w>
나 오</w>
▁포 르
▁중 계</w>
▁우 편</w>
▁여 학생</w>
▁산 출</w>
▁반 품</w>
▁늘 려</w>
▁놓 여</w>
▁고 속</w>
▁결 승전</w>
▁가져 오</w>
e t
이 자</w>
스 리</w>
볶 이</w>
거래 소</w>
▁현 역</w>
▁지 루</w>
▁중 시</w>
▁장 려</w>
▁올 릴</w>
▁살아 남</w>
▁무 너지</w>
▁농 어촌</w>
▁노 원</w>
▁공 휴일</w>
평 생</w>
유 가</w>
버 거</w>
▁폴 란드</w>
▁포 즈</w>
▁택 지</w>
▁책 상</w>
▁실 례</w>
▁산 지</w>
▁박원 순</w>
▁마 드리드</w>
▁도 로
▁다 운
▁놀라 운</w>
▁넘 겨</w>
▁기 본
▁기 법</w>
▁그 만</w>
N A</w>
I P</w>
캐 피
밴 드</w>
▁환 상</w>
▁항 만</w>
▁한 동안</w>
▁프리미 어</w>
▁컵 컵</w>
▁이 념</w>
▁붙 이</w>
▁불 참</w>
▁뛰어 들</w>
▁도 시
▁기 아차</w>
▁교 재</w>
▁교 장</w>
▁5 8</w>
희 망</w>
체육 회</w>
▁특 사</w>
▁염 두</w>
▁불 신</w>
▁복 복</w>
▁마 트</w>
▁등 판</w>
▁돌아 온</w>
▁개 그
T F</w>
행 복</w>
핑 크</w>
용 수</w>
계 좌</w>
▁행 운</w>
▁하 위</w>
▁출 퇴근</w>
▁출 력</w>
▁전 통
▁이 른다</w>
▁올라 왔</w>
▁양 호</w>
▁스 프
▁살 짝</w>
▁보 강</w>
▁밀 어
▁낭 비</w>
▁골 든</w>
A E</w>
표 회</w>
콘 서트</w>
지 원금</w>
부 심</w>
드 럽</w>
▁펼 칠</w>
▁코 인</w>
▁블 록</w>
▁매 번</w>
▁냉 장고</w>
▁개발 자</w>
▁가져 다</w>
O S</w>
트 럼프</w>
제 히</w>
어 서다</w>
아 들</w>
서 치</w>
뜨 렸</w>
국 자</w>
▁일 제히</w>
▁베 를린</w>
▁마 당</w>
▁뛰어 넘</w>
▁도 덕</w>
▁다 큐멘터리</w>
▁광 고
▁골프 장</w>
제 공</w>
인 천</w>
소 속</w>
내 버스</w>
날 레</w>
공 제</w>
▁화 장</w>
▁혁 명</w>
▁티 셔츠</w>
▁통 로</w>
▁촛 불</w>
▁천 연</w>
▁일 회
▁신 부</w>
▁시달 리</w>
▁서 양</w>
▁보험 금</w>
▁모 였</w>
▁마 침
▁넘어 섰</w>
o o
지 회</w>
라 기</w>
동 향</w>
동 기</w>
대 통령</w>
▁파 격</w>
▁처 우</w>
▁시 켜</w>
▁방 과</w>
▁국 채</w>
▁6 8</w>
후 군</w>
회 복</w>
팔 렘방</w>
자 유
셔 널</w>
관리 관</w>
▁오 토
▁영 혼</w>
▁싸 이</w>
▁부 드럽</w>
▁등 지</w>
▁김 광
▁9 5</w>
▁6 3</w>
봐 도</w>
무 장</w>
말 기</w>
그 래
▁토론 토</w>
▁중 견</w>
▁재 차</w>
▁유 적</w>
▁노 리</w>
▁넘 겨진</w>
▁꽉 꽉</w>
▁기록 물</w>
i n</w>
접 종</w>
안 건</w>
먼 트</w>
레 이터</w>
더 라고요</w>
▁캠 퍼스</w>
▁청 렴</w>
▁우 위</w>
▁악 용</w>
▁단 행</w>
9 4</w>
페 라</w>
청 회</w>
지 난</w>
매 도</w>
▁회 의실</w>
▁푸 드</w>
▁어 때
▁사라 진</w>
▁봐 요</w>
▁법 조</w>
▁받아들 여</w>
▁리 모</w>
▁눈 치</w>
▁강 력
▁감 수</w>
▁19 70</w>
티 스</w>
퇴 직</w>
저 우</w>
성 과</w>
리 카
경 북</w>
▁항 구</w>
▁포 포</w>
▁저 조</w>
▁잠 실</w>
▁이루 어진</w>
▁우 울</w>
▁오 빠</w>
▁몰 아
▁독립 운동</w>
▁다 를</w>
▁구 제</w>
M S</w>
용 자</w>
열 차</w>
스크 림</w>
백 질</w>
▁정 말로</w>
▁장 시간</w>
▁이 적</w>
▁외 곽</w>
▁산 림
▁돌 보</w>
▁누 리
▁기 리</w>
▁급 감</w>
▁가 로</w>
▁8 4</w>
▁7 2</w>
습 관</w>
법 령</w>
방 위</w>
무 늬</w>
▁해 변</w>
▁음 반</w>
▁양 심</w>
▁쏟아 졌</w>
▁섰 섰</w>
▁블라 디
▁불 공정</w>
▁못 한다</w>
▁매 뉴얼</w>
▁독 려</w>
▁대표 자</w>
▁그 분</w>
▁견 적</w>
▁F A</w>
청 정기</w>
업 장</w>
시 마</w>
레 저</w>
▁합 작</w>
▁풀 리</w>
▁이 낙
▁아이 스크림</w>
▁미 뤄</w>
▁물 고기</w>
▁매 물</w>
▁동 대문</w>
▁뉴 질랜드</w>
▁거 쳐야</w>
▁갈 아
▁J TBC</w>
주 가</w>
매 장</w>
▁취 한</w>
▁지 혜</w>
▁장 례
▁일 행</w>
▁솔 직히</w>
▁때 로</w>
▁나 뉘</w>
▁경 비
▁결 산</w>
▁가 하</w>
워 진</w>
발 표</w>
루 즈</w>
납 니다</w>
▁증 세</w>
▁중 도</w>
▁아 카데미</w>
▁시 드니</w>
▁상 점</w>
▁보 상금</w>
▁: :</w>
i g
9 8</w>
지 정</w>
서 리</w>
려 진</w>
▁형 상</w>
▁합 니까</w>
▁이낙 연</w>
▁우 체
▁엄청 나</w>
▁얇 얇</w>
▁아닌 지</w>
▁아 나
▁나 노</w>
▁급 하</w>
▁관 계
▁결 과
▁검 진</w>
질 지</w>
저 트</w>
심 의회</w>
덩 이</w>
▁한 전</w>
▁키 워</w>
▁어때 요</w>
▁놀 랐</w>
▁괴 롭
플 라
침 체</w>
조 물</w>
무 실</w>
▁실 습</w>
▁사무 관</w>
▁고령 화</w>
e t</w>
8 9</w>
▁합 쳐</w>
▁이 병
▁와 중</w>
▁여행 객</w>
▁반 해</w>
▁명 분</w>
▁맞 춘</w>
▁계 열</w>
회의 소</w>
학 년도</w>
어린 이집</w>
내 리</w>
규 명</w>
▁펼쳐 졌</w>
▁타 입</w>
▁억 울</w>
▁생 애</w>
▁띈 다</w>
▁구 두</w>
▁교 과</w>
T O</w>
9 7</w>
미 술관</w>
미 세</w>
그 러
구 간</w>
▁품 종</w>
▁자 식</w>
▁양 천구</w>
▁슬 픔</w>
▁소 원</w>
▁비 위</w>
▁법 무</w>
▁마 사지</w>
▁라이 프</w>
▁고용 부</w>
9 3</w>
파 일</w>
주 식</w>
원 도</w>
신 저</w>
선거 법</w>
매 치</w>
량 제</w>
▁치료 제</w>
▁진 압</w>
▁스티 븐</w>
▁빛 나</w>
▁공 산
▁겹 치</w>
▁간 격</w>
▁6 4</w>
C EO</w>
A R</w>
회 의실</w>
침 해</w>
조 사단</w>
야 지</w>
스러 워</w>
셀 로나</w>
린 다는</w>
관 세</w>
▁행 태</w>
▁품 격</w>
▁처 한</w>
▁집행 유예</w>
▁써 야</w>
▁신 고자</w>
▁선 교</w>
▁서 해안</w>
▁상관 없</w>
▁발 병</w>
▁김 혜
▁그리스 도</w>
▁걸 로</w>
실 점</w>
듭 니다</w>
당 했</w>
경 제
▁학 문</w>
▁출 품</w>
▁적 당</w>
▁임 진
▁원 산지</w>
▁양 육</w>
▁소 극</w>
▁명 목</w>
▁나 눴</w>
▁끼 치</w>
▁L ED</w>
P G</w>
E C</w>
첨 단</w>
주 관</w>
제 작</w>
무 성</w>
라 리</w>
디아 라비아</w>
드 루</w>
▁할 리우드</w>
▁폭 탄</w>
▁트 레이
▁창 구</w>
▁여 전</w>
찰 청</w>
예 정</w>
부 족</w>
마 디</w>
높 이</w>
▁하 루
▁수 혜</w>
▁수 천</w>
▁송 부</w>
▁상관 없이</w>
▁본 래</w>
▁맘 맘</w>
▁디 저트</w>
▁도 봉
▁관 해서</w>
▁공 청회</w>
운동 가</w>
용 지</w>
돼 지</w>
걸 리</w>
▁트 로
▁직 위</w>
▁이 사회</w>
▁오 더</w>
▁안 성</w>
▁실 명</w>
▁시 비</w>
▁답 방</w>
▁다 쳤</w>
▁가 리
l e</w>
외 교</w>
시 리즈</w>
▁회원 국</w>
▁헝 가리</w>
▁원 격</w>
▁소 명</w>
▁상 품권</w>
▁민 사</w>
▁만 찬</w>
▁낚 시</w>
▁나 경원</w>
▁기 성</w>
▁광 교</w>
택 지</w>
시 책</w>
보험 료</w>
결 권</w>
▁정 시</w>
▁언론 사</w>
▁관 련자</w>
▁결과 물</w>
▁K TX</w>
o m
a m
▁후 손</w>
▁해수 욕장</w>
▁페널 티
▁주 사</w>
▁상 사</w>
▁바 지</w>
▁동 결</w>
▁구매 자</w>
▁교 착</w>
▁관 건</w>
9 6</w>
수 출</w>
로 지</w>
개 편</w>
▁화 성시</w>
▁하 향</w>
▁폭 넓</w>
▁제 휴</w>
▁연 체</w>
▁악 수</w>
▁수 확</w>
▁수 요자</w>
▁서 쪽</w>
▁범 인</w>
▁바 위</w>
▁드 물</w>
▁공 립</w>
e s</w>
타 르</w>
조 명</w>
윤 리</w>
양 시</w>
안 타</w>
스 쿨</w>
사 회
부 르크</w>
무 개</w>
건 축물</w>
▁처 지</w>
▁주 어지</w>
▁원 자력</w>
▁우 울증</w>
▁스타 디움</w>
▁백 제</w>
▁반 대
▁문 법</w>
▁무 늬</w>
▁만 만</w>
▁마 땅</w>
▁들어 와</w>
▁계 엄
▁6 1</w>
으 실</w>
서 도</w>
날 두</w>
▁히 어
▁증 정</w>
▁안 양</w>
▁실 용</w>
▁세 탁
▁빨 간
▁북 구</w>
▁방 한</w>
▁동 두
▁건 너</w>
차 원</w>
교 장</w>
골 프</w>
▁장 사</w>
▁일 당</w>
▁이 모</w>
▁시 연</w>
▁승 차</w>
▁민간 단체</w>
▁맛 볼</w>
▁나 옵니다</w>
▁기 피</w>
톨 릭</w>
조 달</w>
어린 이</w>
시 켜
▁활 동
▁치 과</w>
▁아니 할</w>
▁사우 디아라비아</w>
▁따라 가</w>
▁깨 달</w>
▁결 단</w>
▁검 색
▁가 해</w>
I C</w>
터 스</w>
코 올</w>
케 이스</w>
영 어</w>
마 케팅</w>
구 청</w>
구 니</w>
▁한 참</w>
▁우 연히</w>
▁보 증금</w>
▁벚 꽃</w>
▁미 성
▁귀 하</w>
▁199 9</w>
회 찬</w>
형 물</w>
일 정</w>
서 부</w>
리 바
▁지 냈</w>
▁정 상
▁이 마트</w>
▁쏠 린다</w>
▁불 길</w>
▁V R</w>
▁P D</w>
u n
지 않</w>
원 단</w>
연 설</w>
어 져</w>
발 히</w>
나 이
▁활 발히</w>
▁호 남</w>
▁판매 자</w>
▁커 진</w>
▁제 천</w>
▁이 룬</w>
▁예 금</w>
▁보 행자</w>
▁단 백질</w>
▁깎 깎</w>
▁강 풍</w>
8 7</w>
협 동조합</w>
니 즘</w>
개 사</w>
▁펜 션</w>
▁우 대</w>
▁열 쇠</w>
▁어 쩌
▁비 대위</w>
▁매 운</w>
▁링 크</w>
▁녹 음</w>
▁공 기업</w>
▁거 주자</w>
▁199 8</w>
운 송</w>
스 레</w>
르 트</w>
로 우</w>
드 려요</w>
▁치 아</w>
▁최우 수</w>
▁일으 킨</w>
▁양 해</w>
▁시 내버스</w>
▁스티 커</w>
▁셋 째</w>
▁독 도</w>
▁감 염병</w>
▁IC T</w>
▁6 2</w>
개 발
▁통신 사</w>
▁장 부</w>
▁일본 어</w>
▁웹 툰</w>
▁요 원</w>
▁신 조</w>
▁수 료</w>
▁섬 세</w>
▁생 태
▁부 의장</w>
▁먹 방</w>
▁떡 떡</w>
▁다녀 왔</w>
▁김영 철</w>
▁교육 장</w>
▁공 사장</w>
▁고려 대</w>
준 호</w>
시 립</w>
사 인</w>
물 품</w>
라 톤</w>
간 지</w>
▁헤 어</w>
▁지 상
▁저 지</w>
▁저 작</w>
▁이 룰</w>
▁어우러 진</w>
▁아 세안</w>
▁성 숙</w>
▁생 겨</w>
▁무 덤</w>
▁도 대체</w>
▁더욱 더</w>
▁다 치</w>
▁낡 낡</w>
▁그리 스</w>
▁공 영</w>
▁20 30</w>
토 지</w>
영 비</w>
엔 날레</w>
수 처</w>
보 트</w>
물 산</w>
당 한</w>
나 와</w>
▁힙 합</w>
▁호 날두</w>
▁항 항</w>
▁폐 업</w>
▁티 저</w>
▁카 운
▁중 간
▁작 곡</w>
▁신 경
▁소 금</w>
▁만 기</w>
▁대 부</w>
▁농 사</w>
▁길 거리</w>
▁극 우</w>
▁경 협</w>
통 점</w>
요 건</w>
연 료</w>
보 조</w>
밀 리</w>
구 성</w>
▁화 물
▁자 정</w>
▁원 형</w>
▁엘리 베이터</w>
▁성 실히</w>
▁마 켓</w>
▁류 류</w>
▁글 자</w>
▁과 징금</w>
운 반</w>
스트 리트</w>
▁파 주시</w>
▁청 산</w>
▁신 생아</w>
▁스피 커</w>
▁사각 지대</w>
▁명 문</w>
▁리 조트</w>
▁고 구
▁9 9</w>
▁6 6</w>
E CD</w>
혈 압</w>
테 이션</w>
정 자</w>
저 감</w>
재 원</w>
어 링</w>
양 성</w>
상 가</w>
▁케 이스</w>
▁추 경</w>
▁초 미세</w>
▁체 중</w>
▁천안 시</w>
▁정 함</w>
▁인 성</w>
▁음식 물</w>
▁원 리</w>
▁셰 프</w>
▁사용 자</w>
▁로 고</w>
▁떠올 리</w>
▁노 래
▁낙 태</w>
▁경상 남도</w>
▁걸 친</w>
▁개 원</w>
▁7 3</w>
턴 트</w>
재 감</w>
여 고</w>
약 금</w>
신 다면</w>
권 도</w>
▁포 천</w>
▁침 입</w>
▁취 해</w>
▁총 액</w>
▁체 납
▁천 연
▁종 결</w>
▁아닐 까</w>
▁아 랍
▁분 단</w>
▁물 리
▁메 신저</w>
▁난 방</w>
▁교 역</w>
▁공 천</w>
호 도</w>
합 리</w>
피 해자</w>
지 오</w>
인 업</w>
산 성</w>
▁파 이
▁크 림</w>
▁중 학생</w>
▁잇 달</w>
▁소 위원회</w>
▁불거 졌</w>
▁명 백</w>
▁광 범위</w>
중 학교</w>
보호 법</w>
마 음</w>
로 당</w>
▁의 정</w>
▁욕 설</w>
▁야 기</w>
▁식 량</w>
▁스 포
▁소 액</w>
▁부산 광역시</w>
▁낯 선</w>
▁남양 주</w>
▁난 다</w>
▁감 추</w>
줄 게</w>
제 출</w>
오 르</w>
▁하 도급</w>
▁출 하</w>
▁총 력</w>
▁창 단</w>
▁지 리</w>
▁존 재감</w>
▁위 성</w>
▁여 겨</w>
▁세 수</w>
▁대 치</w>
▁기 준
▁구 직</w>
▁공 주</w>
P C</w>
외 선</w>
예 고</w>
보 훈</w>
룬 다</w>
듬 해</w>
▁지 각</w>
▁여 주</w>
▁안 산시</w>
▁승 계</w>
▁단 기간</w>
▁녹 지</w>
▁꼬 집</w>
▁권 위</w>
8 1</w>
청 문회</w>
차 로</w>
▁해 방</w>
▁한 눈</w>
▁필 자</w>
▁포 항
▁침 묵</w>
▁참 조</w>
▁전 설</w>
▁이 성
▁이 듬해</w>
▁원 해요</w>
▁연 상</w>
▁소 위</w>
▁비 서관</w>
▁동 쪽</w>
▁다 룬</w>
▁노 회찬</w>
▁공 용</w>
▁각 지</w>
▁가 파
u r
D C</w>
지난 해</w>
지 판</w>
정보 원</w>
사령 관</w>
사 정</w>
드 린</w>
단 속</w>
기 력</w>
겨 야</w>
▁표 지</w>
▁타이 어</w>
▁청 문회</w>
▁일으 켰</w>
▁올라 온</w>
▁연 락
▁시 티</w>
▁사 임</w>
▁놓 인</w>
▁계 곡</w>
a y</w>
토 론</w>
전 국</w>
실 험</w>
보 안</w>
노 위</w>
▁포 용</w>
▁토 양</w>
▁솔 직</w>
▁법 제</w>
▁날 아
▁공 제</w>
▁경 보</w>
▁결 재</w>
휴 가</w>
유 로</w>
사 체</w>
다 임</w>
▁효 력</w>
▁환 급</w>
▁청 장</w>
▁채 워</w>
▁입 소문</w>
▁이어 진다</w>
▁역 설</w>
▁소 주</w>
▁바 퀴</w>
▁모 듈</w>
▁대 세</w>
▁남 다른</w>
▁나 이
▁구 원</w>
▁각 별</w>
9 1</w>
보 리</w>
▁한 하</w>
▁팬 클럽</w>
▁좀 처럼</w>
▁분 량</w>
▁기 업체</w>
▁겨 우</w>
▁갖 춰</w>
일 수록</w>
응 답</w>
으 려</w>
네 스코</w>
▁통 역</w>
▁태 권도</w>
▁준 하</w>
▁접 경</w>
▁예 의</w>
▁연 초</w>
▁양 극</w>
▁실 비</w>
▁붙 잡</w>
▁배 후</w>
▁모 자
▁떡 볶이</w>
▁간 식</w>
▁1 12</w>
▁1 10</w>
P GA</w>
향 상</w>
표 준</w>
커 스</w>
언 론</w>
보 상</w>
로 즈</w>
강 점기</w>
▁출 고</w>
▁차 등</w>
▁저질 렀</w>
▁신 흥</w>
▁분 담</w>
▁멘 토</w>
▁대 장
▁대 단히</w>
▁귀여 운</w>
▁고마 워</w>
▁건 네</w>
투 스</w>
장 이</w>
운 서</w>
섭 단체</w>
배 출</w>
▁일본 군</w>
▁유니 폼</w>
▁신 나</w>
▁시 골</w>
▁서 점</w>
▁모 금</w>
▁로 마</w>
▁김 의</w>
▁계 란</w>
출 납원</w>
장 벽</w>
물 가</w>
드 백</w>
▁할 까요</w>
▁연 평균</w>
▁수 산</w>
▁뻗 뻗</w>
▁불어 넣</w>
▁불 꽃</w>
▁번 지</w>
▁기 운</w>
▁관 료</w>
▁고 지</w>
특 보</w>
려 던</w>
랑 이</w>
▁피 할</w>
▁차 이
▁육 박</w>
▁시 흥</w>
▁스 태프</w>
▁보 훈</w>
▁보 트</w>
▁박 차</w>
▁뒤 따
▁6 7</w>
▁199 7</w>
M F</w>
컨 설팅</w>
진 다고</w>
지 기</w>
유 총</w>
무 상</w>
마 드</w>
경 보</w>
▁화 폐</w>
▁조 립</w>
▁이 색</w>
▁보 냅니다</w>
▁민 속</w>
▁도 보</w>
▁남 아
▁기다 렸</w>
▁가 라
P O</w>
대한 민국</w>
공 기</w>
▁파 문</w>
▁팀 원</w>
▁치 안</w>
▁채 팅</w>
▁주 부</w>
▁자 부심</w>
▁의 병</w>
▁염 려</w>
▁여 객
▁삭 감</w>
▁부 재</w>
▁라 인업</w>
▁들이 받</w>
▁동 양</w>
▁돌아 보</w>
▁구 급
▁관계 없이</w>
▁과 기</w>
▁계 승</w>
▁검색 어</w>
흡 기</w>
호 기</w>
문 재인</w>
국제 공항</w>
고 도</w>
▁확 진</w>
▁크 로스</w>
▁조 속히</w>
▁입 수</w>
▁엄 청</w>
▁분 포</w>
▁목 적지</w>
▁딸 기</w>
▁노동 조합</w>
▁건설 사</w>
환 경
보 디아</w>
독 자</w>
담 배</w>
▁추 격</w>
▁융 자금</w>
▁양 주</w>
▁소 비
▁선 명</w>
▁색 다른</w>
▁발 판</w>
▁모 시</w>
▁로드 맵</w>
▁덮 덮</w>
I ST</w>
I S</w>
저 널</w>
비 스
로 이드</w>
겨 레</w>
▁회 식</w>
▁정 수</w>
▁접 종</w>
▁유 쾌</w>
▁어 긋
▁아나 운서</w>
▁실 물</w>
▁서 둘러</w>
▁살 피</w>
▁민 원인</w>
▁못 해서</w>
▁먼 지</w>
▁로 버트</w>
▁단 말기</w>
▁농 기</w>
▁넥 슨</w>
▁김 연
▁골 라</w>
▁고 등</w>
▁결 실</w>
▁걸어 가</w>
▁갱 신</w>
M C</w>
소시 엄</w>
소 프트</w>
사 위</w>
경 남</w>
▁펼 친다</w>
▁패 패</w>
▁코미 디</w>
▁잡 히</w>
▁알 레
▁신 동
▁사 원</w>
▁렌 즈</w>
▁등 록
▁도봉 구</w>
▁녹 화</w>
▁고 창</w>
▁경상 북도</w>
▁갖 췄</w>
▁간 다</w>
철 수</w>
제 주</w>
제 약</w>
소 식</w>
부 즈
▁클 러스터</w>
▁카 풀</w>
▁직 속</w>
▁이뤄 져야</w>
▁유 네스코</w>
▁아이 디</w>
▁아 레나</w>
▁슬 로
▁선 점</w>
▁몸 매</w>
▁돼지 고기</w>
▁동 화</w>
▁독 독</w>
▁다 툼</w>
▁납 치</w>
▁각 기</w>
화 국</w>
외 여행</w>
▁흑 자</w>
▁허 브</w>
▁피 드백</w>
▁프로 세스</w>
▁유 로</w>
▁에 이스</w>
▁언론 인</w>
▁액 수</w>
▁성 립</w>
▁생 각
▁산림 청</w>
▁발 걸음</w>
▁동 점</w>
▁대 주주</w>
▁남 산</w>
▁국 영</w>
▁과 다</w>
출 연</w>
지 점</w>
일 반</w>
의 약품</w>
여 대</w>
스크 바</w>
보 좌관</w>
동 부</w>
▁코 엑스</w>
▁컴 백</w>
▁증 액</w>
▁외 식</w>
▁여 정</w>
▁속 초</w>
▁섞 섞</w>
▁빌 리</w>
▁마침 내</w>
▁동 맹</w>
▁도 자기</w>
▁달라 진</w>
▁내려 오</w>
▁납 입</w>
▁나 눌</w>
▁가 맹</w>
다 주</w>
기 초</w>
▁한 파</w>
▁토 큰</w>
▁재 임</w>
▁융 융</w>
▁연락 처</w>
▁동북 아</w>
▁다운 로드</w>
▁기 아</w>
8 3</w>
혜 택</w>
코 스</w>
지 방
▁해 양
▁추 운</w>
▁젖 젖</w>
▁정 세</w>
▁자 활</w>
▁이 기
▁사 생활</w>
▁방송 국</w>
▁마 르
▁다 운</w>
▁넘 겼</w>
페 스티벌</w>
접 대</w>
실 래요</w>
스 런</w>
분 과</w>
보 존</w>
대 리
납 부</w>
▁히 트</w>
▁포 스트</w>
▁주 된</w>
▁이산 가족</w>
▁유 익</w>
▁유 기
▁우체 국</w>
▁영 업
▁어 선</w>
▁상 봉</w>
▁사업 주</w>
▁마 크</w>
▁도 발</w>
▁당 국자</w>
▁나 와서</w>
▁김 선
▁관 절</w>
▁경기 력</w>
▁가까 워</w>
▁1 60</w>
합 창단</w>
사 비</w>
리 스
러 시아</w>
가 수</w>
▁한 우</w>
▁필 름</w>
▁증 증</w>
▁오 스트
▁여 행사</w>
▁쉼 터</w>
▁새 끼</w>
▁산 재</w>
▁미 미</w>
▁라 오스</w>
▁국 기</w>
D I</w>
통 부</w>
시 아
반 도체</w>
렌 지</w>
드 릴까요</w>
▁크 로
▁컨 퍼런스</w>
▁주 전</w>
▁정 례</w>
▁일 기</w>
▁이 주
▁이 어서</w>
▁오토 바이</w>
▁악 영향</w>
▁스페 셜</w>
▁생 략</w>
▁비 극</w>
▁몰 라</w>
▁모 드</w>
▁뒀 뒀</w>
▁달 린</w>
▁달 라</w>
▁단 식</w>
▁다 저스</w>
▁날 카
▁금 천구</w>
s t
학 관</w>
편 성</w>
적 으로</w>
의 무</w>
외 국인</w>
분 리</w>
돼 서</w>
▁풀 어
▁푸 른</w>
▁채 무</w>
▁창 원시</w>
▁참 전</w>
▁수 산물</w>
▁부 서장</w>
▁보 류</w>
▁마 침</w>
▁동 굴</w>
▁대 두</w>
▁낙 동강</w>
▁김 승
▁그 라운드</w>
▁공공 시설</w>
A R
편 의</w>
종 일</w>
전 남</w>
이 탈
벌 이</w>
마 파크</w>
나 갔</w>
금 형</w>
▁중앙 은행</w>
▁제 동</w>
▁유 래</w>
▁아쉬 운</w>
▁성 동구</w>
▁빈 번</w>
▁똑 같이</w>
▁김 창
▁그 림
해 본다</w>
함 께</w>
처 벌</w>
전 통</w>
변 호사</w>
미 르</w>
▁홍 역</w>
▁표 했</w>
▁케 어</w>
▁찬 반</w>
▁브 로
▁반 찬</w>
▁모 스크바</w>
▁면 모</w>
▁감 자</w>
▁3 50</w>
활동 비</w>
우 미</w>
거 든</w>
▁해 외여행</w>
▁페 이
▁컨 트
▁중 고</w>
▁종 량제</w>
▁정 답</w>
▁실 리
▁변 형</w>
▁매 칭</w>
▁돌아 갈</w>
▁근 접</w>
▁가 뭄</w>
▁S UV</w>
▁G S</w>
회 로</w>
형 문화재</w>
풀 이</w>
통 장</w>
스 톱</w>
민 지</w>
농 장</w>
▁촉 발</w>
▁조 카</w>
▁제 주
▁장 군</w>
▁일 일
▁유 산</w>
▁실 체</w>
▁사 형</w>
▁버 티</w>
▁다 릅니다</w>
현 직</w>
통 계</w>
서 히</w>
부 동산</w>
베 이
문 단</w>
르 기</w>
동 성</w>
다 만</w>
국 내</w>
▁황 의
▁해운 대</w>
▁컨 디션</w>
▁체크 인</w>
▁재 심</w>
▁인 문학</w>
▁인 문</w>
▁오 케스트라</w>
▁어우러 져</w>
▁산 업
▁사 모</w>
▁레 알</w>
▁드 렸</w>
e a
표 시</w>
전 방</w>
작 전</w>
임 위</w>
어 서요</w>
비 치</w>
년 자</w>
▁학 년</w>
▁특 색</w>
▁킨 텍스</w>
▁채 취</w>
▁지지 자</w>
▁전 신</w>
▁자 매</w>
▁원 단</w>
▁영 웅</w>
▁수 십
▁서 서히</w>
▁박 지
▁마이 너스</w>
▁따 져</w>
▁그 해</w>
▁구 형</w>
▁간 주</w>
o r</w>
테 랑</w>
정 통부</w>
사 상</w>
부 서장</w>
▁회 화</w>
▁터 널</w>
▁요 금제</w>
▁산 소</w>
▁사 업체</w>
▁런 런</w>
▁동 성
▁놀 이터</w>
▁굿 굿</w>
▁공 통점</w>
▁경쟁 사</w>
퍼 니</w>
채 권</w>
요 시</w>
성 능</w>
린 다고</w>
라이 프</w>
데 스</w>
고 교</w>
▁열 광</w>
▁싼 싼</w>
▁선 호도</w>
▁서 산</w>
▁보인 다고</w>
▁나 흘</w>
▁각 광</w>
▁가 담</w>
철 역</w>
원 가</w>
영 역</w>
스 틴</w>
강 원도</w>
▁화 가</w>
▁향 기</w>
▁행 하</w>
▁튀 튀</w>
▁치 른</w>
▁엔 지
▁슈 팅</w>
▁생 선</w>
▁바 깥</w>
▁미 드
▁무 효</w>
▁목 격자</w>
▁도 망
▁CN N</w>
할 수록</w>
주 소</w>
▁패러 다임</w>
▁챔 피</w>
▁정 교</w>
▁재 선</w>
▁임 산부</w>
▁의 한다</w>
▁세 탁</w>
▁서 귀
▁돌 려</w>
정 호</w>
비스 업</w>
▁합 격자</w>
▁청 춘</w>
▁천 장</w>
▁일일 이</w>
▁월 스트리트</w>
▁약 자</w>
▁쌓 여</w>
▁소 멸</w>
▁세 련</w>
▁생산 자</w>
▁보 충</w>
▁병 력</w>
▁박 종
▁드 림</w>
▁당 사</w>
▁다 녔</w>
▁끝 날</w>
한 은행</w>
판 매
축 구
조 기</w>
일 팀</w>
담 보</w>
꼼 히</w>
개 정</w>
▁표 본</w>
▁충 청</w>
▁증 거
▁입 주민</w>
▁은 혜</w>
▁은 폐</w>
▁염 색</w>
▁양 념</w>
▁내 달</w>
▁기 둥</w>
▁계 신</w>
해 석</w>
학 규</w>
취 약</w>
정 일</w>
정 권</w>
완 전</w>
수 자</w>
소 연</w>
산 동</w>
르 몬</w>
경 관</w>
간 접</w>
▁황의 조</w>
▁프 라이
▁캄 보디아</w>
▁추 위</w>
▁옥 외</w>
▁오 찬</w>
▁셧 다운</w>
▁선 착
▁맛 집</w>
▁따 지</w>
▁대 접</w>
▁꼼 꼼히</w>
▁과 자</w>
▁고 립</w>
▁각 오</w>
획 사</w>
하이 닉스</w>
프 리</w>
추 홀</w>
점 수</w>
수 량</w>
선 물</w>
미 스</w>
리 기</w>
력 자</w>
▁태 태</w>
▁청 주시</w>
▁찾아 볼</w>
▁여 력</w>
▁수 명</w>
▁세 일</w>
▁삼성 물산</w>
▁블 루
▁도 박</w>
▁국 공립</w>
▁7 6</w>
S NS</w>
G M</w>
투 수</w>
지 엄</w>
정 리</w>
원 히</w>
외 과</w>
역 형</w>
목 표</w>
림 돌</w>
드 림</w>
▁피 우</w>
▁재 계</w>
▁열 매</w>
▁쌍 둥이</w>
▁발 전소</w>
▁바르 셀로나</w>
▁따라 야</w>
▁눈 앞</w>
▁굴 굴</w>
▁걸 음</w>
1 5
취 소</w>
정 법</w>
유 주</w>
여 당</w>
두 르</w>
권 력</w>
계 선</w>
▁형 평</w>
▁주 춤</w>
▁익 명</w>
▁와이 파이</w>
▁예 우</w>
▁신 념</w>
▁무 거운</w>
▁면 역
▁다가 가</w>
▁감 찰</w>
▁가 평</w>
학 대</w>
필 드</w>
스 마트</w>
소 형</w>
사 리</w>
면 서도</w>
멘 트</w>
고 회</w>
경 험</w>
▁정 관</w>
▁이 를</w>
▁아이 콘</w>
▁소 진</w>
▁바 꿔
▁막 히</w>
▁기념 행사</w>
▁그 랜드</w>
▁교통 안전</w>
▁걸 맞</w>
I D</w>
페 이스</w>
지 도자</w>
에 미
업 가</w>
베 이스</w>
남 미</w>
▁혼 혼</w>
▁특 례</w>
▁제 발</w>
▁앞세 워</w>
▁사 역</w>
▁막 걸리</w>
▁마 실</w>
▁독 거</w>
▁누 워</w>
▁균 형발전</w>
▁과 학자</w>
▁걸 림돌</w>
할 까</w>
임 즈</w>
유 출</w>
워 질</w>
민 정</w>
고 는</w>
▁호 재</w>
▁햄 버거</w>
▁학 식</w>
▁프레 임</w>
▁표 출</w>
▁집중 력</w>
▁이재 용</w>
▁이 강
▁원 작</w>
▁엘 지</w>
▁안 드
▁샐 러드</w>
▁베 테랑</w>
▁벌 금형</w>
▁백 성</w>
▁받아들 일</w>
▁바 이</w>
▁동 포</w>
▁돌아 올</w>
▁기 지</w>
▁급 한</w>
▁글 씨</w>
화 력</w>
주 의보</w>
죄 자</w>
젯 밤</w>
점 포</w>
의 서</w>
위 성</w>
보 내</w>
번 지</w>
검 증</w>
▁펜 펜</w>
▁팔 리</w>
▁쳤 쳤</w>
▁죽 이</w>
▁원 본</w>
▁승 점</w>
▁부 정
▁박 상
▁레 드</w>
▁들어 선</w>
▁동남 아시아</w>
▁느 낀
▁곽 곽</w>
▁거래 처</w>
▁거 액</w>
▁M C</w>
S C
할 게</w>
토 피</w>
퀘 어</w>
체 어</w>
주 지</w>
인 장</w>
실 질</w>
수 관</w>
대 결</w>
▁증 빙</w>
▁정 문</w>
▁전 해진다</w>
▁잡 혔</w>
▁이루어 져</w>
▁여행 지</w>
▁분 열</w>
▁부탁 드립니다</w>
▁보 이스</w>
▁보 궐</w>
▁무 력</w>
▁당 원</w>
▁내 각</w>
▁나 간</w>
총 액</w>
접 수</w>
에 이
양 구</w>
소방 서</w>
소 드</w>
모 닝</w>
력 사</w>
듀 서</w>
나 기</w>
계 기</w>
▁헌 재</w>
▁착 각</w>
▁자 이
▁욕 심</w>
▁열 띤</w>
▁어쩌 면</w>
▁어두 운</w>
▁스 카
▁밀 착</w>
▁당 첨</w>
▁남 한</w>
▁나타 난다</w>
▁과 천</w>
▁과 잉</w>
▁가 톨릭</w>
▁가 려
조 절</w>
인 치</w>
라 야</w>
노동 조합</w>
곡 가</w>
▁흰 흰</w>
▁확 고</w>
▁콜 롬
▁최 상
▁일 련</w>
▁인 삼</w>
▁이루어 질</w>
▁의 학</w>
▁역 동</w>
▁안 타</w>
▁시 속</w>
▁모 릅니다</w>
▁메 달</w>
▁던 졌</w>
▁대 미</w>
▁다 량</w>
▁다 닐</w>
▁눈 높이</w>
▁날 개</w>
v N</w>
인 도</w>
식 회사</w>
스토 어</w>
디 스플레이</w>
기 원</w>
▁화 이트</w>
▁평 년</w>
▁착 한</w>
▁자아 냈</w>
▁용 용</w>
▁사 드</w>
▁분 배</w>
▁벨 벨</w>
▁민 중</w>
▁마이 클</w>
▁김 관
▁가 스
e n</w>
필 더</w>
지 션</w>
영 주</w>
빌 딩</w>
관리 자</w>
겨 울</w>
강 당</w>
▁컨 소시엄</w>
▁의 안</w>
▁우 산</w>
▁안 경</w>
▁쌓 이</w>
▁신 한은행</w>
▁신 재</w>
▁상 식</w>
▁빼 앗</w>
▁보 일러</w>
▁버 렸</w>
▁바 꿨</w>
▁과 열</w>
화 원</w>
업 원</w>
슬 림</w>
상 환</w>
비 드</w>
강 전</w>
▁후보 자</w>
▁평 등</w>
▁커뮤니 케이션</w>
▁징 역형</w>
▁여 섯</w>
▁어 젯밤</w>
▁야 권</w>
▁빠 질</w>
▁부 추
▁부 임</w>
▁미 션</w>
▁몰 렸</w>
▁까 닭</w>
▁기 승</w>
▁고령 자</w>
▁고 리</w>
▁K IA</w>
▁8 2</w>
u t
S T
카 메라</w>
차 관</w>
줄 이</w>
주 니어</w>
전 체</w>
인 시</w>
어 업</w>
수 영</w>
버 풀</w>
배 당</w>
미 팅</w>
▁캘리포 니아</w>
▁충 주</w>
▁주 역</w>
▁조 류</w>
▁응 모</w>
▁왕 복</w>
▁영 감</w>
▁알 선</w>
▁교 직원</w>
▁경 로당</w>
D A</w>
인 데요</w>
익 금</w>
악 단</w>
수 학</w>
성 분</w>
딩 스</w>
간 다는</w>
▁흙 흙</w>
▁핵 무기</w>
▁피 로</w>
▁친 서</w>
▁에 피
▁사 격</w>
▁미 추홀</w>
▁동 상</w>
▁그러 므로</w>
▁게 이
학 당</w>
타 당</w>
제 조</w>
세 종</w>
사 대</w>
동 맹</w>
도 심</w>
답 니다</w>
계 열</w>
▁필 터</w>
▁최 우</w>
▁증 설</w>
▁조용 히</w>
▁인 민</w>
▁오 렌지</w>
▁수 월</w>
▁송 영
▁상 의</w>
▁빨 간</w>
▁무 사히</w>
▁몰 라
▁론 론</w>
▁넓 히</w>
▁나 빠
▁굳 굳</w>
▁곤 충</w>
▁경 선</w>
▁개 소</w>
▁가 늠</w>
석 희</w>
격 차</w>
▁하 이</w>
▁충 당</w>
▁유 리
▁송 환</w>
▁세 관</w>
▁본 관</w>
▁동 아시아</w>
▁더 해져</w>
▁노 트</w>
▁교 섭단체</w>
▁경 신</w>
▁199 4</w>
D S</w>
행 법</w>
패 션</w>
오 픈</w>
아 라</w>
로 워</w>
기 장</w>
검 찰청</w>
▁크 루즈</w>
▁지지 층</w>
▁좌 절</w>
▁조 재
▁임 박</w>
▁오 바
▁연 천</w>
▁어 딘
▁싣 싣</w>
▁수 수</w>
▁소 송
▁비 례
▁버 섯</w>
▁드러 낸</w>
▁달 라질</w>
▁구 할</w>
▁감 정
▁〈 〈</w>
회 전</w>
추 어</w>
질 수록</w>
수 구</w>
상 거래</w>
부 담금</w>
관 은</w>
▁워 킹</w>
▁운 영비</w>
▁안 다</w>
▁쓰 여</w>
▁수 납</w>
▁불법 행위</w>
▁미드 필더</w>
▁미 용</w>
▁맥 맥</w>
▁규 탄</w>
▁199 5</w>
토 링</w>
진 출</w>
전 철</w>
전 담</w>
운 행</w>
영 국</w>
산 단</w>
브 이</w>
그 라
▁탐 방</w>
▁캐 스팅</w>
▁조 양호</w>
▁인사 말</w>
▁영 원히</w>
▁양 자</w>
▁경 호</w>
▁7 1</w>
확 보</w>
해 결</w>
청 소</w>
모 든</w>
론 가</w>
▁하 청</w>
▁펼 친</w>
▁퇴 원</w>
▁태 우</w>
▁퀴 즈</w>
▁코 레</w>
▁케이 티</w>
▁출 판사</w>
▁찾아 왔</w>
▁인 터</w>
▁읍 읍</w>
▁위 장</w>
▁월 세</w>
▁업 적</w>
▁약 국</w>
▁상 설</w>
▁번 영</w>
▁모 를</w>
▁마음 껏</w>
▁랩 랩</w>
▁누 나</w>
▁기다 려야</w>
▁기 부금</w>
▁금 전</w>
▁그런 지</w>
▁구 리</w>
화장 실</w>
크 림</w>
크 로
중 앙
에 도</w>
세 이</w>
끄 럽</w>
기 무사</w>
그 인</w>
▁출 토</w>
▁책임 감</w>
▁정 점</w>
▁접 대</w>
▁임 차
▁유 인</w>
▁운동 장</w>
▁여 신</w>
▁손 학규</w>
▁상 임위</w>
▁모 형</w>
▁들어 간다</w>
▁당선 인</w>
▁그 린
▁격 화</w>
▁갔 었</w>
▁8 8</w>
포 터</w>
튜 버</w>
정 식</w>
쁩 니다</w>
보 육</w>
발 언</w>
만 히</w>
든 다</w>
거래 법</w>
▁합 산</w>
▁축 산물</w>
▁총 기</w>
▁청 구서</w>
▁주 유소</w>
▁일 체</w>
▁이 겨</w>
▁영 남</w>
▁어 색</w>
▁안 동</w>
▁아 리
▁숙 명</w>
▁손 길</w>
▁상 기</w>
▁비 빔
▁미 달</w>
▁남 한
▁기념 품</w>
▁결 핵</w>
▁겉 겉</w>
▁199 6</w>
현 동</w>
지 가</w>
우 주</w>
설 치</w>
도 군</w>
기 일</w>
건 수</w>
▁홍 영
▁호 조</w>
▁크 다</w>
▁척 추</w>
▁조 업</w>
▁저 해</w>
▁재 질</w>
▁임 하</w>
▁임 시
▁이 끈</w>
▁의 석</w>
▁오 르
▁알려 야</w>
▁순 조</w>
▁보 컬</w>
▁박 용
▁든 든</w>
▁단 단</w>
▁기 르</w>
하 라</w>
준 표</w>
그 린</w>
권 익</w>
▁친 척</w>
▁진 열</w>
▁지상 파</w>
▁인 플
▁울 리</w>
▁실 증</w>
▁베 스트</w>
▁도시 락</w>
▁귀 가</w>
▁국 군</w>
▁교 섭</w>
▁7 7</w>
T C</w>
항 목</w>
터 널</w>
요 리</w>
연 자</w>
에미 리트</w>
손 실</w>
무 진</w>
▁프로 듀서</w>
▁퍼 져</w>
▁전라 남도</w>
▁적 성</w>
▁작 곡가</w>
▁원 화</w>
▁용 서</w>
▁오 페라</w>
▁세 르
▁사용 량</w>
▁부 양</w>
▁별 개</w>
▁발 탁</w>
▁면역 력</w>
▁맞물 려</w>
▁마 주
▁들여 다보</w>
▁대 학원</w>
▁담 임</w>
▁기 하</w>
▁구 인</w>
▁고 액</w>
▁7 4</w>
▁1 40</w>
하 늘</w>
주 군</w>
도 소</w>
농 협</w>
금 속</w>
▁합 법</w>
▁진 동</w>
▁전시 관</w>
▁우 회</w>
▁연 차</w>
▁안타까 운</w>
▁속 출</w>
▁서 예</w>
▁산 학</w>
▁비 대</w>
▁뮤지 션</w>
▁들어 설</w>
▁교 차</w>
▁개그 맨</w>
▁감 리</w>
▁o f</w>
6 000</w>
플 렉스</w>
증 후군</w>
존 도</w>
전시 회</w>
수 업</w>
성 도</w>
방 울</w>
반 대</w>
려 다</w>
두 환</w>
두 산</w>
구 리</w>
▁캠 핑</w>
▁친 한</w>
▁영 리</w>
▁신 작</w>
▁수 제</w>
▁셔 틀
▁세계 인</w>
▁성 북구</w>
▁샤 워</w>
▁생태 계</w>
▁병 사</w>
▁문화 유산</w>
▁다 중</w>
▁남 녀
▁꼽 혔</w>
▁김 장</w>
▁I P</w>
▁19 60</w>
▁$ $</w>
호 회</w>
창 업자</w>
종 목</w>
이 행</w>
시 스코</w>
스토 리</w>
부 스</w>
▁핫 핫</w>
▁표 결</w>
▁콜 라
▁전 철</w>
▁이 쪽</w>
▁이 제
▁영 위</w>
▁에피 소드</w>
▁신 뢰
▁빈 곤</w>
▁미 지수</w>
▁고마 워요</w>
▁고 치</w>
▁거 센</w>
▁1 500</w>
r i
S S</w>
M A</w>
홀 딩스</w>
총 괄</w>
중 개사</w>
조 선
자유 구역</w>
음 료</w>
신 호</w>
나 이</w>
금 법</w>
▁형 편</w>
▁현 저</w>
▁패 소</w>
▁투 표
▁타 깃</w>
▁최 장</w>
▁최 상</w>
▁유 저</w>
▁예 멘</w>
▁예 년</w>
▁영 암</w>
▁알 릴</w>
▁별 세</w>
▁번 역
▁미성 년자</w>
▁래 퍼</w>
▁라 돈</w>
▁대 조</w>
▁깔 려</w>
▁그 렸</w>
▁경 감</w>
줘 요</w>
정 서</w>
원 대</w>
시 위</w>
상 지</w>
법 률</w>
문 사</w>
메 시지</w>
두 리</w>
▁혈 관</w>
▁한 마디</w>
▁포 트
▁이 순
▁음악 회</w>
▁은 평구</w>
▁온 갖</w>
▁열 흘</w>
▁비 무장</w>
▁물 결</w>
▁롤 롤</w>
▁그 야말로</w>
T E</w>
항 공사</w>
프 레
체 스터</w>
은 색</w>
수 산물</w>
구 인</w>
고 생</w>
개 방</w>
▁정 통</w>
▁인 허가</w>
▁소 나무</w>
▁상 고</w>
▁머무 르</w>
▁등 산</w>
▁F C</w>
카 오</w>
여 진</w>
발 급</w>
▁통 관</w>
▁지하 철역</w>
▁전 례</w>
▁재 취업</w>
▁용 인시</w>
▁요 새</w>
▁야 채</w>
▁붐 붐</w>
▁반 갑</w>
▁물러 나</w>
▁마 라톤</w>
▁도 울</w>
▁나 눈</w>
▁강 해</w>
빌 리티</w>
부 과</w>
발 유</w>
라 크</w>
농 산물</w>
공 부</w>
▁톤 톤</w>
▁줘 야</w>
▁이 의</w>
▁을 을</w>
▁알레 르기</w>
▁실 전</w>
▁식 민지</w>
▁세 심</w>
▁비 주얼</w>
▁떨 떨</w>
▁도 자</w>
▁단 절</w>
▁6 9</w>
크 리트</w>
커 피</w>
일 까</w>
인 프라</w>
어 드</w>
실 천</w>
로 페이</w>
공 모</w>
▁획 기</w>
▁향 수</w>
▁항공 편</w>
▁털어 놨</w>
▁터 미널</w>
▁체육 관</w>
▁청 년층</w>
▁찾아 내</w>
▁줄 줄이</w>
▁제 치</w>
▁약 정</w>
▁성 당</w>
▁빌 보드</w>
▁모 아
▁느껴 졌</w>
▁구 조물</w>
F I
하 성</w>
파 업</w>
트 로</w>
제 기</w>
전 당</w>
성 기</w>
면 접</w>
▁포항 시</w>
▁콘 퍼런스</w>
▁찬 양</w>
▁주 어진</w>
▁정 우
▁일 간</w>
▁원 했</w>
▁왕 실</w>
▁연 중</w>
▁박 영
▁미 투</w>
▁멀 티</w>
▁돌 파구</w>
▁놀 랍</w>
▁궁 극</w>
▁굽 굽</w>
▁국 빈</w>
▁강 점기</w>
▁강 북</w>
o c
E S</w>
자 단</w>
들 인</w>
▁팩 팩</w>
▁패 션
▁키 울</w>
▁전 적</w>
▁전 복</w>
▁원 주</w>
▁영 토</w>
▁소 독</w>
▁벌 여</w>
▁발 음</w>
▁민 심</w>
▁막 혀</w>
▁드 릴까요</w>
▁낙 관</w>
▁강력 히</w>
폴 리오</w>
투 쟁</w>
지 진</w>
양 식</w>
스 터
선 정</w>
뷰 티</w>
렌 즈</w>
노 소</w>
내 식</w>
▁함 정</w>
▁폭 락</w>
▁찾아 온</w>
▁이 별</w>
▁알 림</w>
▁아랍 에미리트</w>
▁시 한</w>
▁비 결</w>
▁드 레스</w>
▁던 진</w>
▁당선 자</w>
▁그만 두</w>
▁거 품</w>
▁가 져</w>
▁Y G</w>
i r
혜 원</w>
트 홀</w>
중 히</w>
적 서</w>
우 승</w>
신 다</w>
란 시스코</w>
득 세</w>
동 아리</w>
거 사</w>
가 입</w>
▁침 투</w>
▁책 자</w>
▁지 형</w>
▁주 름</w>
▁전통 문화</w>
▁입 대</w>
▁이 시
▁오바 마</w>
▁영 예</w>
▁영 변</w>
▁시 흥
▁빨간 색</w>
▁모 래</w>
▁뚜 껑</w>
▁대 전시</w>
▁달 랐</w>
▁김 해
▁격 격</w>
▁개 개인</w>
▁가 치
S J</w>
최 고</w>
위 반</w>
시 경</w>
▁한 잔</w>
▁치 러</w>
▁전 선</w>
▁아마 추어</w>
▁쏟아 져</w>
▁신 차</w>
▁습 득</w>
▁수 감</w>
▁부 를</w>
▁복 장</w>
▁바 로잡</w>
▁마 이</w>
▁레이 저</w>
▁되 살
▁누 설</w>
▁농 작물</w>
▁난 이도</w>
▁기 관
▁구 사</w>
▁고 집</w>
▁고 무</w>
▁가져 올</w>
O R
전 처</w>
장 려금</w>
원 실</w>
실 시</w>
비 행</w>
디 지털</w>
▁희 귀</w>
▁휘 발유</w>
▁후 임</w>
▁회 부</w>
▁한 두</w>
▁평 택시</w>
▁파 도</w>
▁컨 셉</w>
▁치 명</w>
▁쫓 쫓</w>
▁조선 일보</w>
▁저 변</w>
▁인 파</w>
▁이용 료</w>
▁응 용</w>
▁사 운드</w>
▁부 친</w>
▁반 기</w>
▁무 슬림</w>
▁리 얼
▁러 브</w>
▁눌 러</w>
▁남 북한</w>
▁구 로</w>
▁고 속도</w>
한 반도</w>
하 루</w>
셀 러</w>
블 릿</w>
다 이
군 사</w>
과 거</w>
견 서</w>
▁힘 쓰</w>
▁훌 쩍</w>
▁커 서</w>
▁지 배
▁일 감</w>
▁이 화
▁의 결권</w>
▁어 느
▁순 방</w>
▁상 한</w>
▁빨 라</w>
▁바 꾼</w>
▁단 일팀</w>
▁다 지</w>
▁내세 우</w>
▁광 명</w>
▁공 적</w>
▁게시 물</w>
▁거 실</w>
▁간 직</w>
포 스</w>
증 가</w>
입 금</w>
기 차</w>
▁흑 인</w>
▁항 소</w>
▁퇴 장</w>
▁타 협</w>
▁축 복</w>
▁재 적</w>
▁일 부
▁오 피스</w>
▁시 위대</w>
▁셔틀 버스</w>
▁모 른
▁매 달
▁김병 준</w>
▁김 일
▁기 종</w>
B M</w>
201 5</w>
홈 런</w>
호 우</w>
종 자</w>
자 율</w>
사 스</w>
경 협</w>
▁휴 게
▁하 차</w>
▁지 친</w>
▁중 립</w>
▁종 로</w>
▁장 터</w>
▁잔 류</w>
▁여 배우</w>
▁여 객</w>
▁어 떡</w>
▁야 근</w>
▁식 중독</w>
▁숨 기</w>
▁세 션</w>
▁생 긴다</w>
▁불 황</w>
▁바 뀔</w>
▁마 크
▁돌아 갔</w>
▁남녀 노소</w>
▁그 쪽</w>
▁구 보</w>
▁교 황</w>
혐 의</w>
탱 크</w>
지 현</w>
절 감</w>
장 면</w>
무 지</w>
계 약서</w>
▁함 량</w>
▁차 종</w>
▁재 편</w>
▁장 마</w>
▁응급 실</w>
▁운 반</w>
▁우 버</w>
▁아 토피</w>
▁손 잡</w>
▁사 과
▁복 제</w>
▁보 람</w>
▁발 명</w>
▁미 술
▁문 턱</w>
▁멋 있</w>
▁랭 킹</w>
▁떠 날</w>
▁동물 원</w>
▁도 면</w>
▁달라 졌</w>
▁까 지</w>
▁그러 니까</w>
▁8 6</w>
h a</w>
e m
IC T</w>
하 수</w>
특 례</w>
시 절</w>
수 진</w>
수 산부</w>
수 립</w>
베 리</w>
방 해</w>
마 토</w>
과 세</w>
▁플 로
▁측 근</w>
▁제안 서</w>
▁정 정</w>
▁울 산시</w>
▁연 안</w>
▁여 행자</w>
▁약 하</w>
▁안 개</w>
▁아 동
▁신 호
▁손 해
▁부 른</w>
▁밀 려
▁리 듬</w>
▁내 장</w>
▁권 유</w>
▁고려 인</w>
▁계엄 령</w>
▁9 8</w>
G B</w>
합 병</w>
풍 기</w>
포 장</w>
추 천</w>
체 전</w>
직 업</w>
의 안</w>
워 했</w>
사업 비</w>
망 대</w>
도 사</w>
▁행 안</w>
▁직 종</w>
▁우 선
▁연 쇄</w>
▁세 균</w>
▁빼 돌
▁부 상자</w>
▁바 빠
▁몰려 들</w>
▁리 버풀</w>
▁기 세</w>
▁경 품</w>
▁갯 벌</w>
해 제</w>
트 럭</w>
터 카</w>
최 저임금</w>
정 동</w>
심 판</w>
시켜 야</w>
볼 게요</w>
려 고요</w>
가 공</w>
▁홍영 표</w>
▁펼쳐 질</w>
▁취 임
▁잔 액</w>
▁자 막</w>
▁위 력</w>
▁원 조</w>
▁스 파
▁슈퍼 주니어</w>
▁복 지부</w>
▁배 부</w>
▁때 리</w>
▁동 반
▁당 당</w>
▁논 평</w>
▁9 2</w>
형 태</w>
테 스트</w>
원 자력</w>
슬 라</w>
세 상</w>
산 품</w>
빨 리</w>
부즈 만</w>
물 놀이</w>
몬 드</w>
맥 주</w>
리 밍</w>
리 나</w>
등 교육</w>
권 리</w>
▁확 확</w>
▁호 전</w>
▁향 했</w>
▁키 워드</w>
▁클 릭</w>
▁지휘 자</w>
▁전 승</w>
▁익 히</w>
▁욕 망</w>
▁수 법</w>
▁상 공</w>
▁빠져 나가</w>
▁메 시</w>
▁메 메</w>
▁될 까</w>
▁다가 왔</w>
▁네 이
▁개 학</w>
c e</w>
활 히</w>
현 수</w>
장 사</w>
시 공사</w>
수 막</w>
서 실</w>
민 간</w>
디 스크</w>
당 히</w>
단 의</w>
관 위</w>
계 인</w>
▁후 문</w>
▁착 륙</w>
▁제 반</w>
▁전라 북도</w>
▁일부 러</w>
▁의 향</w>
▁원 활히</w>
▁오 브</w>
▁연 정</w>
▁상 륙</w>
▁비 춰</w>
▁부적 합</w>
▁보 유자</w>
▁라 운드</w>
▁동 대문구</w>
▁당 기</w>
▁균 열</w>
▁공 동
▁걸 어서</w>
▁갓 갓</w>
▁S W</w>
▁1 1
C A</w>
중 계</w>
용 료</w>
습 기</w>
보호 관</w>
리 조트</w>
단 절</w>
니 아주</w>
국 수</w>
고 지</w>
▁회 관</w>
▁행 렬</w>
▁한 껏</w>
▁학 력</w>
▁참 모</w>
▁참 고인</w>
▁중 형</w>
▁정 차</w>
▁이산 화</w>
▁업 로드</w>
▁어 업</w>
▁아닌 가요</w>
▁신 년</w>
▁스테 이크</w>
▁순 차</w>
▁소 매</w>
▁바이 올
▁무더 기</w>
▁리 드</w>
▁로 드</w>
▁남양 주시</w>
▁격 리</w>
▁B TS</w>
▁A P</w>
8 000</w>
혈 관</w>
즈 니</w>
인 척</w>
음 악
어 날</w>
새 로운</w>
기 관장</w>
근 길</w>
구 심</w>
고 법</w>
▁학 학</w>
▁필 요시</w>
▁컨 벤션</w>
▁주 둔</w>
▁제작 사</w>
▁정 국</w>
▁손 꼽
▁세 종
▁설 탕</w>
▁되 게</w>
▁돌아 다니</w>
▁낙 후</w>
▁김 준
▁공 헌</w>
▁가져 왔</w>
▁7 8</w>
S K</w>
통신 망</w>
자 전거</w>
성 적</w>
공 직자</w>
▁황 금</w>
▁홍 준표</w>
▁포 도</w>
▁통 영</w>
▁친 근</w>
▁청 각</w>
▁자아 내</w>
▁옮 겼</w>
▁심 신</w>
▁스 틸</w>
▁손해 배상</w>
▁소 홀</w>
▁선거 제</w>
▁마 산</w>
▁감 싸</w>
플 랫</w>
품 종</w>
주 거</w>
으 셨
언 서</w>
베 스트</w>
리 브</w>
들 여</w>
니 엘</w>
검 찰</w>
감 치</w>
▁해양 수산부</w>
▁충청 남도</w>
▁장 인</w>
▁우 크
▁오스트 리아</w>
▁엿 볼</w>
▁사 냥</w>
▁부 담
▁못 지않</w>
▁멘 토링</w>
▁대 개</w>
▁골 드
▁가 격
젤 레스</w>
요 양</w>
왜 란</w>
맞 춤</w>
려 도</w>
등 록
남 대</w>
균 관</w>
국 민
▁흘 러</w>
▁하 드</w>
▁전문 의</w>
▁잎 잎</w>
▁의 구심</w>
▁워 너</w>
▁역 임</w>
▁여 럿</w>
▁십 자가</w>
▁발 라</w>
▁문 항</w>
▁몰 입</w>
▁농 담</w>
▁귀 찮</w>
▁고 속
▁고 부</w>
▁거 울</w>
▁개 수</w>
▁t vN</w>
201 4</w>
해 당</w>
캐피 탈</w>
차 피</w>
인 서</w>
이탈 주민</w>
으 론</w>
유 기</w>
우 진</w>
쓰 레기</w>
삭 스</w>
보 증금</w>
만 금</w>
렇 지만</w>
균 형발전</w>
공 고</w>
▁호 황</w>
▁토 끼</w>
▁초 안</w>
▁차 가운</w>
▁주 무</w>
▁종 업원</w>
▁점 령</w>
▁자 동
▁운 수</w>
▁수 직</w>
▁분 해</w>
▁볼 턴</w>
▁독 보</w>
▁더 블</w>
▁논 술</w>
▁넘 긴</w>
▁내 면</w>
▁남 미</w>
▁급 속</w>
▁구 별</w>
▁계 엄</w>
특 산물</w>
타 자</w>
찌 감치</w>
정 한</w>
이 해</w>
은 혜</w>
보 물</w>
모 씨</w>
독 립</w>
다 르</w>
고 리즘</w>
▁후 원금</w>
▁함 양</w>
▁한국 노총</w>
▁하 얀</w>
▁포트 폴리오</w>
▁토 종</w>
▁친 분</w>
▁청 정</w>
▁청 문</w>
▁창 설</w>
▁전 진</w>
▁적 시</w>
▁에 듀</w>
▁양 평</w>
▁압 류</w>
▁알 코올</w>
▁아파 서</w>
▁성 금</w>
▁생 소</w>
▁비빔 밥</w>
▁발 전
▁밀 려</w>
▁마 다</w>
▁뜻 깊</w>
▁도 장</w>
▁남 구</w>
▁겁 니까</w>
▁S t
▁8 7</w>
▁1 70</w>
1 000</w>
프 란시스코</w>
프 라
인 재</w>
연 패</w>
신 탁</w>
바 꿈</w>
무 관</w>
면 세점</w>
뇨 병</w>
기념 관</w>
▁하나 하나</w>
▁포르 투
▁트 리
▁중 개</w>
▁이뤄 져</w>
▁에 코</w>
▁아우 르</w>
▁숙 박
▁불 펜</w>
▁부 대
▁부 결</w>
▁변 상</w>
▁마 비</w>
▁기준 치</w>
▁기 관장</w>
▁그 렇지만</w>
▁8 3</w>
▁4 000</w>
M P</w>
희 정</w>
토 론
주 의자</w>
이 라도</w>
운동 장</w>
에 이터</w>
리 학</w>
리 치</w>
나이 티</w>
▁활동 가</w>
▁파 라
▁콘 크리트</w>
▁추 출</w>
▁중 남미</w>
▁제 사</w>
▁정 했</w>
▁전 락</w>
▁장 미</w>
▁자 질</w>
▁입장 권</w>
▁유기 농</w>
▁원 동력</w>
▁시 력</w>
▁슬로 건</w>
▁드 문</w>
▁대 학
▁달 할</w>
▁끌어올 리</w>
▁기 점</w>
▁귀 농</w>
▁가치 관</w>
▁E X
▁C h
▁9 4</w>
K T</w>
카 고</w>
중 지</w>
았 었</w>
스러 웠</w>
법 관</w>
맞 이</w>
댄 스</w>
대리 인</w>
결 연</w>
개 념</w>
▁학 살</w>
▁핀 핀</w>
▁탈 바꿈</w>
▁카 타르</w>
▁진 도</w>
▁연 장
▁설 교</w>
▁블랙 리스트</w>
▁만 듭니다</w>
▁리 뷰</w>
▁대 본</w>
▁고 온</w>
▁거 주지</w>
▁강 릉
▁N C</w>
V R</w>
플 레이
재 정법</w>
자치 단체</w>
임 용</w>
유 발</w>
반 장</w>
리 아
란 트</w>
도 로
다 지</w>
공 시</w>
▁페 이스</w>
▁톱 톱</w>
▁정 화</w>
▁온 몸</w>
▁쌓 인</w>
▁상 황실</w>
▁법 규</w>
▁발 족</w>
▁몰라 요</w>
▁노 화</w>
▁공 매도</w>
▁가라 앉</w>
▁가 꾸</w>
정 수</w>
영 사</w>
연구 회</w>
약 직</w>
아 무개</w>
모 니
릿 수</w>
고 속</w>
가 동</w>
▁하 우스</w>
▁태 블릿</w>
▁키 즈</w>
▁케 인</w>
▁지켜 야</w>
▁조현 우</w>
▁조 종
▁장 례</w>
▁잔 디</w>
▁일으 킬</w>
▁위 기
▁올라 와</w>
▁심 야</w>
▁선거 법</w>
▁박정 희</w>
▁라 벨</w>
▁대 관</w>
▁다 친</w>
▁내비 쳤</w>
▁내려 진</w>
▁김 학</w>
▁견 디</w>
▁건설 업</w>
▁1 2
i a</w>
출 자</w>
청 와대</w>
마 블</w>
라 지</w>
라 니</w>
데 도</w>
네 마</w>
▁찾아 와</w>
▁작 사</w>
▁임진 왜란</w>
▁엔지 니어</w>
▁상 속
▁미 뤄
▁만 일</w>
▁노래 방</w>
▁그래 픽</w>
▁구 미
▁교 단</w>
▁골 문</w>
▁게 다가</w>
▁감 옥</w>
▁가 죽</w>
▁가 마</w>
▁L H</w>
p p
at ion</w>
허 브</w>
자치 회</w>
워 킹</w>
운 다</w>
사회 단체</w>
사업 장</w>
민 주주의</w>
레이 크</w>
래 곤</w>
니 깐</w>
▁활 기</w>
▁해 역</w>
▁한 은</w>
▁트 래
▁재 즈</w>
▁잤 잤</w>
▁잘 라</w>
▁자연 환경</w>
▁이 주</w>
▁연 기력</w>
▁식 감</w>
▁스트 리밍</w>
▁생겨 나</w>
▁사 양</w>
▁부산 항</w>
▁발 산</w>
▁담 합</w>
▁다녀 오</w>
▁계 류</w>
▁거듭 나</w>
휴 직</w>
침 대</w>
증 명서</w>
일 치</w>
이 스트</w>
으 셨</w>
야 당</w>
스 케
상 장</w>
부 상</w>
기 저
교육 법</w>
교 체</w>
교 섭</w>
▁환 기</w>
▁한국 식</w>
▁포 지션</w>
▁주 거지</w>
▁졌 졌</w>
▁점 용</w>
▁전 두환</w>
▁일 찌감치</w>
▁이 젠</w>
▁이 득</w>
▁엄 중</w>
▁어 떠
▁실 기</w>
▁시 야</w>
▁세 로</w>
▁선보 여</w>
▁생 명
▁불 행</w>
▁미 용
▁멋 멋</w>
▁돌 풍</w>
▁다녀 온</w>
▁김 윤
▁기 장</w>
▁국 가
▁결 집</w>
▁거래 량</w>
▁개막 전</w>
▁IC O</w>
▁7 9</w>
3 000</w>
회 수</w>
징 계</w>
아 직</w>
식 간</w>
미 세먼지</w>
로 소</w>
렉 션</w>
드 려</w>
대 왕</w>
게 끔</w>
▁흥 분</w>
▁휴 가
▁폭 언</w>
▁펼쳐 진</w>
▁탄 압</w>
▁차 라리</w>
▁잠 들</w>
▁이승 우</w>
▁이 불</w>
▁연 합
▁얼 른</w>
▁실 리</w>
▁소 지
▁설 렘</w>
▁삽 입</w>
▁사 귀</w>
▁불 로</w>
▁본 문</w>
▁방 콕</w>
▁무 섭</w>
▁메 모</w>
▁레 벨</w>
▁됩 니까</w>
▁도 마</w>
▁대리 인</w>
▁단 체장</w>
▁늘 릴</w>
▁기 획사</w>
▁기 내식</w>
호 가</w>
현 안</w>
트 리스</w>
집 회</w>
시 안</w>
소 스</w>
성 명</w>
만 족</w>
▁환 환</w>
▁혼 인</w>
▁플레이 오프</w>
▁파 트</w>
▁콜롬 비아</w>
▁전 투기</w>
▁이재 민</w>
▁이 원
▁이 성</w>
▁유 공자</w>
▁운 임</w>
▁아 산</w>
▁신뢰 도</w>
▁신 비</w>
▁박 병
▁들 려</w>
▁노 란색</w>
▁공 룡</w>
▁강 타</w>
▁199 2</w>
7 000</w>
포 지엄</w>
전 용</w>
블 리</w>
부 자</w>
단 가</w>
간 제</w>
가 게</w>
▁현 명</w>
▁해 온</w>
▁터 치</w>
▁지 킬</w>
▁정 직</w>
▁자이 언
▁알 고리즘</w>
▁시 카고</w>
▁스 키</w>
▁선착 순</w>
▁샷 샷</w>
▁사 명</w>
▁몰 린</w>
▁로 스
▁동 등</w>
▁다 투</w>
▁노동 계</w>
▁노 란</w>
▁김 주
▁기 본법</w>
▁기 류</w>
▁고 취</w>
▁9 7</w>
i m
지 노</w>
지 널</w>
조 원</w>
래 스</w>
당 은</w>
다 양</w>
노 스</w>
결 산</w>
▁히어 로즈</w>
▁테 슬라</w>
▁줘 서</w>
▁자 매
▁외 관</w>
▁예술 인</w>
▁아닌 데</w>
▁신 상</w>
▁스 카이</w>
▁소 련</w>
▁성 관</w>
▁복 사</w>
▁보여 요</w>
▁명 예
▁만 점</w>
▁뒤 쪽</w>
▁도 왔</w>
▁달 렸</w>
▁남 학생</w>
▁날 리</w>
▁나 눠
▁꾸 며
▁각 계</w>
피 싱</w>
지 라도</w>
주 차</w>
인 간</w>
의 미</w>
악 산</w>
수 정</w>
상 력</w>
본 명</w>
배 치</w>
발 점</w>
대표 제</w>
대 화</w>
국 적</w>
강 의</w>
▁혼 잡</w>
▁해 리</w>
▁합 창단</w>
▁퇴 출</w>
▁태 어났</w>
▁칩 칩</w>
▁지 구
▁즉 석</w>
▁적 폐</w>
▁의 전</w>
▁유 전</w>
▁웨 딩</w>
▁아 웃</w>
▁샌 프란시스코</w>
▁사 상자</w>
▁머 무</w>
▁막 바지</w>
▁동두 천</w>
▁누리 꾼</w>
▁남 동생</w>
▁꼬 리</w>
▁김관 영</w>
▁가져 야</w>
▁U S
창 구</w>
차 이</w>
종 원</w>
져 요</w>
엔 자</w>
어 리</w>
양 대</w>
소 녀</w>
설 가</w>
보 급</w>
버 섯</w>
리카 락</w>
루 엔자</w>
년 사</w>
▁한 옥</w>
▁하 동</w>
▁핑 크</w>
▁포 장
▁탄 소</w>
▁체크 아웃</w>
▁지하 수</w>
▁절 대로</w>
▁장 학생</w>
▁이 라크</w>
▁연 탄</w>
▁양 도</w>
▁약 점</w>
▁실 려</w>
▁순 식간</w>
▁새 겨진</w>
▁머물 렀</w>
▁농 약</w>
▁김 형
▁군 부대</w>
▁국 고</w>
▁9 00</w>
▁198 8</w>
▁19 50</w>
▁& &</w>
O N</w>
지 청</w>
정 체</w>
에 어</w>
안 군</w>
서울 청사</w>
러 닝</w>
다 거나</w>
경 력</w>
감 사관</w>
▁후보 지</w>
▁활 짝</w>
▁혼 합</w>
▁햇 빛</w>
▁컨트 롤</w>
▁중 화</w>
▁줄 지</w>
▁전 문점</w>
▁장 애
▁수 송</w>
▁성 령</w>
▁불 상</w>
▁미 생물</w>
▁문 체</w>
▁무 상
▁마 스터</w>
▁동 전</w>
▁독립 운동가</w>
▁내세 운</w>
▁김대 중</w>
▁교 훈</w>
▁공 예</w>
▁경 총</w>
▁경 미</w>
▁거 둘</w>
P A</w>
폐 지</w>
주 교</w>
인 수</w>
인 물</w>
원 지</w>
여 도</w>
에 프</w>
소득 세</w>
뜨 린</w>
계 절</w>
▁학 점</w>
▁파 크</w>
▁텃 밭</w>
▁탐 구</w>
▁타 선</w>
▁정부 서울청사</w>
▁이 석
▁유 서</w>
▁우 아</w>
▁외 상</w>
▁염 원</w>
▁써 서</w>
▁실 무자</w>
▁수 련</w>
▁사 고
▁리 얼</w>
▁등 기</w>
▁독 창</w>
▁도 래</w>
▁내려 졌</w>
▁게 이트</w>
회 식</w>
패 스</w>
키 스</w>
총 생산</w>
운 지</w>
언 십</w>
레 드</w>
난 다는</w>
▁회 전</w>
▁화 보</w>
▁편 한</w>
▁퇴 진</w>
▁키 움</w>
▁이 식</w>
▁윌 리
▁약 관</w>
▁시흥 시</w>
▁소 각</w>
▁성 균관</w>
▁빈 소</w>
▁브 루
▁머 리카락</w>
▁마 찰</w>
▁들어 올</w>
▁끔 찍</w>
▁그래 야</w>
▁국 물</w>
▁거 동</w>
▁강경 화</w>
▁L NG</w>
L G</w>
품 안</w>
출 금</w>
와 이</w>
사 채</w>
분 별</w>
부 패</w>
모 비스</w>
▁장 거리</w>
▁이 대
▁열 대
▁엇갈 리</w>
▁신 년사</w>
▁수 도
▁설 레</w>
▁사령 관</w>
▁미 래
▁국 감</w>
▁교 감</w>
en t</w>
타 이어</w>
연 회</w>
선 위</w>
베 트남</w>
레 이트</w>
라 드</w>
동 의</w>
기저 기</w>
고 발</w>
각 서</w>
가 운데</w>
▁휠 체어</w>
▁한 겨레</w>
▁편 집
▁카 테
▁최 강</w>
▁지역 민</w>
▁장 난</w>
▁을 지로</w>
▁유 선</w>
▁운 송
▁안 착</w>
▁소 매
▁섹 시</w>
▁선 제
▁산 모</w>
▁뽐 내</w>
▁부 검</w>
▁무 궁
▁멜 로
▁멈 춰</w>
▁머 릿
▁라 이트</w>
▁느껴 진다</w>
▁내다 보</w>
▁내 걸</w>
▁그래 요</w>
▁고 난</w>
▁계 양구</w>
▁경 진</w>
▁결 선</w>
▁O LED</w>
▁20 25</w>
유 리</w>
섬 유</w>
상 화</w>
상 인</w>
고 루</w>
▁해 산물</w>
▁포 수</w>
▁퇴 사</w>
▁자 산
▁입 상</w>
▁예 민</w>
▁아 스
▁송 파</w>
▁성 취</w>
▁상 하이</w>
▁사 설</w>
▁부 시</w>
▁본 회</w>
▁배 워</w>
▁뭔 지</w>
▁목 표
▁맨 체스터</w>
▁맞 벌이</w>
▁맞 대결</w>
▁들 이</w>
▁두 루</w>
▁돌아 와</w>
▁대 원</w>
▁담 장</w>
▁꽂 꽂</w>
▁기 내</w>
▁국 한</w>
▁강 당</w>
▁간 절</w>
▁9 1</w>
u l
o t
제 국</w>
전 드</w>
영 진</w>
어 머니</w>
식 점</w>
숙 인</w>
소 음</w>
성 구</w>
브 리
믹 스</w>
권 위</w>
고 시</w>
감 찰</w>
▁항 일</w>
▁퍼 레이드</w>
▁패션 쇼</w>
▁파 란색</w>
▁타 이</w>
▁카 톡</w>
▁졸 업
▁전 한다</w>
▁재 산세</w>
▁장 성</w>
▁잡 혀</w>
▁입 체</w>
▁월 평균</w>
▁외 무성</w>
▁여 기저기</w>
▁시 트</w>
▁승 강
▁소 아</w>
▁새 만금</w>
▁맵 맵</w>
▁맛 보</w>
▁마 셨</w>
▁동물 보호</w>
▁구 가</w>
▁강 진</w>
u s
B K</w>
201 3</w>
타 이</w>
치 킨</w>
치 가</w>
창 호</w>
주 회사</w>
정 의</w>
유 형</w>
워 치</w>
옵 션</w>
세 서리</w>
락 사</w>
돗 물</w>
공 화국</w>
강 남
▁화물 차</w>
▁현 저히</w>
▁현 수막</w>
▁한 시</w>
▁픽 업</w>
▁크리 스티
▁전 주시</w>
▁잡 힌</w>
▁싱 크
▁박 탈</w>
▁모 여
▁마크 롱</w>
▁마 운드</w>
▁드 리
▁김부 선</w>
▁그려 진</w>
▁개 체</w>
o v
항 만</w>
종 이</w>
원 칙</w>
앤 젤레스</w>
니 까요</w>
난 민</w>
공 기업</w>
경 연</w>
▁프 라
▁탐 사</w>
▁직 결</w>
▁정 년</w>
▁전 해져</w>
▁장례 식장</w>
▁자아 낸다</w>
▁유 나이티</w>
▁완 성도</w>
▁어 차피</w>
▁성 형</w>
▁사 외</w>
▁사 소</w>
▁비 트</w>
▁막 상</w>
▁다 문화
▁급 변</w>
▁금 년</w>
▁군 민</w>
▁고 속도로</w>
▁견 학</w>
▁9 6</w>
연 령</w>
분 권</w>
보 유</w>
문 고</w>
매 수</w>
감 소</w>
▁프로 필</w>
▁표 지판</w>
▁총 무</w>
▁첩 보</w>
▁전 사</w>
▁자매 결연</w>
▁요 트</w>
▁요 약</w>
▁사회 주의</w>
▁비 닐
▁붓 붓</w>
▁밀어 붙
▁목 재</w>
▁레 저</w>
▁노 르
▁나아 갈</w>
▁꾸 려</w>
▁그 다지</w>
▁관 제</w>
▁관 문</w>
▁고 쳐</w>
▁고 기압</w>
it y</w>
c h
a r</w>
G V</w>
중 간</w>
신 기</w>
변 동</w>
립 자</w>
대 리</w>
노 삼성</w>
▁홍 수</w>
▁해 병대</w>
▁합 성</w>
▁학 교장</w>
▁털어 놓</w>
▁코 팅</w>
▁친 화</w>
▁짜 증</w>
▁직 급</w>
▁지 켰</w>
▁지 대</w>
▁제 압</w>
▁접 한</w>
▁장 자연</w>
▁여 겨
▁산 사태</w>
▁사무 소</w>
▁블라디 미르</w>
▁백 인</w>
▁박 찬
▁미 처</w>
▁대리 점</w>
▁단 정</w>
▁날카 로운</w>
▁김정 숙</w>
▁교 인</w>
▁공 분</w>
▁공 범</w>
▁가 야
화 상</w>
티 아</w>
칩 니다</w>
장 터</w>
부 여</w>
박 근혜</w>
라 우
대 국</w>
닐 라</w>
▁판 소리</w>
▁테 마파크</w>
▁탈 세</w>
▁책 무</w>
▁차이 점</w>
▁줄 곧</w>
▁이 길</w>
▁의 존도</w>
▁육 상</w>
▁영 문</w>
▁안 무</w>
▁수 반</w>
▁송 장</w>
▁소 고기</w>
▁방 제</w>
▁무 겁</w>
▁네 트</w>
▁국 왕</w>
▁골 목
▁개 조</w>
▁감 사관</w>
▁U U</w>
▁8 1</w>
S I</w>
화 통일</w>
했 으니</w>
재 욱</w>
약 사</w>
악 기</w>
닷 컴</w>
관 식</w>
공 예</w>
거 진</w>
▁휴 양
▁효 능</w>
▁파 기</w>
▁침 몰</w>
▁충 실</w>
▁집 무실</w>
▁자 외선</w>
▁유 승
▁승 격</w>
▁상 속</w>
▁사 우스</w>
▁북한 이탈주민</w>
▁부 담금</w>
▁미 비</w>
▁문 희
▁모 여서</w>
▁리 서치</w>
▁단 편</w>
▁김 미
▁기 미</w>
▁기 간제</w>
▁공 문</w>
▁골 고루</w>
▁10 1</w>
1 6
하 위</w>
타 리</w>
종 사자</w>
재 자</w>
식 지</w>
스타 인</w>
소 세</w>
사 국</w>
보 단</w>
법 상</w>
런 트</w>
독 립
▁휴 휴</w>
▁카테 고리</w>
▁주 총</w>
▁전 환
▁유 무</w>
▁열 연</w>
▁여 인</w>
▁압 수</w>
▁식 탁</w>
▁성 수기</w>
▁선거 구</w>
▁상 표</w>
▁살아 나</w>
▁북 상</w>
▁벽 면</w>
▁방 출</w>
▁반 송</w>
▁바닷 가</w>
▁뒷 면</w>
▁동 국</w>
▁도 매</w>
▁넘 나
▁낮 춰</w>
▁낭 독</w>
▁난 항</w>
▁공 사비</w>
▁개 헌</w>
▁감 탄</w>
▁가 평군</w>
a d
S R</w>
형 사</w>
한 류</w>
토론 회</w>
지 연</w>
중 단</w>
줄 게요</w>
이 후</w>
언 더</w>
보 건
란 스</w>
관리 본부</w>
▁하 단</w>
▁쿠 키</w>
▁지 르</w>
▁조 지</w>
▁조 속</w>
▁일 간지</w>
▁위 조</w>
▁영 상
▁쇄 신</w>
▁소 모</w>
▁서 비스업</w>
▁블 블</w>
▁벤 치</w>
▁밭 밭</w>
▁당 정</w>
▁당 뇨병</w>
▁기 침</w>
▁경비 원</w>
▁객 석</w>
▁간 소</w>
▁가 세</w>
▁M OU</w>
▁I oT</w>
R S</w>
중 기</w>
전 공</w>
이 사장</w>
위 해</w>
영 제</w>
연 락</w>
수 대</w>
민 회</w>
랜 트</w>
겨 운</w>
개 척</w>
▁평 가전</w>
▁클래 스</w>
▁정 계</w>
▁전 속</w>
▁원 로</w>
▁앞 쪽</w>
▁시 동</w>
▁블 루</w>
▁변 동성</w>
▁룸 룸</w>
▁내 지</w>
▁급 성장</w>
▁계 획
▁경쟁 자</w>
▁견 고</w>
▁C BS</w>
o s
S E
컨 대</w>
치 료
주 회</w>
절 기</w>
전 이</w>
입 원</w>
보 자</w>
보 기</w>
목 사</w>
대 인</w>
대 우</w>
내 년</w>
▁학 위</w>
▁트 랙</w>
▁자 궁</w>
▁이 관</w>
▁운전 기사</w>
▁오리 지널</w>
▁엠 엠</w>
▁설 날</w>
▁상 단</w>
▁산 다</w>
▁부 지사</w>
▁로 컬</w>
▁렌 터카</w>
▁디 즈니</w>
▁들어 섰</w>
▁두 께</w>
▁되 새
▁더 운</w>
▁느낀 다</w>
▁기념 일</w>
▁국 군
▁견 줘</w>
▁I n
▁199 1</w>
e l</w>
프로 젝트</w>
판 결</w>
컴 퍼니</w>
치 소</w>
진 료</w>
지 휘</w>
증 대</w>
저 축</w>
요 법</w>
식 사</w>
시 자</w>
스 퀘어</w>
성 동</w>
병 관리본부</w>
문화 유산</w>
메 이
니 다만</w>
는 군요</w>
곡 동</w>
▁할 까</w>
▁포 부</w>
▁취 직</w>
▁충 원</w>
▁집중 호우</w>
▁조 명
▁접 점</w>
▁전 시장</w>
▁적 대</w>
▁임차 인</w>
▁울 릉
▁엑 스포</w>
▁어 지
▁아이 스</w>
▁승 부
▁샌드 위치</w>
▁벽 화</w>
▁미 스
▁문 양</w>
▁르 노삼성</w>
▁레 이스</w>
▁다 름</w>
▁내 전</w>
▁김 은
▁구 실</w>
▁구 석
▁N H</w>
▁20 23</w>
험 장</w>
특 정</w>
창 동</w>
준 다고</w>
전 망</w>
유 증</w>
앨 범</w>
선 교</w>
리 얼</w>
래 프트</w>
▁후 퇴</w>
▁프랑 스
▁포르투 갈</w>
▁파 키스탄</w>
▁중 산</w>
▁제 로</w>
▁자 르</w>
▁일 명</w>
▁의 외</w>
▁움직 일</w>
▁연 습
▁앤 앤</w>
▁안 보리</w>
▁선제 골</w>
▁불 고기</w>
▁북한 산</w>
▁바 리
▁무 분별</w>
▁모 호</w>
▁떠 떠</w>
▁두 꺼
▁동 선</w>
▁댐 댐</w>
▁국 세</w>
▁광 복</w>
▁관 세청</w>
▁S M</w>
찌 개</w>
중 견</w>
조 약</w>
제 이</w>
쟁 이</w>
이 런</w>
우 리
어 선</w>
쇼 핑몰</w>
목 원</w>
러 블</w>
다 발</w>
기 법</w>
그 동안</w>
겹 살</w>
▁현대 모비스</w>
▁필 기</w>
▁차 분</w>
▁진 한</w>
▁주 먹</w>
▁주 머니</w>
▁재 건</w>
▁연 예</w>
▁쓰러 져</w>
▁술 집</w>
▁수 돗물</w>
▁수 고</w>
▁밀 리</w>
▁떠오 른</w>
▁동 서</w>
▁넘어 선</w>
▁남 해안</w>
▁김명 수</w>
4 000</w>
품 목</w>
일 리지</w>
원 사</w>
실 무</w>
식 업</w>
소 지</w>
성 향</w>
럼 에도</w>
난 히</w>
깁 니다</w>
▁해 커</w>
▁팁 팁</w>
▁퇴 임</w>
▁타 워</w>
▁카 르
▁출 현</w>
▁전 한</w>
▁전 동</w>
▁액 체</w>
▁쓰 레
▁수 교</w>
▁소 품</w>
▁설 사</w>
▁문 명</w>
▁무서 운</w>
▁레 드
▁독립 성</w>
▁당 첨
▁농 지</w>
▁내 정</w>
▁구 속
▁과 거사</w>
▁강 성
▁가져 다주</w>
▁가정 폭력</w>
특 성</w>
존 심</w>
정 화</w>
음 식점</w>
수 소</w>
상 도</w>
돼 요</w>
강 남</w>
▁황 제</w>
▁특 례
▁토 마토</w>
▁측 은</w>
▁조 상</w>
▁인 기
▁익 익</w>
▁연예 계</w>
▁세 입자</w>
▁무 형문화재</w>
▁멜 멜</w>
▁돌려 받</w>
▁그 루</w>
▁고 품질</w>
▁경 질</w>
▁견 적서</w>
파 인</w>
연 진</w>
신 고자</w>
시 도</w>
사 전</w>
사 용료</w>
득 력</w>
▁피 력</w>
▁텍 사스</w>
▁첼 시</w>
▁지지 부진</w>
▁어 쨌
▁스 코
▁생 체</w>
▁상 반</w>
▁사업 가</w>
▁비례 대표제</w>
▁불 씨</w>
▁방사 선</w>
▁멋 지</w>
▁드 라이브</w>
▁납 세</w>
▁기 억
▁극 히</w>
▁국 립
▁교육 비</w>
▁고 종</w>
▁T F</w>
해 외</w>
트 로
어 치</w>
상 현실</w>
비 서</w>
바 르</w>
명 소</w>
레 일</w>
도 르</w>
더 리</w>
느 리</w>
나 왔</w>
기 독교</w>
근 무자</w>
고 령</w>
거 장</w>
▁합 창</w>
▁한 자</w>
▁플레이 어</w>
▁파 스타</w>
▁통 치</w>
▁테 헤
▁주 택
▁정 순
▁정 동
▁저 마다</w>
▁자 존심</w>
▁온 전히</w>
▁오 너</w>
▁얹 얹</w>
▁어린 아이</w>
▁순 회</w>
▁소 화기</w>
▁사 본</w>
▁부 디</w>
▁벼 벼</w>
▁법 인
▁노 숙인</w>
▁광 복
▁건 국</w>
▁198 7</w>
F TA</w>
합 시다</w>
폭 풍</w>
차 트</w>
오 롱</w>
보 미</w>
병 증</w>
료 수</w>
길 래</w>
급 적</w>
교 환</w>
▁향 토</w>
▁풍 요</w>
▁키 스</w>
▁친 숙</w>
▁집 착</w>
▁진 료비</w>
▁장 수</w>
▁인 계</w>
▁유 지
▁온 종일</w>
▁에 버
▁비 로소</w>
▁봐 서</w>
▁미 끄러
▁면 밀히</w>
▁데이 비드</w>
▁납 득</w>
▁나 빠</w>
▁기 밀</w>
▁국군 기무사</w>
e d
a g
한 다며</w>
크 스</w>
브 리드</w>
리 산</w>
로 선</w>
내 륙</w>
기 아차</w>
국 립</w>
▁조 직
▁정 자</w>
▁음 료수</w>
▁욕 욕</w>
▁오 산</w>
▁영 원</w>
▁역 세</w>
▁업 무상</w>
▁양 사</w>
▁아 래
▁심 폐</w>
▁신 도</w>
▁셔 츠</w>
▁설 득력</w>
▁사 막</w>
▁사 리</w>
▁방 위</w>
▁박 유
▁대 화
▁경제 성장</w>
▁8 9</w>
201 2</w>
폭 탄</w>
컨 벤션</w>
처 치</w>
창 고</w>
졌 으나</w>
연 기</w>
아 카데미</w>
아 보</w>
시 킨
시 공</w>
소 생</w>
부 세</w>
둔 화</w>
기 적으로</w>
▁휘 말
▁통 행
▁케 미</w>
▁치러 진</w>
▁진 정한</w>
▁조 성
▁육 지</w>
▁육 육</w>
▁안 희정</w>
▁생겨 서</w>
▁새 우</w>
▁부 풀
▁부 통령</w>
▁리 포트</w>
▁논 논</w>
▁남한 산성</w>
▁꺼 리</w>
▁김 밥</w>
▁굵 굵</w>
▁간 섭</w>
▁U AE</w>
▁3 65</w>
▁198 9</w>
P I</w>
플라 자</w>
지 자체</w>
정 차</w>
이 제</w>
온 도</w>
무 법인</w>
리 금</w>
로 이</w>
겨 서</w>
개 최</w>
감 리</w>
▁휴가 철</w>
▁표 적</w>
▁판 타
▁태 평양</w>
▁캠 캠</w>
▁질 병관리본부</w>
▁지 반</w>
▁주 스</w>
▁전 도</w>
▁유 혹</w>
▁유 세</w>
▁우 승자</w>
▁요 리사</w>
▁요 가</w>
▁왕 세자</w>
▁쓰 인</w>
▁식 생활</w>
▁슈퍼 마켓</w>
▁셋 셋</w>
▁사 단</w>
▁문희 상</w>
▁못 합니다</w>
▁못 한다는</w>
▁멜로 디</w>
▁만 연</w>
▁도 저히</w>
▁달려 가</w>
▁다가 온</w>
▁늘어 난다</w>
▁납 기</w>
▁궤 도</w>
▁교 도소</w>
A N</w>
파 수</w>
캐 슬</w>
책 로</w>
진 호</w>
일 부</w>
인 자</w>
연 수원</w>
사 이버</w>
비 엔날레</w>
문 자</w>
리 대</w>
령 부</w>
개 서</w>
▁획 기적으로</w>
▁화 산</w>
▁호 우</w>
▁품 위</w>
▁폰 폰</w>
▁테 니스</w>
▁치 렀</w>
▁취임 식</w>
▁취 했</w>
▁챙 긴</w>
▁증거 인</w>
▁증 여</w>
▁유 명
▁원 한다면</w>
▁옹 호</w>
▁액 세서리</w>
▁암 시</w>
▁아 일랜드</w>
▁아 랍</w>
▁심 정</w>
▁시 공사</w>
▁수 신</w>
▁상 무부</w>
▁살펴 볼</w>
▁민간 인</w>
▁레이 더</w>
▁당 뇨</w>
▁김 도
▁국민 은행</w>
▁고 농</w>
▁계 산
▁검 경</w>
▁걸 립니다</w>
▁가 산</w>
W SJ</w>
혜 진</w>
재 지</w>
설 턴트</w>
력 체</w>
란 물</w>
▁현 행법</w>
▁플 러스</w>
▁참 관</w>
▁주 저</w>
▁제 이
▁정 성
▁이 지
▁외 화</w>
▁심 혈</w>
▁수 술
▁상 여금</w>
▁사 거리</w>
▁불 발</w>
▁부탁 드려요</w>
▁부 하</w>
▁별 명</w>
▁범 죄자</w>
▁로 그인</w>
▁뒤 집
▁동 호회</w>
▁그려 졌</w>
▁그 릴</w>
▁개 소식</w>
▁가 령</w>
▁故 故</w>
i t</w>
헬 기</w>
자 이</w>
아 산</w>
시 내</w>
설 사</w>
미 투</w>
루 수</w>
동 시</w>
내 셔널</w>
▁한 화
▁표 방</w>
▁특 보</w>
▁키 웠</w>
▁큽 니다</w>
▁충 실히</w>
▁첨 예</w>
▁졸업 식</w>
▁재 킷</w>
▁작 물</w>
▁자 란</w>
▁입 술</w>
▁유 재
▁웨 이
▁원 상</w>
▁언 덕</w>
▁순 찰</w>
▁서 술</w>
▁불 허</w>
▁보 습</w>
▁다문화 가정</w>
▁농 성</w>
▁내 밀</w>
▁골드 만</w>
i c</w>
P M</w>
호 수</w>
파 티</w>
터 베이스</w>
장 단</w>
암 동</w>
선 생</w>
리 더</w>
도 어</w>
▁행 행</w>
▁학 회</w>
▁통 산</w>
▁청 중</w>
▁착 안</w>
▁즐거 웠</w>
▁중 위</w>
▁육 체</w>
▁원 안</w>
▁어 둠</w>
▁시 가</w>
▁스튜 어드</w>
▁쇼 트
▁소 동</w>
▁생 전</w>
▁사 물놀이</w>
▁부 응</w>
▁벤 벤</w>
▁박 주
▁미용 실</w>
▁동 탄</w>
▁닛 산</w>
▁나 비</w>
▁꾸 꾸</w>
▁기 업가</w>
▁기 쁩니다</w>
▁급 속히</w>
▁근 황</w>
프 라인</w>
팡 이</w>
치 기</w>
불 편</w>
분 배</w>
더 불</w>
▁황 금
▁항 암</w>
▁합 계</w>
▁하 와이</w>
▁터 뜨리</w>
▁커 피
▁카 지노</w>
▁침 착</w>
▁칠 레</w>
▁출 연진</w>
▁지나 친</w>
▁지 우</w>
▁제 지</w>
▁절 정</w>
▁이 룬다</w>
▁의료 비</w>
▁윤 곽</w>
▁유 진</w>
▁원 룸</w>
▁심 문</w>
▁스피 드</w>
▁소 프트</w>
▁생각 나</w>
▁색 채</w>
▁벨 트</w>
▁모 레</w>
▁로스 앤젤레스</w>
▁디 테일</w>
▁되 풀이</w>
▁독 재</w>
▁내려 놓</w>
▁김용 균</w>
▁김 포시</w>
▁김 원
▁근 무자</w>
▁국제 기구</w>
▁격 렬</w>
▁가져 온</w>
▁Q R</w>
en t
하 드</w>
카 스</w>
일 시</w>
일 까요</w>
워 즈</w>
연 준</w>
시 지가</w>
서 로</w>
리스 마</w>
교 인</w>
강 령</w>
▁트 레이드</w>
▁톡 톡
▁터 뜨렸</w>
▁시간 표</w>
▁시간 대</w>
▁수 락</w>
▁세 기</w>
▁석 탑</w>
▁새 겨져</w>
▁사 자</w>
▁사 교육</w>
▁방 화</w>
▁방 면</w>
▁발 렌
▁막 강</w>
▁듭 니다</w>
▁덴 마크</w>
▁끌 려
▁공 소</w>
▁고 소장</w>
호 판</w>
시 금</w>
수 령</w>
센 스</w>
생 회</w>
벌 레</w>
뮤 직</w>
무 일</w>
린 지</w>
리 시</w>
뜩 이나</w>
담 사</w>
구 호</w>
갈 비</w>
가 단</w>
▁편 익</w>
▁팔 레
▁크리 에이터</w>
▁장애 물</w>
▁잔 뜩</w>
▁유 대</w>
▁어쨌 든</w>
▁실 점</w>
▁시험 지</w>
▁스 파</w>
▁생활 비</w>
▁비 닐</w>
▁방 대</w>
▁밝 힐</w>
▁모 기</w>
▁맡 겨</w>
▁맞 대</w>
▁만 끽</w>
▁마 두</w>
▁록 록</w>
▁나 온
▁가 산
▁가 급적</w>
▁C GV</w>
▁9 3</w>
희 대</w>
항 서</w>
프 라이
입 찰</w>
일 가</w>
아 일랜드</w>
소시 효</w>
상 황실</w>
동 자</w>
도 서</w>
대 변인</w>
대 가</w>
교 조</w>
가 을</w>
▁휩싸 였</w>
▁호 흡기</w>
▁해 운</w>
▁한 발</w>
▁톡톡 히</w>
▁초 계기</w>
▁천 재</w>
▁즐 겼</w>
▁조 약</w>
▁이 럴</w>
▁완 완</w>
▁예 비
▁수 지</w>
▁수 익금</w>
▁수 동</w>
▁석 면</w>
▁불 복</w>
▁북 방</w>
▁부 끄러
▁물 의</w>
▁무상 급식</w>
▁몰 라서</w>
▁모 순</w>
▁매 트리스</w>
▁마 포</w>
▁마 술</w>
▁레 전드</w>
▁돌려 주</w>
▁도 요
▁데 이</w>
▁넓 혀</w>
▁고 심</w>
or e
i f
i d
Y T</w>
S C</w>
원 자</w>
신 경</w>
성 당</w>
상 블</w>
부 회장</w>
민 턴</w>
러 브</w>
드 민턴</w>
▁한국 학</w>
▁페 르
▁파 운
▁탱 크</w>
▁자연 재해</w>
▁잊 어
▁이 미
▁오 로지</w>
▁열 망</w>
▁수출 입</w>
▁세 출</w>
▁부 엌</w>
▁복 도</w>
▁보 직</w>
▁방 증</w>
▁방 중</w>
▁동성 애</w>
▁노동 부</w>
▁넘 겨졌</w>
▁남 짓</w>
▁교 내</w>
▁개인 전</w>
▁가 려</w>
진 우</w>
직 금</w>
준 다는</w>
워 져</w>
별 히</w>
발 표회</w>
러 스트</w>
▁페 미
▁파 산</w>
▁체 인</w>
▁진 행자</w>
▁증 명서</w>
▁조선 업</w>
▁정순 균</w>
▁어우러 지</w>
▁약 해</w>
▁알 렉
▁쓰레 기
▁신 자</w>
▁신 생</w>
▁사령 탑</w>
▁베 이스</w>
▁바 보</w>
▁메 가</w>
▁도 비</w>
▁대 국민</w>
▁눈 여
▁나 선
▁김현 미</w>
▁교통 수단</w>
▁과 언</w>
▁고 시원</w>
▁계 파</w>
▁경 합</w>
▁감 소세</w>
▁간 절히</w>
▁각 별히</w>
▁가 처분</w>
회 가</w>
커 머스</w>
진 행</w>
젠 테이션</w>
제 철</w>
정 은</w>
입 장</w>
아 티아</w>
실 습</w>
성 폭력</w>
선 전</w>
서 양</w>
산 림</w>
분 위</w>
분 명</w>
보 라</w>
모 바일</w>
리 원</w>
로 리</w>
력 서</w>
너 먼트</w>
관 제</w>
▁화 두</w>
▁화 답</w>
▁특별 회계</w>
▁차 액</w>
▁줄 기</w>
▁조 현</w>
▁절 망</w>
▁장 래</w>
▁원 피스</w>
▁워 터</w>
▁울 려</w>
▁온 다</w>
▁오 리</w>
▁영 동</w>
▁열대 야</w>
▁엘 리트</w>
▁산 책로</w>
▁뿌 듯</w>
▁방 위
▁반 출</w>
▁냉 전</w>
▁끝 났</w>
▁급 속도</w>
▁근 근</w>
▁강릉 시</w>
▁D NA</w>
태 죄</w>
이 야말로</w>
업 주</w>
수 사대</w>
수 동</w>
브 스</w>
무 게</w>
단 기</w>
단 과</w>
기 념</w>
글 라스</w>
강 좌</w>
▁후 반기</w>
▁하 드
▁타 율</w>
▁추 이</w>
▁초 상화</w>
▁중간 고사</w>
▁조종 사</w>
▁조 종</w>
▁유 소년</w>
▁역 점</w>
▁심 경</w>
▁시 켰</w>
▁소 정</w>
▁세 율</w>
▁벤 치
▁배 석</w>
▁박 경
▁매 개</w>
▁드 라이
▁당 권</w>
▁긴 급
▁군 데</w>
▁곤 곤</w>
▁가 뜩이나</w>
▁V IP</w>
▁C D</w>
S D</w>
O A</w>
L O</w>
점 유</w>
재 청</w>
의 력</w>
어 붙</w>
야 겠
스러 움</w>
무 용</w>
마 루</w>
능 기부</w>
게 이트</w>
▁풀 려
▁투 여</w>
▁킹 킹</w>
▁카 리스마</w>
▁중 년</w>
▁조 사단</w>
▁자 생</w>
▁유 적지</w>
▁안타까 움</w>
▁신 학</w>
▁삼 겹살</w>
▁뺀 뺀</w>
▁빗 물</w>
▁보 안
▁반 사</w>
▁물 려
▁무 용
▁멸 종</w>
▁대 응
▁높 인</w>
▁김성 수</w>
▁김 세
▁그 럼에도</w>
▁구 해</w>
▁공 작</w>
▁공 소시효</w>
▁골목 길</w>
▁고 율</w>
▁건 국
▁가 옥</w>
▁G TX</w>
H O</w>
증 시</w>
신 대</w>
반 부</w>
모 스</w>
랭 킹</w>
구 이</w>
공 대</w>
▁횡 단</w>
▁현대 인</w>
▁파 열</w>
▁탈 모</w>
▁콜 라</w>
▁코 오롱</w>
▁최상 위</w>
▁조 경</w>
▁재 연</w>
▁잔 치</w>
▁임종 헌</w>
▁일회 용</w>
▁외 투</w>
▁오 일</w>
▁오 른다</w>
▁예 시</w>
▁여객 기</w>
▁시 립</w>
▁서 브</w>
▁보 잉</w>
▁발 표회</w>
▁반 가
▁바 나
▁몸 싸움</w>
▁모 터</w>
▁납 니다</w>
▁계 계</w>
▁감 량</w>
▁가 습기</w>
E A</w>
A P</w>
오 피스</w>
수 련</w>
명 자</w>
명 예</w>
마 이</w>
남 동</w>
글 스</w>
고 래</w>
▁회 상</w>
▁폐 원</w>
▁탐 색</w>
▁청 도군</w>
▁참 신</w>
▁진 천</w>
▁정 립</w>
▁적 절히</w>
▁임시 회</w>
▁잃어 버린</w>
▁인 증서</w>
▁유 학생</w>
▁원 심</w>
▁용 지</w>
▁연 고</w>
▁어 필</w>
▁양 대</w>
▁알 린</w>
▁안 락사</w>
▁승 려</w>
▁손 혜원</w>
▁소방 차</w>
▁살아 갈</w>
▁모 욕</w>
▁넷 마블</w>
▁꾸 미</w>
▁구미 시</w>
▁공산 당</w>
▁갑작 스럽</w>
▁갇 혀</w>
▁간 단히</w>
a y
G DP</w>
퍼 드</w>
트 럴</w>
쿼 터</w>
출 장</w>
차 이나</w>
을 게요</w>
원 생</w>
소 기</w>
말 고사</w>
로 라</w>
내 기</w>
남 기</w>
국 토</w>
관리 위원회</w>
▁호 르몬</w>
▁파 고
▁찼 찼</w>
▁징 후</w>
▁지 부장</w>
▁조 문</w>
▁온 열</w>
▁연 어</w>
▁숨 겨진</w>
▁세워 진</w>
▁사무 국</w>
▁빈 도</w>
▁분 주</w>
▁발 사체</w>
▁반 지</w>
▁미 스</w>
▁능 동</w>
▁남 원</w>
▁김 홍
▁기 호</w>
▁건 넸</w>
▁가 만히</w>
▁10 5</w>
I oT</w>
한 가</w>
페 어</w>
팩 트</w>
찾 아가</w>
착 륙</w>
양 이</w>
시 가</w>
수 역</w>
불 법</w>
도 전</w>
▁후 쿠
▁후 유증</w>
▁호 랑이</w>
▁한 숨</w>
▁피 로
▁포 진</w>
▁초 보</w>
▁차 주</w>
▁전 임자</w>
▁적 법</w>
▁잡 아
▁이 점</w>
▁은 행
▁유 휴</w>
▁요 구
▁왕 자</w>
▁온 천</w>
▁연 천군</w>
▁압 축</w>
▁심 층</w>
▁시험 장</w>
▁시 가
▁수입 품</w>
▁법인 세</w>
▁배 틀</w>
▁명 할</w>
▁면 세</w>
▁독 감</w>
▁달 해</w>
▁달 걀</w>
▁낯 설</w>
▁김태 우</w>
▁긴 밀히</w>
▁관리 비</w>
▁고 소득</w>
태 용</w>
재판 관</w>
인 다는</w>
음 파</w>
사 이드</w>
맥 스</w>
립 지</w>
디 스</w>
는 지요</w>
나 미</w>
권 역</w>
▁휴 게</w>
▁합 합</w>
▁함 성</w>
▁하 부</w>
▁프린 트</w>
▁토 너먼트</w>
▁제 때</w>
▁이 면</w>
▁얼 어붙</w>
▁숙 련</w>
▁소 파</w>
▁사 진
▁빨 대</w>
▁벗 어난</w>
▁벌 일</w>
▁배 고
▁모 험</w>
▁동 남</w>
▁농 악</w>
▁넘 어지</w>
▁김 치
▁경제 학</w>
▁경 주시</w>
▁강 국</w>
▁6 000</w>
▁2 40</w>
C C
행 진</w>
행 업체</w>
치 유</w>
측 정</w>
적 자</w>
이 나마</w>
원 서</w>
연 습</w>
연 계</w>
버 넌
버넌 스</w>
만 들</w>
리 닉</w>
레 인지</w>
동 포</w>
갈 지</w>
▁화 사</w>
▁캘리포 니아주</w>
▁출 원</w>
▁추 방</w>
▁체 질</w>
▁체 온</w>
▁정 신
▁전 월</w>
▁재 능기부</w>
▁위기 감</w>
▁씨 앗</w>
▁심 포지엄</w>
▁신경 전</w>
▁스프 링</w>
▁수 용
▁소방 청</w>
▁서 강
▁샌드 박스</w>
▁산 입</w>
▁비 추</w>
▁부담 감</w>
▁발 암</w>
▁반 등</w>
▁무 사</w>
▁매 티스</w>
▁맞 붙</w>
▁던 져</w>
▁다 름
▁기다 릴</w>
▁구 강</w>
▁계 약금</w>
▁199 3</w>
▁19 19</w>
T he</w>
청 기</w>
인 돌</w>
울 산</w>
선 도</w>
미 늄</w>
모 습</w>
더 러</w>
당 사자</w>
긍 심</w>
급 금</w>
구 제</w>
고 양이</w>
▁황 사</w>
▁한 중</w>
▁특 허
▁특 감</w>
▁통신 망</w>
▁테헤 란</w>
▁충 무
▁주 일</w>
▁제 네
▁정 해져</w>
▁접 시</w>
▁저 쪽</w>
▁재판 관</w>
▁자치 회</w>
▁은 산</w>
▁오 세
▁아 웃
▁아 님</w>
▁심 석희</w>
▁수 백만</w>
▁소 설가</w>
▁세탁 기</w>
▁성 질</w>
▁변 했</w>
▁롱 롱</w>
▁뒤 편</w>
▁단 풍</w>
▁다 변</w>
▁농 부</w>
▁낙 찰</w>
▁기 득</w>
▁귀 엽</w>
▁개 표</w>
중 구</w>
전 트</w>
이 동</w>
순 간</w>
수 시</w>
서 점</w>
부 도</w>
발 굴</w>
미 안</w>
대 주주</w>
걸 로</w>
건 부</w>
▁흐 리</w>
▁회 복
▁춥 춥</w>
▁최 대
▁총 격</w>
▁주 상</w>
▁장 기
▁자 긍심</w>
▁입 안</w>
▁임 차</w>
▁유 은혜</w>
▁용 품</w>
▁오프 닝</w>
▁영 주</w>
▁악 순환</w>
▁아 프
▁시가 총액</w>
▁슈 슈</w>
▁선 원</w>
▁선 발
▁섞 인</w>
▁빼 앗
▁빌 린</w>
▁비 누</w>
▁법 무법인</w>
▁방 통</w>
▁만 취</w>
▁마 디</w>
▁동 래</w>
▁김 제</w>
▁그림 자</w>
▁경 치</w>
▁간 호</w>
▁가 상현실</w>
▁가 문</w>
임 대
어 민</w>
아 나</w>
신 청자</w>
수 용</w>
선 택</w>
비 핵화</w>
보건 소</w>
바이 러스</w>
리바 바</w>
렀 다</w>
동 네</w>
담 장</w>
기 존</w>
국 악</w>
거 점</w>
▁합 시다</w>
▁하이 브리드</w>
▁펜 스</w>
▁판 례</w>
▁코 딩</w>
▁컬 렉션</w>
▁치 닫</w>
▁이 력서</w>
▁어울 려</w>
▁양 주시</w>
▁썩 썩</w>
▁스 님</w>
▁숯 숯</w>
▁수 억</w>
▁쇼트 트랙</w>
▁센 센</w>
▁세 밀</w>
▁섞 여</w>
▁서 포터</w>
▁삼성 그룹</w>
▁비상 근무</w>
▁봄 철</w>
▁변 환</w>
▁데이 터베이스</w>
▁담 판</w>
▁농 업
▁넘 쳐
▁남아 공</w>
▁기 지
▁구급 차</w>
▁D J</w>
허 증</w>
행 물</w>
커 녕</w>
존 자</w>
모 니</w>
루 미늄</w>
균 제</w>
▁한 방</w>
▁퍼 졌</w>
▁특 활</w>
▁트로 피</w>
▁투 구</w>
▁토 기</w>
▁체납 자</w>
▁청 결</w>
▁전 광
▁일으 켜</w>
▁이 인
▁음 란물</w>
▁예술 단</w>
▁실 린</w>
▁신 종</w>
▁식 별</w>
▁사 촌</w>
▁비 해서</w>
▁분 임</w>
▁복 직</w>
▁보 스턴</w>
▁보 살
▁박유 천</w>
▁박 항서</w>
▁망 설
▁마이 크로
▁딱 딱</w>
▁딜 딜</w>
▁들려 주</w>
▁노 벨</w>
I N
프 랑
특 수</w>
진 화</w>
조 류</w>
정 관</w>
절 염</w>
저 가</w>
자 랑</w>
육 아</w>
여 객</w>
수 탁자</w>
세 계
바 이스</w>
마 킹</w>
대 강</w>
노 트</w>
구 획</w>
▁흔 한</w>
▁황 희</w>
▁학 사</w>
▁하드 웨어</w>
▁폐 수</w>
▁태 안</w>
▁추 모
▁올라 갔</w>
▁안드 로이드</w>
▁소 유주</w>
▁서 원</w>
▁뽐 냈</w>
▁브 브</w>
▁본 연</w>
▁못 해요</w>
▁모른 다는</w>
▁머릿 속</w>
▁맡 길</w>
▁담 당관</w>
▁냉 동</w>
▁그 칠</w>
▁고 래</w>
▁가 미</w>
▁O ECD</w>
▁3 60</w>
F P</w>
트 리
토 르</w>
쿠 버</w>
청 탁</w>
엑 스포</w>
신 수</w>
수 요자</w>
상 업</w>
상 국</w>
브 라
기 분</w>
경 궁</w>
▁훈 련
▁홍 대</w>
▁패 스트
▁천 국</w>
▁직 영</w>
▁직 거래</w>
▁지켜 볼</w>
▁주 파수</w>
▁조 장</w>
▁제 약사</w>
▁잇따 른</w>
▁워 워</w>
▁오 키
▁엮 엮</w>
▁승 마</w>
▁선 풍기</w>
▁마 니아</w>
▁롯데 마트</w>
▁도 난</w>
▁덥 덥</w>
▁다 시금</w>
▁노동 력</w>
▁내세 워</w>
▁깨 지</w>
▁김 한
▁기 무</w>
▁그 럴
▁구 자
▁관 서</w>
▁계 급</w>
▁거 머
l e
A D</w>
재 배</w>
예술 단</w>
심 장</w>
실 업</w>
석 유</w>
상 시</w>
베 이션</w>
방 역</w>
미 화원</w>
모 레</w>
러 화</w>
돼 왔</w>
당 과</w>
노 베이션</w>
급 액</w>
공 무</w>
▁활 주로</w>
▁파 란</w>
▁지 주</w>
▁주 당</w>
▁자연 스레</w>
▁인 격</w>
▁의 견서</w>
▁유 엔
▁원 금</w>
▁여 왕</w>
▁안 철수</w>
▁스 펙</w>
▁수 호</w>
▁속 옷</w>
▁성장 률</w>
▁블랙 박스</w>
▁박 준
▁박 재
▁맞춰 서</w>
▁마 블</w>
▁레 시피</w>
▁들어 선다</w>
▁단 거리</w>
▁극 도</w>
▁국 책</w>
▁강 자</w>
M I</w>
향 후</w>
통 화
였 음
스토 크</w>
스 카이</w>
소 위</w>
세 법</w>
삼 성
비 밀</w>
로 봇</w>
도 구</w>
네 스</w>
날 수록</w>
▁폭 발
▁주택 가</w>
▁제 의</w>
▁정 재
▁전 보</w>
▁전 달
▁장 하성</w>
▁자이언 츠</w>
▁외 벽</w>
▁옴 부즈만</w>
▁영 농</w>
▁양 형</w>
▁스 승</w>
▁소 홀
▁부 속</w>
▁부 설</w>
▁보 물</w>
▁벤치 마킹</w>
▁바꿔 야</w>
▁무너 진</w>
▁느 리</w>
▁남 대문</w>
▁구 독</w>
▁공 학</w>
▁개 각</w>
▁가파 른</w>
▁가로 막</w>
t er
l o
a b
폰 서</w>
통 령
제 한
외 부</w>
숭 아</w>
드 마크</w>
대 식</w>
니 어링</w>
농 촌</w>
나 온</w>
구 축</w>
▁해 치</w>
▁한 양</w>
▁크로 아티아</w>
▁퀸 퀸</w>
▁지 낼</w>
▁제작 자</w>
▁장 로</w>
▁유 산
▁위 헌</w>
▁외 래</w>
▁에버 랜드</w>
▁알 리바바</w>
▁아쉬 웠</w>
▁아리 랑</w>
▁세 액</w>
▁서울 역</w>
▁서 두르</w>
▁사 육</w>
▁보 답</w>
▁배 관</w>
▁무너 져</w>
▁떨어 진다는</w>
▁대 내외</w>
▁김 순
▁기뻐 하</w>
▁그 친</w>
▁구 립</w>
▁광역 버스</w>
▁과 반</w>
▁거 창</w>
▁개 의</w>
▁간 장</w>
▁가야 금</w>
▁가 진다</w>
F A
현 금</w>
험 실</w>
킵 니다</w>
창 군</w>
제 표</w>
전 제품</w>
신 부</w>
소 개서</w>
설 립</w>
살 인</w>
배 송</w>
경제 자유구역</w>
간 다고</w>
▁합 치</w>
▁폭 포</w>
▁트 리</w>
▁튀 어
▁치료 법</w>
▁처 했</w>
▁존 속</w>
▁이 윤</w>
▁외 주</w>
▁엄 정</w>
▁애 국
▁스포 츠
▁수 건</w>
▁부딪 히</w>
▁벤 츠</w>
▁미 모</w>
▁멘 멘</w>
▁만 지</w>
▁마 법</w>
▁동 맹
▁닭 고기</w>
▁다 각</w>
▁꾸 리</w>
▁기 말고사</w>
▁교 차로</w>
▁교 량</w>
▁골 드</w>
저 씨</w>
자 국</w>
위 안</w>
수 집</w>
수 장</w>
소 설</w>
선 희</w>
로 웠</w>
그 림</w>
결 혼</w>
개 미</w>
▁한 다며</w>
▁풍 력</w>
▁진 통</w>
▁재 외</w>
▁장 담</w>
▁입장 료</w>
▁이순 신</w>
▁이 광
▁이 경
▁우 연</w>
▁안 양시</w>
▁안 겨</w>
▁수료 생</w>
▁손꼽 히</w>
▁성 함</w>
▁샌 더스</w>
▁사 표</w>
▁빗 빗</w>
▁반 짝
▁문 신</w>
▁무너 졌</w>
▁르 노</w>
▁뜨거 웠</w>
▁등록 금</w>
▁돌 렸</w>
▁꼴 꼴</w>
▁김수 현</w>
▁급 히</w>
▁고 사</w>
▁건축 가</w>
9 000</w>
' ,</w>
헬 스</w>
진 군</w>
지 환</w>
조 항</w>
제한 구역</w>
이 니</w>
예 배</w>
복 궁</w>
보 스토크</w>
독 일</w>
구 석</w>
거 스</w>
▁화 력</w>
▁헤 드</w>
▁하이 라이트</w>
▁텐 트</w>
▁지 경</w>
▁줄 게</w>
▁전 념</w>
▁자본 주의</w>
▁이 끌
▁유 상</w>
▁완 벽
▁식 단</w>
▁슬 픈</w>
▁스토 어</w>
▁쇄 도</w>
▁소홀 히</w>
▁선 장</w>
▁사라 질</w>
▁부 수</w>
▁봉 쇄</w>
▁머 스크</w>
▁마 신</w>
▁내 리
▁군 중</w>
▁구 워</w>
▁검 은색</w>
▁갈 색</w>
▁G DP</w>
D B</w>
통화 기금</w>
장 품</w>
의 체</w>
유 물</w>
운 트</w>
시 픽</w>
상 선</w>
망 이</w>
료 전지</w>
로 울</w>
려 상</w>
랜 서</w>
랑 카</w>
람 선</w>
농 도</w>
금 지법</w>
고 히</w>
▁후 폭풍</w>
▁허 리
▁해 안
▁한 지</w>
▁필 로
▁퇴 직금</w>
▁출입 구</w>
▁최 영
▁중앙 아시아</w>
▁제 척</w>
▁제 주시</w>
▁접 전</w>
▁잠 수
▁잃어 버렸</w>
▁일 곱</w>
▁음 향</w>
▁올라 갈</w>
▁연 주자</w>
▁신 촌</w>
▁수 표</w>
▁수 목</w>
▁사라 져</w>
▁사 범</w>
▁분 비</w>
▁부대 시설</w>
▁뵙 뵙</w>
▁베 일</w>
▁배 기
▁물 꼬</w>
▁모 의
▁로맨 틱</w>
▁러 시아
▁노 숙</w>
▁고 인돌</w>
▁경 부
1 4
타 인</w>
축구 연맹</w>
착 오</w>
지 영</w>
재 활</w>
자 동</w>
이 날</w>
왼 쪽</w>
오 리</w>
실 명</w>
상 호</w>
불 명</w>
롯 데</w>
때 로</w>
▁흡 입</w>
▁행정 관</w>
▁행 적</w>
▁플 랜</w>
▁테 이프</w>
▁케 빈</w>
▁침 략</w>
▁치 밀</w>
▁챔피 언십</w>
▁중 상</w>
▁전 일</w>
▁자 처</w>
▁입 자</w>
▁윤 석
▁외교 관</w>
▁왕 성</w>
▁옮 겨졌</w>
▁예 컨대</w>
▁연 달</w>
▁어 촌</w>
▁습 도</w>
▁스 리
▁수 순</w>
▁새 삼</w>
▁사 면</w>
▁북 적
▁베 이</w>
▁벌어 질</w>
▁방위 비</w>
▁문화 재청</w>
▁몸 무게</w>
▁때 려</w>
▁둥 지</w>
▁당 면</w>
▁달 러화</w>
▁높 인다</w>
▁노르 웨이</w>
▁공 업</w>
▁고 층</w>
▁건 넨</w>
▁O ST</w>
V D</w>
L A</w>
A S</w>
학 술</w>
태 세</w>
타 점</w>
증 자</w>
제 시</w>
제 거</w>
저 녁</w>
이 치</w>
위 생
업 진</w>
신 자</w>
신 다고</w>
수 욕장</w>
소 비
사 립</w>
부 정</w>
마 르</w>
료 실</w>
드 래곤</w>
다 툼</w>
▁포 스</w>
▁판 결
▁틀 림
▁커 져</w>
▁주 의보</w>
▁전 용기</w>
▁외 형</w>
▁어 찌</w>
▁안전 성</w>
▁신 태용</w>
▁스 킨</w>
▁스 미스</w>
▁소 포</w>
▁셀 프</w>
▁상 세히</w>
▁사 당</w>
▁비 유</w>
▁벌 인다</w>
▁민 족
▁맞 췄</w>
▁랜 드마크</w>
▁담 아
▁달 래</w>
▁군 사
▁고구 려</w>
▁고 공</w>
▁경 희대</w>
▁개 회식</w>
i on
E B</w>
피 니
트 라</w>
충 전</w>
출 동</w>
차 선</w>
차 림</w>
조 대</w>
어 질</w>
안 심</w>
아 몬드</w>
스 튜
산 리</w>
반 전</w>
문 지</w>
돋 움</w>
는 데도</w>
김 치</w>
강 제</w>
각 각</w>
▁학 급</w>
▁풍 미</w>
▁터 진</w>
▁주 소지</w>
▁입 단</w>
▁일 삼</w>
▁일 몰</w>
▁유니 버
▁오 갔</w>
▁실 렸</w>
▁손 잡이</w>
▁소 재지</w>
▁상 담
▁백 업</w>
▁바빠 서</w>
▁로 켓</w>
▁또 래</w>
▁둘러 싸
▁독 일
▁대 상지</w>
▁김일 성</w>
▁기 쁜</w>
▁겸 직</w>
▁결 의안</w>
▁걸 린다</w>
▁거 칠</w>
▁감 액</w>
▁2 20</w>
I MF</w>
해 라</w>
클 라
칠 지</w>
적 표</w>
재 철</w>
자 산
영 관</w>
신 속</w>
상 작</w>
드 름</w>
데 타</w>
더 라고</w>
단 법인</w>
고 심</w>
격 탄</w>
㎡ )</w>
▁홈 플러스</w>
▁혼 선</w>
▁해 내</w>
▁하 수</w>
▁페이 팔</w>
▁페널티 킥
▁터 졌</w>
▁충청 북도</w>
▁출입 문</w>
▁차 림</w>
▁직 격탄</w>
▁조 식</w>
▁인 위</w>
▁이 준
▁엉 덩이</w>
▁야 구장</w>
▁심 도</w>
▁상 근</w>
▁배 움</w>
▁미스 터리</w>
▁뜯 뜯</w>
▁대 통령
▁까다 롭</w>
▁검 정</w>
P EC</w>
1 7
합 물</w>
합 동</w>
차 기</w>
중 소</w>
장 년층</w>
입 법</w>
오 미</w>
세 금</w>
부 평구</w>
난 도</w>
권 한</w>
관 심</w>
▁프린 터</w>
▁포 천시</w>
▁파 행</w>
▁트리 플</w>
▁태 아</w>
▁질 타</w>
▁지 성</w>
▁증 축</w>
▁좁 히</w>
▁조 형물</w>
▁점 진</w>
▁일 터</w>
▁요 하</w>
▁왼 발</w>
▁옥 수수</w>
▁연습 생</w>
▁연 맹</w>
▁엉 뚱</w>
▁어긋 나</w>
▁실 종자</w>
▁시 식</w>
▁시 니어</w>
▁수 출액</w>
▁손 목</w>
▁서 적</w>
▁생 리</w>
▁빈 자리</w>
▁부 지
▁본 점</w>
▁보 이
▁베 스트
▁발 돋움</w>
▁바나 나</w>
▁바 란
▁뮌 헨</w>
▁목 욕</w>
▁모 텔</w>
▁떨어 진다</w>
▁대 검찰청</w>
▁다 쳐</w>
▁농 축</w>
▁날 려</w>
▁나 아지</w>
▁건설 업자</w>
▁강 소</w>
▁갈아 타</w>
▁L PG</w>
M O</w>
환 기</w>
형 외과</w>
표 소</w>
파 리</w>
큘 럼</w>
천 동</w>
적 용</w>
인 범</w>
양 육</w>
신 라</w>
슬 러</w>
수 금</w>
블 록</w>
반 원</w>
리 큘럼</w>
료 품</w>
렸 으며</w>
남 방</w>
국 외</w>
과 이</w>
▁환경 미화원</w>
▁호 출</w>
▁필 두</w>
▁플래 시</w>
▁투 병</w>
▁초 월</w>
▁초 빙</w>
▁줄 게요</w>
▁제 자리</w>
▁전 작</w>
▁자본 금</w>
▁연 면적</w>
▁애 도</w>
▁시 뮬
▁사 칭</w>
▁사 계절</w>
▁보 청기</w>
▁밤 새</w>
▁물 놀이</w>
▁무 거
▁몰 두</w>
▁동 문</w>
▁니 니</w>
▁내 사</w>
▁고 른</w>
▁결 정
▁개 교</w>
▁각 도</w>
L B</w>
1 3
파 워</w>
커 뮤니
지 훈</w>
주 인공</w>
장 군</w>
의 로</w>
은 희</w>
예 비</w>
승 부</w>
사 제</w>
반 고</w>
민 군</w>
몰 이</w>
뜨 려</w>
당 신</w>
났 으며</w>
건 전</w>
가 증권</w>
▁회복 세</w>
▁홍 보물</w>
▁피아 니스트</w>
▁코 믹</w>
▁최 후</w>
▁초 록
▁청 계
▁진 다</w>
▁주 심</w>
▁제작 비</w>
▁재무 회계</w>
▁쓰러 진</w>
▁실 상</w>
▁수 천만</w>
▁수 중</w>
▁수 만</w>
▁비 만</w>
▁부 쩍</w>
▁백 두산</w>
▁반대 편</w>
▁모 발</w>
▁들어 야</w>
▁드 나
▁동 아</w>
▁단 골</w>
▁끼 칠</w>
▁관 통</w>
▁고구 마</w>
▁7 000</w>
회 의장</w>
혈 증</w>
프 린
트 릭</w>
책 위</w>
증 지</w>
주 변</w>
졸 중</w>
정 액</w>
재판 부</w>
임 금법</w>
익 범</w>
올 지</w>
어 냈</w>
암 제</w>
상 사</w>
사 찰</w>
▁힐 힐</w>
▁휩싸 인</w>
▁하루 하루</w>
▁폭 풍</w>
▁특 구</w>
▁타 석</w>
▁추 신수</w>
▁총 파업</w>
▁주 범</w>
▁져 야</w>
▁제안 자</w>
▁정 오</w>
▁이 겼</w>
▁예 치</w>
▁연 꽃</w>
▁아동 학</w>
▁스테 이지</w>
▁살 린</w>
▁비 석</w>
▁블 로
▁붙 였</w>
▁부 천시</w>
▁받아들 였</w>
▁민 자</w>
▁모 의</w>
▁마음 대로</w>
▁라 는</w>
▁따 돌
▁두드러 지</w>
▁대 담</w>
▁놓 였</w>
▁기울 여</w>
▁공 석</w>
▁경 복궁</w>
▁각 인</w>
▁가 혹</w>
iv e</w>
h a
화 가</w>
플 랜</w>
지 컬</w>
이 미지</w>
우 회</w>
예 품</w>
언 문</w>
야 드</w>
안전 망</w>
선 발</w>
사업 단</w>
사 역</w>
봐 요</w>
도 인</w>
더 라면</w>
대 요</w>
꾸 로</w>
▁황 당</w>
▁허 익범</w>
▁퓨 전</w>
▁판타 지</w>
▁캔 캔</w>
▁충 전기</w>
▁출 근길</w>
▁직 업
▁즈 음</w>
▁정 장</w>
▁전 가</w>
▁임 상
▁이승 만</w>
▁이 해도</w>
▁원 자재</w>
▁요 지</w>
▁식 구</w>
▁순 천시</w>
▁수입 금</w>
▁수 해</w>
▁서귀 포시</w>
▁서 훈</w>
▁상 부</w>
▁산업 은행</w>
▁브 레이크</w>
▁분 장</w>
▁부 서
▁베스트 셀러</w>
▁배 추</w>
▁메이 커</w>
▁망 명</w>
▁마 일리지</w>
▁라이 벌</w>
▁라 고</w>
▁동맹 국</w>
▁동 창
▁동 경</w>
▁다 뤄
▁다 국적</w>
▁누 출</w>
▁긴 축</w>
▁귀 환</w>
▁건너 편</w>
▁t he</w>
▁A BC</w>
표 율</w>
튿 날</w>
특 화</w>
충 돌</w>
출 원</w>
출 물</w>
철 학</w>
진 진</w>
지 시</w>
자 사</w>
인 하</w>
습 지</w>
소 영</w>
보 고회</w>
방 면</w>
민 호</w>
물 원</w>
메 이트</w>
닥 터</w>
니 얼</w>
국 해</w>
관광 객</w>
▁회 생</w>
▁호 감</w>
▁헤 어지</w>
▁헤 드
▁파 울루</w>
▁참 패</w>
▁중 진</w>
▁종 영</w>
▁조 망</w>
▁이 튿날</w>
▁의 대</w>
▁영상 물</w>
▁안 겼</w>
▁수 평</w>
▁상 상력</w>
▁방사 능</w>
▁박 모</w>
▁미 니
▁멀 티
▁매 치</w>
▁두 터
▁대 용량</w>
▁다름 없</w>
▁노 예</w>
▁노 골</w>
▁난 동</w>
▁나 뭇
▁기 해</w>
▁국제 통화기금</w>
▁구 했</w>
▁구 하라</w>
▁개 량</w>
▁강원 도지사</w>
▁간 혹</w>
▁B BC</w>
▁2 30</w>
> (</w>
홍 색</w>
헌 법</w>
파 울루</w>
통 사</w>
테 스</w>
작 자</w>
운 수</w>
연 승</w>
언 어</w>
안 내</w>
실 은</w>
산 역</w>
사 료</w>
법 화</w>
반 응</w>
등록 증</w>
드 라</w>
구 름</w>
감 시</w>
▁흘 렸</w>
▁화 분</w>
▁혈 압</w>
▁합 병증</w>
▁투 신</w>
▁태 운</w>
▁쿠 쿠</w>
▁천 주교</w>
▁채 웠</w>
▁증권 가</w>
▁좌 파</w>
▁종 자</w>
▁전달 식</w>
▁전 할</w>
▁잇따 랐</w>
▁이 대로</w>
▁에 서</w>
▁억 압</w>
▁양 파</w>
▁시 차</w>
▁스 쿨</w>
▁선 관위</w>
▁서 초</w>
▁생 존자</w>
▁빌 릴</w>
▁브로 커</w>
▁붙 인</w>
▁불 렸</w>
▁보 태</w>
▁변 호</w>
▁변 함</w>
▁버 디</w>
▁밴 밴</w>
▁배 드민턴</w>
▁발 맞
▁무 혐</w>
▁매 수
▁돌 이
▁다 스</w>
▁그 대</w>
▁광 경</w>
▁고 의로</w>
▁고 비</w>
▁강 수량</w>
▁가로 수</w>
V P</w>
U AE</w>
O ECD</w>
프 리
패 드</w>
좌 석</w>
유 업</w>
영 사관</w>
슈 퍼</w>
셔 리</w>
상 대</w>
리 가</w>
도 회</w>
난 방</w>
그 라운드</w>
관 절</w>
경 지</w>
각 심</w>
▁필 라
▁프리 랜서</w>
▁평 면</w>
▁페 이</w>
▁쿠 바</w>
▁치 마</w>
▁출입 국</w>
▁처 하</w>
▁중 소형</w>
▁정 유</w>
▁임종 석</w>
▁올 스타</w>
▁야 경</w>
▁알아 볼</w>
▁승 자</w>
▁순 이익</w>
▁속 해</w>
▁소 량</w>
▁션 션</w>
▁상 수도</w>
▁빨 래</w>
▁분 담금</w>
▁부 평</w>
▁방 범</w>
▁모여 들</w>
▁메 리</w>
▁맥 도
▁대화 방</w>
▁단 연</w>
▁까다 로운</w>
▁귀 중</w>
▁가리 키</w>
▁가 전제품</w>
▁4 50</w>
티 노</w>
지 속</w>
정 산</w>
은 편</w>
손 해</w>
봅 시다</w>
메 리카</w>
렴 도</w>
덱 스</w>
날 드</w>
교 부</w>
검 장</w>
▁흘 렀</w>
▁큰 일</w>
▁커 리큘럼</w>
▁찍 힌</w>
▁지켜 봐야</w>
▁중 고
▁조선 인</w>
▁인 디</w>
▁이태 원</w>
▁이뤄지 면</w>
▁이뤄지 도록</w>
▁유 흥
▁위 배</w>
▁옮 긴</w>
▁열 사</w>
▁엑 소</w>
▁어 휘</w>
▁실리 콘</w>
▁신 재
▁수 협</w>
▁수 리
▁센 트럴</w>
▁서 리</w>
▁산 단</w>
▁복 리</w>
▁번 식</w>
▁박 진
▁뭔 가요</w>
▁몰 카</w>
▁목 걸이</w>
▁맞 은편</w>
▁만 전</w>
▁막 말</w>
▁딱 히</w>
▁됨 됨</w>
▁궁 중</w>
▁구 독자</w>
▁괴롭 힘</w>
▁광 저우</w>
▁광 양</w>
▁경 청</w>
▁거 꾸로</w>
▁가 을
▁W W</w>
S F</w>
히 트</w>
혀 서</w>
한 도</w>
특 허</w>
콜 라</w>
추 장</w>
처 음</w>
절 약</w>
은 행장</w>
으 라고</w>
왔 으며</w>
예 선</w>
세 서</w>
불 안</w>
부 인과</w>
방 어</w>
방 암</w>
들 였</w>
남 준</w>
광역 시장</w>
고 가</w>
강남 스타일</w>
▁행정 소송</w>
▁테 크노</w>
▁타이 밍</w>
▁퀄 컴</w>
▁지 주회사</w>
▁준 다고</w>
▁종 부</w>
▁전 용
▁전 량</w>
▁전 교조</w>
▁유 수</w>
▁유 람선</w>
▁스 며
▁수 영
▁소 변</w>
▁섭 외</w>
▁부 여
▁반 감</w>
▁미 주</w>
▁모의 고사</w>
▁모 빌리티</w>
▁망 언</w>
▁릴 레이</w>
▁렌 렌</w>
▁듯 이</w>
▁돋보 였</w>
▁녹 색
▁김부 겸</w>
▁기념 관</w>
▁근 원</w>
▁균 등</w>
▁구 장</w>
▁광 산</w>
▁겹 쳐</w>
▁겁 겁</w>
▁1 200</w>
L S</w>
FI FA</w>
활 약</w>
화 도</w>
진 술</w>
정 우</w>
잔 치</w>
이 야기</w>
예 약</w>
어 내</w>
소 원</w>
상 품권</w>
상 생</w>
민 자</w>
림 동</w>
달 청</w>
달 장</w>
나 간</w>
기 후</w>
고 편</w>
▁회 색</w>
▁학 자금</w>
▁플로 리
▁폐 암</w>
▁틀 린</w>
▁탐 탐</w>
▁탈 당</w>
▁코 끼리</w>
▁친 선</w>
▁잔 여</w>
▁작 업자</w>
▁자 선</w>
▁인 권위</w>
▁이 은
▁유 교</w>
▁연 소</w>
▁어딘 가</w>
▁스리 랑카</w>
▁성 적표</w>
▁불 분명</w>
▁불 기소</w>
▁부 터</w>
▁박 해
▁밀 도</w>
▁물 체</w>
▁무 지
▁모아 진다</w>
▁망 가
▁마이크로 닷</w>
▁늙 늙</w>
▁꿇 꿇</w>
▁꾀 하</w>
▁기 차
▁국 도</w>
▁관 례</w>
▁공 평</w>
▁고 발
▁경 각심</w>
▁강 했</w>
▁J Y
▁198 6</w>
a v
T R
피 고인</w>
포 동</w>
클 러스터</w>
체 결</w>
질 병</w>
지 지</w>
존 중</w>
아 니</w>
소 매
박 사</w>
려 져</w>
된 다며</w>
는 구나</w>
교 과</w>
고 등</w>
건 축
▁합 당</w>
▁피 부
▁트레이 닝</w>
▁취 취</w>
▁초 음파</w>
▁창 의력</w>
▁진 에어</w>
▁줄 였</w>
▁주 니어</w>
▁전 화기</w>
▁전 범</w>
▁적 잖</w>
▁자 릿수</w>
▁인 선</w>
▁음악 가</w>
▁유 난히</w>
▁우 측</w>
▁어 쩌</w>
▁야 심</w>
▁싫 어
▁실 크</w>
▁스타 일
▁수 자원</w>
▁송영 무</w>
▁보호 구역</w>
▁법 학</w>
▁배 급</w>
▁민 원실</w>
▁머물 러</w>
▁맞 이해</w>
▁떨어 뜨리</w>
▁대 란</w>
▁기 용</w>
▁극 동</w>
▁관 전</w>
▁관 악</w>
▁곤 두
▁경영 계</w>
▁강 정호</w>
▁가 루</w>
S W</w>
N A
D F</w>
진 로</w>
직 무</w>
입 국</w>
인 석</w>
원 수</w>
블 루</w>
바 겐</w>
렉 터</w>
될 수록</w>
대 수</w>
농 성</w>
넘 기</w>
남 자</w>
기록 부</w>
금 회</w>
군 인</w>
광 역</w>
계 정</w>
가 액</w>
▁회 계사</w>
▁화 석</w>
▁헌 장</w>
▁챙 겼</w>
▁중 개
▁조 롱</w>
▁전 성기</w>
▁저지 르</w>
▁자 존</w>
▁인 적</w>
▁이강 인</w>
▁은 메달</w>
▁워 크</w>
▁역 학</w>
▁식 습관</w>
▁성 찰</w>
▁선 방</w>
▁샘 샘</w>
▁색 감</w>
▁사이 클</w>
▁빼 놓</w>
▁부 시장</w>
▁보 내
▁벽 돌</w>
▁베 어스</w>
▁버 린</w>
▁발 동</w>
▁박병 호</w>
▁바이올 린</w>
▁무 색</w>
▁묘 묘</w>
▁모자 라</w>
▁마 닐라</w>
▁라 스
▁동 메달</w>
▁돋보 인다</w>
▁노 사정</w>
▁낙 태죄</w>
▁김학 범</w>
▁공 급자</w>
▁겸 손</w>
▁개발 제한구역</w>
▁가격 대</w>
▁D B</w>
E R
촉 장</w>
주 문</w>
조 형물</w>
정 학</w>
자 회</w>
인 조</w>
이 민</w>
원 역</w>
아 서요</w>
스테 이트</w>
스 센터</w>
보 름</w>
문 장</w>
▁홍 콩
▁형 량</w>
▁파 생</w>
▁태 극</w>
▁켈 리</w>
▁칼 럼</w>
▁체 체</w>
▁중 국
▁주 시</w>
▁전 입</w>
▁전 라도</w>
▁재무 제표</w>
▁이승 현</w>
▁응급 처치</w>
▁위 쪽</w>
▁웃 돌</w>
▁연 합회</w>
▁야 산</w>
▁알 맞</w>
▁안 주</w>
▁수십 억</w>
▁성 동</w>
▁생 긴
▁불 출
▁별 장</w>
▁반 경</w>
▁목 동</w>
▁말 리</w>
▁때 때로</w>
▁등 극</w>
▁득 표</w>
▁더 한다</w>
▁대 진</w>
▁닷 새</w>
▁다이 아몬드</w>
▁다 른
▁뇌 졸중</w>
▁깃 발</w>
▁김동 원</w>
▁국 수</w>
▁공 언</w>
▁고 추</w>
o m</w>
n d</w>
플 란트</w>
트 인</w>
통 지서</w>
일 기</w>
용 사</w>
수 렴</w>
서 쪽</w>
묘 지</w>
매 우</w>
라 산</w>
도 우미</w>
다 리기</w>
국 사</w>
게 임즈</w>
▁훔 친</w>
▁화 랑</w>
▁한국 전력</w>
▁팬 덤</w>
▁투 자
▁컷 컷</w>
▁컨 설턴트</w>
▁치 수</w>
▁축 구
▁추 돌</w>
▁종 양</w>
▁제 일
▁절 제</w>
▁작 업
▁유 가증권</w>
▁원 치</w>
▁원 서</w>
▁오키 나와</w>
▁업 주</w>
▁신 예</w>
▁슬 프</w>
▁스 킨
▁손 자</w>
▁설 립자</w>
▁선 율</w>
▁부 도</w>
▁배 당
▁무 작
▁동 요</w>
▁독 성</w>
▁대 검</w>
▁넘어 설</w>
▁내 준</w>
▁김정 일</w>
▁그린 벨트</w>
▁교 양</w>
▁광 명
▁공 영주</w>
▁고 작</w>
▁갈 음</w>
▁i n</w>
▁8 000</w>
펠 라</w>
콘 밸리</w>
줄 기</w>
적 정</w>
인 지
운 전자</w>
와 요</w>
아 리
불 리</w>
메 뉴</w>
막 이</w>
마 련</w>
리 라는</w>
라 이나</w>
때 문</w>
날 지</w>
기록 물</w>
공 서</w>
▁필 필</w>
▁팔 렸</w>
▁티 브이</w>
▁특 급</w>
▁취 업
▁쳐 쳐</w>
▁첨 가</w>
▁창 업주</w>
▁주 휴</w>
▁종 식</w>
▁전 대</w>
▁장 현수</w>
▁장 영
▁원 주민</w>
▁와 야</w>
▁예 고편</w>
▁역 습</w>
▁여 고생</w>
▁양 현
▁심 심</w>
▁슬 라이
▁스 티브</w>
▁소 나기</w>
▁선 인장</w>
▁반 가운</w>
▁묶 여</w>
▁맞 닿</w>
▁루 이스</w>
▁동 방
▁는 는</w>
▁놓 쳤</w>
▁내 줬</w>
▁날 인</w>
▁김상 조</w>
▁곡 선</w>
▁객 관
▁강 제
▁가 점</w>
▁N H
▁19 45</w>
a p
O T</w>
해 군</w>
학 력</w>
페 테
친 다는</w>
축 산물</w>
진 제</w>
준 다면</w>
주 식회사</w>
조 회</w>
승 환</w>
솔 루션</w>
방 송
립 생활</w>
로 로</w>
나 라
결 식</w>
▁히 로
▁휴 전</w>
▁헌 혈</w>
▁행 방</w>
▁포 화</w>
▁팝 업</w>
▁충 성</w>
▁초록 색</w>
▁진 해</w>
▁진 리</w>
▁제 설</w>
▁절 박</w>
▁전 향</w>
▁이어 받</w>
▁의료 관광</w>
▁의 해서</w>
▁위 함</w>
▁용 돈</w>
▁외 쳤</w>
▁왜냐 면</w>
▁어 떤
▁애 널
▁아 팠</w>
▁실 사</w>
▁소 실</w>
▁세 븐</w>
▁복 숭아</w>
▁배 수</w>
▁발 제</w>
▁바닷 물</w>
▁물 놀</w>
▁메르 켈</w>
▁막 힌</w>
▁마 인드</w>
▁도 립</w>
▁대 나무</w>
▁늦 추</w>
▁극 한</w>
▁군 부</w>
▁구 금</w>
▁공 안</w>
▁건국 대</w>
▁거 제</w>
▁P O</w>
▁G P</w>
N YT</w>
F ed</w>
E FA</w>
험 학습</w>
특 히</w>
투 리</w>
질 문</w>
조 서</w>
오 프라인</w>
북 미</w>
부 동
보 사</w>
베 르
다 는데</w>
너 십</w>
국 지</w>
관 념</w>
▁희 망
▁향 유</w>
▁햇 살</w>
▁하 강</w>
▁팔레 스타인</w>
▁파 인</w>
▁특 집</w>
▁추 궁</w>
▁주 입</w>
▁제 명</w>
▁이 철
▁오 름
▁영 아</w>
▁여 수시</w>
▁여 성
▁앵 커</w>
▁실 수요자</w>
▁실 버</w>
▁스트 레
▁속 여</w>
▁소방 대원</w>
▁소 견</w>
▁성 지</w>
▁선 조</w>
▁살아 온</w>
▁뽑 혔</w>
▁불 쾌</w>
▁볶 볶</w>
▁변 해</w>
▁배 구</w>
▁방 류</w>
▁박 보
▁모 방</w>
▁명 함</w>
▁만 두</w>
▁롯데 월드</w>
▁동 지</w>
▁동 양
▁돌 발</w>
▁당첨 자</w>
▁나 와야</w>
▁교 도</w>
▁가 디언</w>
▁C on
C K</w>
호 성</w>
포 식</w>
편 식</w>
파 견</w>
지 스</w>
조 세</w>
정 류장</w>
장 애인</w>
이 미</w>
예 정일</w>
영 민</w>
엔 진</w>
성 공</w>
사 드</w>
빙 빙</w>
비 큐</w>
비 중</w>
비 상</w>
발 명</w>
바 퀴</w>
무 가</w>
면 제</w>
로 프</w>
낸 셜</w>
금 껏</w>
과 금</w>
골 목</w>
곡 리</w>
거 돈</w>
▁휩 쓸</w>
▁홍 남기</w>
▁한 양대</w>
▁풍 선</w>
▁특허 청</w>
▁특 기</w>
▁취 득세</w>
▁출 혈</w>
▁직 진</w>
▁지 폐</w>
▁지 주사</w>
▁재 수사</w>
▁이어 폰</w>
▁윤 종
▁유 보</w>
▁원 만</w>
▁완벽 히</w>
▁온 다고</w>
▁오른 발</w>
▁영양 소</w>
▁역 전
▁애 틋</w>
▁아 저씨</w>
▁스페 이스</w>
▁소 신</w>
▁섬 기</w>
▁선 량</w>
▁빚 어지</w>
▁배 양</w>
▁방 산</w>
▁반 하</w>
▁맞 출</w>
▁드러 난다</w>
▁두려 워</w>
▁다 듬</w>
▁날 렸</w>
▁끊임 없</w>
▁굴 뚝</w>
▁국제 축구연맹</w>
▁광고 주</w>
▁거 버넌스</w>
▁갖춰 져</w>
▁198 5</w>
D MZ</w>
A IST</w>
프랑 스</w>
청 문</w>
참 가</w>
져 스</w>
일 즈</w>
여 비</w>
엄 마</w>
어 티</w>
십 자사</w>
심 지</w>
비 시</w>
분 경</w>
복 음</w>
벤 져스</w>
그 것</w>
교 직원</w>
가 서</w>
가 드</w>
▁희 망자</w>
▁환 산</w>
▁홍콩 인</w>
▁해 피</w>
▁포 트</w>
▁판결 문</w>
▁트 레
▁콘 콘</w>
▁코 리안</w>
▁카운 터</w>
▁카 라</w>
▁체 내</w>
▁청 자</w>
▁천 둥</w>
▁종 합
▁조 건부</w>
▁정 품</w>
▁재 검토</w>
▁인 해서</w>
▁인 영</w>
▁울릉 도</w>
▁연 기자</w>
▁여 겼</w>
▁에이 전트</w>
▁에 드
▁얽 힌</w>
▁애 완</w>
▁시 제품</w>
▁비 관</w>
▁부 흥</w>
▁부 가
▁백 종원</w>
▁무 마</w>
▁마 냥</w>
▁뛸 뛸</w>
▁드 린</w>
▁데려 다</w>
▁데 일리</w>
▁대 지</w>
▁다 산</w>
▁내 건</w>
▁날 아가</w>
▁김진 태</w>
▁그려 져</w>
▁광역 자치단체</w>
▁경영 자</w>
▁강원 랜드</w>
▁감 자
▁3 30</w>
학 위</w>
티 지</w>
타 협</w>
조 각</w>
장 법</w>
임 기</w>
이 온</w>
의 지</w>
우 선</w>
스 피
비 즈니스</w>
브리 핑</w>
복 판</w>
베 스</w>
메 인</w>
릴 라</w>
대표 부</w>
금 융
격 수</w>
개 입</w>
▁형 법</w>
▁프 란
▁폐 사</w>
▁파 마</w>
▁탁 구</w>
▁집 필</w>
▁질 주</w>
▁지방 분</w>
▁자 금
▁일 깨
▁인 출</w>
▁유니버 설</w>
▁어 기</w>
▁실 업자</w>
▁스 폰서</w>
▁석 사</w>
▁부산 대</w>
▁바 둑</w>
▁밀 가루</w>
▁민 속
▁며 느리</w>
▁말 기</w>
▁만 회</w>
▁루 트</w>
▁늘 렸</w>
▁너 머</w>
▁내세 웠</w>
▁나눠 서</w>
▁김 남
▁공 수</w>
▁공 산</w>
▁검 수</w>
▁가져 갈</w>
’ )</w>
T T</w>
M OU</w>
I R</w>
G O</w>
E R</w>
C S</w>
A T</w>
종 교</w>
정 세</w>
오 니</w>
숭 이</w>
마 일</w>
던 데요</w>
단 독</w>
다 비</w>
▁휴 업</w>
▁홍 삼</w>
▁호 환</w>
▁행 인</w>
▁필로 폰</w>
▁피 트</w>
▁턱 없이</w>
▁탄 도</w>
▁철 새</w>
▁진 척</w>
▁지 리산</w>
▁지 금껏</w>
▁줄 다리기</w>
▁전 폭</w>
▁전 망대</w>
▁일 컫</w>
▁일 축</w>
▁온 전</w>
▁영 재</w>
▁연 수구</w>
▁어 워드</w>
▁심 상</w>
▁세 울</w>
▁세 분</w>
▁세 리</w>
▁서 대문</w>
▁사 옥</w>
▁변 함
▁무더 운</w>
▁모 던</w>
▁로 그</w>
▁디 스크</w>
▁들 으며</w>
▁돌아 섰</w>
▁끌어 내</w>
▁기 자단</w>
▁국 내
▁고위 험</w>
▁걸 려요</w>
▁건 강
▁갈 래</w>
▁가 결</w>
es t</w>
V E</w>
T M</w>
I S
호 원</w>
혜 자</w>
혈 병</w>
클 래스</w>
차 익</w>
지방 세</w>
지 르</w>
임 시</w>
인 성</w>
이 체</w>
온 즈</w>
예 금</w>
양 원</w>
아 시안</w>
시 계</w>
서울 시</w>
박 이</w>
당 동</w>
나라 당</w>
공 연장</w>
경 색</w>
개 정안</w>
강 현실</w>
▁협 력체</w>
▁현 관</w>
▁한 결</w>
▁플 플</w>
▁평 상시</w>
▁판 빙빙</w>
▁컬 링</w>
▁커 진다</w>
▁치 중</w>
▁촘 촘</w>
▁챌 린지</w>
▁참 으로</w>
▁찬 스</w>
▁착 오</w>
▁즐 비</w>
▁주 어졌</w>
▁조 달청</w>
▁의 왕</w>
▁육 수</w>
▁웅 장</w>
▁울 림</w>
▁오 디오</w>
▁앞 바다</w>
▁쓰 였</w>
▁실리 콘밸리</w>
▁식 용</w>
▁스 윙</w>
▁솜 씨</w>
▁세 팅</w>
▁생 후</w>
▁브라 운</w>
▁부 조리</w>
▁부 유</w>
▁보 름</w>
▁미 분양</w>
▁두드러 졌</w>
▁도 우미</w>
▁더 러
▁다 룰</w>
▁난 무</w>
▁김재 환</w>
▁기술 자</w>
▁광주 광역시</w>
항 공
하 나
폐 기</w>
태 우</w>
크 로</w>
점 용</w>
절 로</w>
인 어</w>
이 식</w>
원 증</w>
어 르신</w>
수 거</w>
세 제</w>
세 율</w>
산 면</w>
보 안
따 라</w>
되 게</w>
돌 이</w>
꺼 이</w>
관리 사</w>
고 급</w>
가 상</w>
▁후 원자</w>
▁프로 그래
▁프레 젠테이션</w>
▁패 권</w>
▁파 이</w>
▁텐 데요</w>
▁춤 추</w>
▁최 저
▁초 록</w>
▁천 사</w>
▁중 저가</w>
▁주 권</w>
▁종 속</w>
▁정 거장</w>
▁유 방암</w>
▁우 물</w>
▁어 둡</w>
▁양 당</w>
▁암 살</w>
▁아 뇨</w>
▁습 지</w>
▁스 펙
▁숙 원</w>
▁상속 세</w>
▁상 업
▁불러일으 키</w>
▁베 르
▁발 레</w>
▁무 례</w>
▁몰 라도</w>
▁메 뉴
▁리 비아</w>
▁럭 셔리</w>
▁들 썩
▁뒤 흔
▁대 면</w>
▁내려 서</w>
▁내 몰
▁끼 쳤</w>
▁껍 질</w>
▁교 대</w>
▁골 절</w>
▁경 직</w>
▁가르 침</w>
u m
화 면</w>
통신 사</w>
탄 생</w>
탄 불</w>
지 하
증 명</w>
자 실</w>
영 회</w>
악 화</w>
아 프리카</w>
상 권</w>
블 랙</w>
분 투</w>
매 물</w>
르 담</w>
두 른</w>
도 기</w>
데 다</w>
난 다고</w>
귀 촌</w>
▁휴게 소</w>
▁헷 갈
▁햄 햄</w>
▁피 서
▁포 도
▁튀 김</w>
▁텍 스트</w>
▁치료 비</w>
▁최 태
▁체육 계</w>
▁체 코</w>
▁짜 릿</w>
▁진 작</w>
▁임 재욱</w>
▁인플 레이션</w>
▁옮 겨
▁올 리브</w>
▁오 거돈</w>
▁연 못</w>
▁에 세이</w>
▁신 세계
▁신 사업</w>
▁시 킨</w>
▁스 터
▁수출 상</w>
▁손 색</w>
▁불 빛</w>
▁벗 어날</w>
▁번 복</w>
▁번 거
▁바 비큐</w>
▁딜 러</w>
▁동방 신기</w>
▁당 대</w>
▁달 력</w>
▁김연 아</w>
▁급 수</w>
▁그리 워</w>
▁교 제</w>
▁가파 르</w>
▁K O
▁G M</w>
o d
i m</w>
P D</w>
N E</w>
IC E</w>
E F</w>
확 장</w>
해 고</w>
포 드</w>
쿠 르</w>
청 산</w>
저 장</w>
으 리라</w>
우 편</w>
선 미</w>
부동 산세</w>
보 상금</w>
리 서치</w>
레이 스</w>
라우 마</w>
당 선</w>
단 서</w>
금 자리</w>
관 계인</w>
과 급</w>
결 승</w>
개 년</w>
㎜ ,</w>
▁흩 어져</w>
▁흔 하</w>
▁확 연히</w>
▁항 해</w>
▁하 트</w>
▁필 립</w>
▁포 획</w>
▁추 행</w>
▁최저 치</w>
▁천 막</w>
▁집 사</w>
▁점 거</w>
▁전광 판</w>
▁잡 음</w>
▁유 연
▁우 편
▁영 정</w>
▁어울 릴</w>
▁애 써</w>
▁안내 문</w>
▁아 쿠
▁실 책</w>
▁실 마리</w>
▁식 료품</w>
▁스 키
▁손 바닥</w>
▁삼 진</w>
▁산 부인과</w>
▁북 경</w>
▁부 피</w>
▁병 실</w>
▁변 명</w>
▁반 죽</w>
▁박 수
▁민 화</w>
▁맹 활약</w>
▁디 젤</w>
▁듀 오</w>
▁뒤 지</w>
▁내 보
▁기 뻤</w>
▁골 대</w>
▁갖춰 야</w>
ig h
a k
훈 장</w>
핑 장</w>
폐 쇄</w>
코 트</w>
출 소</w>
출 력</w>
체 의</w>
창 작</w>
윈 스</w>
서 원</w>
분 할</w>
보 완</w>
매 니
망 주</w>
란 산</w>
됐 었</w>
▁현 판</w>
▁핀 란드</w>
▁폭 스</w>
▁평 정</w>
▁펴 낸</w>
▁파트 너십</w>
▁출 납</w>
▁추 상</w>
▁체납 액</w>
▁참 여
▁지 부</w>
▁이 영자</w>
▁유리 창</w>
▁어떠 세요</w>
▁앞세 운</w>
▁압 압</w>
▁신 빙</w>
▁수 개월</w>
▁쇠 퇴</w>
▁세워 져</w>
▁빨 라
▁볼 넷</w>
▁방문 자</w>
▁박 인
▁바 뀐
▁몸 값</w>
▁딥 딥</w>
▁당 진</w>
▁느껴 질</w>
▁노 고</w>
▁냉 방</w>
▁낭 만</w>
▁김 석
▁기 습</w>
▁금 번</w>
▁귀 신</w>
▁구 도심</w>
▁고 안</w>
▁고 군
▁게 양</w>
▁가 열</w>
화 성</w>
향 소</w>
표 현</w>
퍼 시픽</w>
캐피 털</w>
캐 스트</w>
지 향</w>
조 합
인 기</w>
인 권
아 트홀</w>
숙 이</w>
세 출</w>
보 이스</w>
문화 예술</w>
모 토</w>
명 품</w>
례 회</w>
내 장</w>
공 익</w>
경 주</w>
▁행 장</w>
▁카 탈
▁치 우
▁최 전방</w>
▁총 경</w>
▁초 고</w>
▁채 운</w>
▁지배 력</w>
▁지 급액</w>
▁제 소</w>
▁저 서</w>
▁일 화</w>
▁일 조</w>
▁이정 미</w>
▁을 지</w>
▁유승 민</w>
▁원 할</w>
▁오 존</w>
▁아이 스
▁아 사히</w>
▁산 악</w>
▁밝혀 진</w>
▁무 리
▁목표 치</w>
▁모 디</w>
▁메 우</w>
▁만족 감</w>
▁돌 연</w>
▁뉴 타운</w>
▁농 경지</w>
▁기 꺼이</w>
▁고 성군</w>
▁강 의실</w>
해 져서</w>
합 니다만</w>
컴 퓨터</w>
중 물</w>
조 연설</w>
요 령</w>
예 원</w>
스튜 디오</w>
선 스</w>
부 로</w>
봅 니다</w>
발 달</w>
막 식</w>
대 부</w>
느 냐고</w>
누 신</w>
가 장</w>
▁후 면</w>
▁협 소</w>
▁품 절</w>
▁페미 니즘</w>
▁타 운</w>
▁쿠 데타</w>
▁처 장</w>
▁채 굴</w>
▁참 배</w>
▁차 선</w>
▁지 칭</w>
▁조 이</w>
▁정 보
▁이 창
▁이 변</w>
▁유 실</w>
▁유 망주</w>
▁웃 도</w>
▁어 서</w>
▁아이 유</w>
▁심 재철</w>
▁실 험실</w>
▁시뮬 레이션</w>
▁스 캔</w>
▁수 행
▁손 질</w>
▁샤 이니</w>
▁사이 드</w>
▁빌 라</w>
▁변 론</w>
▁방 수</w>
▁발 발</w>
▁바리 스타</w>
▁뮬 러</w>
▁매 너</w>
▁마 늘</w>
▁립 스틱</w>
▁로 즈</w>
▁들 렸</w>
▁노 조원</w>
▁끼 친</w>
▁기 조연설</w>
▁구석 구석</w>
▁관 사</w>
▁검 사장</w>
▁2 500</w>
o p
희 룡</w>
켄 트</w>
종 료</w>
정 인</w>
의 문</w>
응 급</w>
유 세</w>
용 물</w>
여 론</w>
미 스터</w>
무 소</w>
목 록</w>
만 세</w>
립 금</w>
릴 지</w>
러 서</w>
들 어
더 위</w>
단 식</w>
내 심</w>
나 물</w>
관 서</w>
공 항공사</w>
계 리</w>
강 연</w>
각 층</w>
▁후 방</w>
▁회 사채</w>
▁협 동</w>
▁패 드</w>
▁특 위</w>
▁탑 승
▁최대 치</w>
▁최 재
▁청 사진</w>
▁차 려</w>
▁준 공식</w>
▁주 효</w>
▁주 문서</w>
▁잭 잭</w>
▁장 학</w>
▁장 미
▁장 내</w>
▁잔 인</w>
▁자 태</w>
▁자 아</w>
▁인 준</w>
▁인 제</w>
▁인 멸</w>
▁이 모
▁여 타</w>
▁엔 딩</w>
▁에 릭
▁암 기</w>
▁수 프</w>
▁수 박</w>
▁세 정</w>
▁성 원</w>
▁비 엔날레</w>
▁백 남준</w>
▁반 격</w>
▁멈 춰
▁내려 야</w>
▁공 항
▁고마 움</w>
▁고군 분투</w>
▁검 역</w>
▁거 장</w>
▁감정 평가</w>
▁간 행물</w>
▁1 23</w>
C T</w>
하나 님</w>
푸 르</w>
케 인</w>
초 기</w>
중 국해</w>
점 가</w>
저 리</w>
장 병</w>
자 신</w>
워 진다</w>
오 드</w>
시 점</w>
시 나</w>
스테 이</w>
수 력</w>
세 지</w>
성 장
번 스</w>
벅 지</w>
버 노</w>
물 학</w>
매 입</w>
루 트</w>
그 널</w>
공 격</w>
게 이션</w>
▁획 일</w>
▁항 로</w>
▁피 겨</w>
▁풍 물</w>
▁탈 피</w>
▁출 처</w>
▁청 구인</w>
▁지 탱</w>
▁조 끼</w>
▁정 월</w>
▁점 주</w>
▁절 벽</w>
▁저 절로</w>
▁작 업장</w>
▁어 땠</w>
▁애 쓰</w>
▁애 매</w>
▁숙 지</w>
▁수술 실</w>
▁소 란</w>
▁설 전</w>
▁선발 투수</w>
▁선 택지</w>
▁삼 촌</w>
▁부추 기</w>
▁번 거</w>
▁모 인다</w>
▁매수 세</w>
▁다가 올</w>
▁누리 집</w>
▁누 수</w>
▁교통 비</w>
▁고 질</w>
▁갑작 스러운</w>
▁U N</w>
▁2 70</w>
▁19 20</w>
▁1 25</w>
es t
L L</w>
화장 품</w>
톡 스</w>
지 리</w>
주 택
전 사</w>
장 구</w>
인 분</w>
이 팅</w>
올 라</w>
예술 제</w>
역 할</w>
양 군</w>
성 비</w>
생 제</w>
미 칼</w>
링 크</w>
농 림</w>
년 기</w>
네 이션</w>
기 증</w>
교 차</w>
관 순</w>
게 티</w>
거 즈</w>
각 형</w>
▁햇 볕</w>
▁하루 빨리</w>
▁피 난</w>
▁퍼 퍼</w>
▁테 크
▁터 전</w>
▁최 순</w>
▁참 작</w>
▁차 익</w>
▁지휘 봉</w>
▁지 회</w>
▁지 날수록</w>
▁좋아 해</w>
▁정 반대</w>
▁재 량</w>
▁장 려상</w>
▁입 히</w>
▁입 당</w>
▁일 탈</w>
▁일 수</w>
▁이해 관계인</w>
▁이 글스</w>
▁외 로움</w>
▁영 동
▁여 쭤</w>
▁알 루미늄</w>
▁악 성</w>
▁쓰 일</w>
▁신 변</w>
▁시 조</w>
▁상 급</w>
▁복 권</w>
▁벌 레</w>
▁번 갈</w>
▁바라 본</w>
▁미 숙</w>
▁므 누신</w>
▁명 부</w>
▁리 튬</w>
▁둥 근</w>
▁다 졌</w>
▁니 즈</w>
▁누 누</w>
▁내 보내</w>
▁극 찬</w>
▁거 행</w>
▁갈 게요</w>
▁CN BC</w>
SC MP</w>
O U
20 20</w>
한 국
학 연</w>
학 사</w>
하 천</w>
추 적</w>
참 사</w>
전 한</w>
입 시</w>
인 단</w>
익 수</w>
유 진</w>
암 호</w>
시 코</w>
슈 켄트</w>
소 유자</w>
세 종
선 박</w>
샤 인</w>
상 수</w>
발 행</w>
바 위</w>
률 안</w>
니 발</w>
기술 진</w>
감 정</w>
가 스
▁흔들 림</w>
▁휴양 지</w>
▁후 생</w>
▁향 교</w>
▁합 쳐
▁한 나라당</w>
▁특례 법</w>
▁트 윗</w>
▁통행 료</w>
▁통 째</w>
▁커피 숍</w>
▁지 면</w>
▁주 점</w>
▁주 식회사</w>
▁종 이
▁조 각
▁장 외</w>
▁입 법안</w>
▁임대 차</w>
▁일 손</w>
▁이루어 진다</w>
▁이 직</w>
▁이 마</w>
▁유 창</w>
▁원 재료</w>
▁연 주회</w>
▁여 드름</w>
▁양 천</w>
▁앞 뒤</w>
▁알렉 산
▁신 탁</w>
▁시 그</w>
▁소 극장</w>
▁선 로</w>
▁상 파울루</w>
▁상 영관</w>
▁삼성 증권</w>
▁사 죄</w>
▁사 은
▁블라디 보스토크</w>
▁베이 비</w>
▁버 려</w>
▁방 조</w>
▁발 대식</w>
▁바 디</w>
▁물 음</w>
▁묘 역</w>
▁모 터
▁명 심</w>
▁매 점</w>
▁마 른</w>
▁라 운지</w>
▁디 바이스</w>
▁동반 자</w>
▁돌 봐</w>
▁대한 체육회</w>
▁눈 부
▁넷 째</w>
▁낮 출</w>
▁남양 유업</w>
▁끊 기</w>
▁김 규
▁금 천</w>
▁구 유</w>
▁고 추장</w>
▁결 석</w>
▁강 변</w>
▁강 간</w>
▁갈 라
▁K EB</w>
▁197 9</w>
R T</w>
M R</w>
1 50</w>
흥 청</w>
확 도</w>
플 래
코 치</w>
징 어</w>
유 관</w>
안 일</w>
아 래</w>
센 서</w>
범 식</w>
바 탕</w>
메 이크</w>
리 법</w>
라 시아</w>
던 지</w>
단 다</w>
공 약</w>
개 시</w>
▁형 국</w>
▁표 절</w>
▁페 인트</w>
▁특 전</w>
▁특 산물</w>
▁특 권</w>
▁타 슈켄트</w>
▁크리스 천</w>
▁출 발점</w>
▁쳐 다보</w>
▁철 폐</w>
▁찬 사</w>
▁차 상</w>
▁중 추</w>
▁줄어 든다</w>
▁정 경
▁재 가동</w>
▁임상 시험</w>
▁일 품</w>
▁인 텔</w>
▁이 양</w>
▁의 뢰
▁윤 영
▁위 험
▁월 간</w>
▁우 뚝</w>
▁욕 실</w>
▁연 극
▁여 느</w>
▁에이 전시</w>
▁시 멘트</w>
▁손 톱</w>
▁성 과급</w>
▁분 홍색</w>
▁보인 다는</w>
▁보이 콧</w>
▁반 장</w>
▁바 빴</w>
▁못 한다면</w>
▁마 카오</w>
▁락 락</w>
▁동 호인</w>
▁답 한</w>
▁능 숙</w>
▁근 간</w>
▁군 포</w>
▁공 교</w>
▁계산 대</w>
▁거 침
▁간 다고</w>
▁19 0</w>
u s</w>
in e</w>
C B</w>
B L</w>
학 상</w>
표 지</w>
팩 토리</w>
주 국</w>
장 려</w>
일 제</w>
었 었</w>
시 네마</w>
세 우</w>
산 망</w>
밀 착</w>
메 드</w>
도 원</w>
다 퉈</w>
니 스탄</w>
년 회</w>
강 우</w>
▁휴 직</w>
▁팀 워크</w>
▁초 속</w>
▁증 원</w>
▁좁 혀</w>
▁입 상자</w>
▁임 면</w>
▁이 중
▁이 문
▁의료 인</w>
▁위 태</w>
▁예 결</w>
▁여 긴</w>
▁신 사
▁생 육</w>
▁삼 국</w>
▁사 체</w>
▁뿌 려</w>
▁비 하
▁비 단</w>
▁법 리</w>
▁배 임</w>
▁박지 성</w>
▁미 혼</w>
▁무궁 화</w>
▁무 허가</w>
▁무 난</w>
▁모 티브</w>
▁매 몰</w>
▁마 중물</w>
▁드 린다</w>
▁데려 가</w>
▁담 백</w>
▁내려 갔</w>
▁난 관</w>
▁김현 수</w>
▁김 구</w>
▁관 영</w>
▁겸 임</w>
▁N N</w>
ic e</w>
e p
특별 회계</w>
통 망</w>
줄 지</w>
의 선</w>
의 뢰</w>
웍 스</w>
요 구서</w>
올 랐</w>
어 떤</w>
실 화</w>
버 릴</w>
메 이드</w>
급 사</w>
권 단</w>
국 주의</w>
관 보</w>
간 다면</w>
▁휘 두른</w>
▁헨 리</w>
▁했 으며</w>
▁학 부</w>
▁풍 속</w>
▁푸 짐</w>
▁펌 프</w>
▁체 불</w>
▁천 재
▁중고 차</w>
▁존 슨</w>
▁조 그
▁정 수기</w>
▁장 남</w>
▁이 윤
▁의 용</w>
▁우 기</w>
▁용 접</w>
▁여객 선</w>
▁알려 준</w>
▁실 생활</w>
▁시 킬</w>
▁시 료</w>
▁스페 인어</w>
▁수료 증</w>
▁소식 지</w>
▁소 소</w>
▁소 박</w>
▁세 간</w>
▁서울 산</w>
▁상 회</w>
▁살 릴</w>
▁산 타</w>
▁비 장</w>
▁봉 합</w>
▁보 라
▁변 질</w>
▁밝 혔
▁망 치</w>
▁막 내</w>
▁돌 진</w>
▁느 슨</w>
▁내 셔널</w>
▁꺼 지</w>
▁기 일</w>
▁근 로
▁관 철</w>
▁공 시지가</w>
▁공 교육</w>
▁결 연</w>
▁감 식</w>
▁가 르</w>
▁EX O</w>
L PGA</w>
G R</w>
201 1</w>
201 0</w>
획 관</w>
호 동</w>
합 의체</w>
튀 김</w>
태 현</w>
체 스</w>
자 르</w>
유 해</w>
용 직</w>
쉼 터</w>
설 정</w>
상 부</w>
사 병</w>
변 국</w>
리 프</w>
네 이
가 입자</w>
▁허 술</w>
▁한 몫</w>
▁퇴 행</w>
▁태 워</w>
▁출 루</w>
▁증 식</w>
▁중 원</w>
▁준 다는</w>
▁정 확도</w>
▁접 견</w>
▁장례 식</w>
▁잔 잔</w>
▁입 학
▁음 력</w>
▁유 성
▁유 머</w>
▁위 스키</w>
▁우 주
▁에 르</w>
▁어느 새</w>
▁어 학</w>
▁양 일</w>
▁애 인</w>
▁앞당 겨</w>
▁아메 리카</w>
▁아 파</w>
▁씨 름</w>
▁신 병</w>
▁숨 져</w>
▁수료 식</w>
▁세 단</w>
▁서 방</w>
▁사은 품</w>
▁본 다면</w>
▁받아들 여
▁목 조</w>
▁매 트</w>
▁말 라
▁루 머</w>
▁대 의원</w>
▁달아 난</w>
▁넘 길</w>
▁낸 다</w>
▁기록 관</w>
▁그 늘</w>
▁괴 리</w>
▁개 업</w>
▁강 서</w>
▁감 격</w>
▁10 2</w>
확 산</w>
혜 선</w>
페 스트</w>
챔 피
주 제</w>
전 반</w>
장 가</w>
연 휴</w>
여 곡
여곡 절</w>
스 카</w>
순 환
사 업소</w>
베이 거스</w>
류 소</w>
도 와</w>
기 도</w>
공 방</w>
▁흘러 가</w>
▁효 성</w>
▁환 하</w>
▁혀 혀</w>
▁철 원</w>
▁지구 촌</w>
▁지 옥</w>
▁종합 부동산세</w>
▁전 해진</w>
▁인 쇄
▁이동 해</w>
▁응 대</w>
▁양 평군</w>
▁스 릴
▁솟 솟</w>
▁선 비</w>
▁서귀 포</w>
▁상 류</w>
▁뷔 페</w>
▁불 평</w>
▁불 린다</w>
▁베 풀</w>
▁번 호판</w>
▁바 우
▁묵 묵
▁메뉴 판</w>
▁매 콤</w>
▁덜 미</w>
▁대 우
▁당 할</w>
▁담 아내</w>
▁내려 앉</w>
▁내 구</w>
▁기본 소득</w>
▁국 지</w>
1 0
혜 경궁</w>
해 집니다</w>
플 릿</w>
틸 리티</w>
테 러</w>
치 아</w>
진 흥
정 직</w>
정 상
전시 관</w>
인 공
이 내</w>
은 가요</w>
원 군</w>
여 식</w>
아 메리카</w>
스 톤</w>
상 정</w>
비 트</w>
블 록체인</w>
보 증
민 영</w>
말 라</w>
뜨 릴</w>
단 락</w>
나 래</w>
낍 니다</w>
까 진</w>
기 상
급 인</w>
▁휴 양</w>
▁휴 무</w>
▁화 살</w>
▁허 벅지</w>
▁학 술
▁편 중</w>
▁패 밀리</w>
▁트로 트</w>
▁트 라우마</w>
▁치 를</w>
▁제 법</w>
▁제 니</w>
▁정 기
▁전 교</w>
▁저 력</w>
▁잠 겨</w>
▁이 청
▁원 청</w>
▁우 여곡절</w>
▁오 버</w>
▁영등 포</w>
▁연 사</w>
▁역 부족</w>
▁엑 스
▁에 티
▁시 찰</w>
▁시 끄러
▁쇼 크</w>
▁세계 유산</w>
▁샴 푸</w>
▁비하 인드</w>
▁보 금자리</w>
▁법 칙</w>
▁밀 레</w>
▁미 묘</w>
▁무 고</w>
▁몸 통</w>
▁맥도 날드</w>
▁러 닝</w>
▁라이 선스</w>
▁동 방</w>
▁도 봉</w>
▁노 약자</w>
▁기 탁</w>
▁기 성
▁기 독</w>
▁기 단</w>
▁급 부상</w>
▁귀 한</w>
▁공 개
▁고 척</w>
▁고 강</w>
▁개 회</w>
▁개 연</w>
▁간 과</w>
▁가 했</w>
▁L CD</w>
i e</w>
an ce</w>
하 구</w>
폴 리</w>
충 남</w>
천 지</w>
참 모
제 조업</w>
위 크</w>
예술 인</w>
세 미나</w>
불 량</w>
부 제</w>
민 간
물 살</w>
무 라</w>
명 부</w>
러 야</w>
도로 공사</w>
납 금</w>
과 학
고 지서</w>
감 정원</w>
각 화</w>
▁흐 른</w>
▁해 낼</w>
▁항 생제</w>
▁펼쳐 져</w>
▁편 법</w>
▁특 가</w>
▁트 윈스</w>
▁탑 승자</w>
▁카 를
▁집행 부</w>
▁중 징계</w>
▁조합 장</w>
▁이 진
▁원 자
▁울 타리</w>
▁우 승
▁옮 길</w>
▁올라 서</w>
▁올 바르</w>
▁오리 온</w>
▁예 견</w>
▁연 가</w>
▁앞 섰</w>
▁알아 봐</w>
▁안 성시</w>
▁소 니</w>
▁성 벽</w>
▁산 후</w>
▁사 방</w>
▁보 고회</w>
▁백 자</w>
▁배 워야</w>
▁발 열</w>
▁박성 현</w>
▁명 세</w>
▁면 책</w>
▁만 난다</w>
▁라스 베이거스</w>
▁딛 딛</w>
▁드 세요</w>
▁대 형
▁느 낍니다</w>
▁기 저</w>
▁거 북
▁개 국</w>
ore a</w>
a m</w>
휴 양
향 기</w>
해 수욕장</w>
천 리</w>
책 점</w>
외 상</w>
연 결</w>
시킨 다는</w>
스 턴트</w>
순 이익</w>
수 교</w>
설 명</w>
석 수</w>
보호 구역</w>
모니 터</w>
라 서요</w>
긴 급</w>
▁헐 리</w>
▁해수 부</w>
▁하 버
▁퍼 블
▁치 우</w>
▁자 라
▁이병 헌</w>
▁이 주민</w>
▁유산 균</w>
▁유 능</w>
▁윗 선</w>
▁웬 만</w>
▁원 희룡</w>
▁외 압</w>
▁옮 겨져</w>
▁올 린다</w>
▁오 이</w>
▁양 말</w>
▁안 면</w>
▁아 미
▁쏜 쏜</w>
▁싱 어</w>
▁승 선</w>
▁스트레 칭</w>
▁수 하
▁소 용
▁선 의</w>
▁사 학</w>
▁배 럴</w>
▁발 현</w>
▁물러 난</w>
▁메 카</w>
▁떠 안</w>
▁따 내</w>
▁들어 온다</w>
▁뒤 진</w>
▁동 조</w>
▁덩 달</w>
▁노 점</w>
▁내 용물</w>
▁김혜 경</w>
▁김 인
▁급 물살</w>
▁궁 궐</w>
▁구 절</w>
▁구 석</w>
▁구 본
▁관 공서</w>
▁공 포
▁10 8</w>
T I</w>
P P</w>
해 하</w>
합 성</w>
퓰 리즘</w>
평 론가</w>
크 리
최 지</w>
창 기</w>
중 등교육</w>
정 희</w>
인 플
음 밥</w>
유 도</w>
수 현</w>
송 금</w>
서 스</w>
사 범</w>
블 카</w>
볼 까</w>
보 스</w>
백 히</w>
배 구</w>
만 약</w>
리 니</w>
룻 밤</w>
동 쪽</w>
도 관</w>
다 기</w>
농 악</w>
기념 일</w>
▁흔들 릴</w>
▁훔 쳐</w>
▁해 수</w>
▁폭 스
▁포 스코
▁평 화통일</w>
▁패스트 푸드</w>
▁팔 찌</w>
▁파 헤
▁탈 취</w>
▁타 구</w>
▁키 운</w>
▁크리 스</w>
▁짠 짠</w>
▁집 어
▁제 언</w>
▁제 국</w>
▁절 단</w>
▁이스 탄불</w>
▁이루어 져야</w>
▁이 따
▁우크 라</w>
▁왔 었</w>
▁영 종</w>
▁양 립</w>
▁안 부</w>
▁쓰러 지</w>
▁신호 등</w>
▁성 패</w>
▁성 대</w>
▁서 열</w>
▁빌 미</w>
▁분 뇨</w>
▁밸 런스</w>
▁배기 가스</w>
▁발 화</w>
▁발 리</w>
▁묵 직</w>
▁몸 살</w>
▁맥 스</w>
▁매 회</w>
▁라이 온즈</w>
▁도 피</w>
▁대 승</w>
▁대 박</w>
▁놀 란</w>
▁내비 게이션</w>
▁꾸 며</w>
▁김민 재</w>
▁기 름
▁금 강</w>
▁구 세</w>
▁광명 시</w>
▁개 항</w>
▁I S
▁I PO</w>
▁A R</w>
e v
at e</w>
P L</w>
횟 수</w>
호 흡기</w>
포 항</w>
특별 법</w>
트 륨</w>
탄 절</w>
온 라인</w>
쓰 기</w>
신 학</w>
신 데</w>
소 매</w>
살 이</w>
사 당</w>
배 기</w>
모 병원</w>
매 일</w>
디 오
대 장
다 니엘</w>
군 기지</w>
국 면</w>
계획 안</w>
걸 스</w>
▁흘러 나오</w>
▁휴 관</w>
▁혈 중</w>
▁편 차</w>
▁클 린
▁카 레</w>
▁촉 각</w>
▁질 소</w>
▁접어 든</w>
▁전 장</w>
▁장 갑</w>
▁자 행</w>
▁원 숭이</w>
▁원 두</w>
▁완 만</w>
▁오 래
▁연 골</w>
▁아 모레</w>
▁씹 씹</w>
▁수십 만</w>
▁섹 션</w>
▁성 탄절</w>
▁샤 오미</w>
▁살 균제</w>
▁비 방</w>
▁브 뤼
▁박용 진</w>
▁미 네
▁머 신</w>
▁말 다툼</w>
▁마 스
▁마 르</w>
▁등 산
▁뒤 섞
▁뒤 바
▁두 피</w>
▁동 성</w>
▁대응 책</w>
▁달 달</w>
▁끓 끓</w>
▁끊 겼</w>
▁김 천</w>
▁김 장
▁권 오
▁구급 대</w>
▁결 말</w>
▁강경 파</w>
▁가져 갔</w>
▁가 닥</w>
▁S h
▁E BS</w>
▁D H
▁198 4</w>
p s</w>
N C</w>
3 50</w>
흐 름</w>
츠 버그</w>
체 포</w>
채 무</w>
주 요</w>
인 먼</w>
이 트
에 이</w>
선 수
변 상</w>
베 리아</w>
방 전</w>
민간 단체</w>
마 이
려 졌</w>
드 로</w>
기 업인</w>
그 리</w>
관 료</w>
계 약직</w>
▁흉 터</w>
▁헬 멧</w>
▁함 부로</w>
▁한국 감정원</w>
▁한 가
▁피 해
▁평 창동</w>
▁틀림 없</w>
▁징 용</w>
▁주 지사</w>
▁정 유
▁절 로</w>
▁전환 점</w>
▁재 회</w>
▁재 앙</w>
▁자 수</w>
▁입 성</w>
▁인 내심</w>
▁완 주</w>
▁어느 덧</w>
▁어 플리케이션</w>
▁신 상품</w>
▁스 무</w>
▁순 직</w>
▁수 심</w>
▁성 취
▁설 령</w>
▁선 뜻</w>
▁상 큼</w>
▁삼성 동</w>
▁볼 륨</w>
▁배 차</w>
▁매 료</w>
▁두꺼 운</w>
▁동창 리</w>
▁동 학</w>
▁동 명</w>
▁기 체</w>
▁금 상</w>
▁괴 물</w>
▁곡 물</w>
▁결 원</w>
▁거 취</w>
▁2 60</w>
현 정</w>
해 상</w>
파 운드</w>
태 경</w>
클 린</w>
추 위</w>
지 하</w>
지 먼트</w>
자 살</w>
인 방</w>
원 은</w>
연구 관</w>
아 침</w>
스러 울</w>
숙 객</w>
수 생</w>
소 개</w>
산 업
사무 관</w>
블 러</w>
부 산
명 사</w>
리바 운드</w>
리 장</w>
동 량</w>
도 장</w>
대 형</w>
농 약</w>
김 없이</w>
과 점</w>
계 단</w>
격 성</w>
▁회 계
▁할 게</w>
▁하 남</w>
▁팩 스</w>
▁투 숙객</w>
▁택 한</w>
▁퀄 리티</w>
▁콘 테스트</w>
▁출 범식</w>
▁진 주시</w>
▁지휘 관</w>
▁정 동</w>
▁잠수 함</w>
▁자 취</w>
▁입 항</w>
▁입 소</w>
▁이 규
▁유 역</w>
▁우리 은행</w>
▁요 일</w>
▁엔 트리</w>
▁암 세포</w>
▁아 낌
▁쓰레기 통</w>
▁심 플</w>
▁스위 치</w>
▁스 리</w>
▁숙 성</w>
▁소 시지</w>
▁세계 관</w>
▁세 법</w>
▁선 글라스</w>
▁서 한</w>
▁상 고심</w>
▁사과 문</w>
▁사 직</w>
▁비 수기</w>
▁보여 서</w>
▁무 형</w>
▁매 립</w>
▁망 막</w>
▁라이 언</w>
▁떨 리</w>
▁두려 워하</w>
▁도 둑</w>
▁대 타협</w>
▁뉴 딜</w>
▁내려 와</w>
▁나타 낸</w>
▁개 최지</w>
▁2 80</w>
u e</w>
태 영</w>
진 학</w>
중 석</w>
일 수</w>
인 용</w>
융 자</w>
시 킵니다</w>
분 뇨</w>
부 당</w>
본 인</w>
바 구니</w>
모 지</w>
는 가요</w>
기 정</w>
기 억</w>
공 회</w>
계 각층</w>
▁하 룻밤</w>
▁풍 기</w>
▁포 퓰리즘</w>
▁포 크</w>
▁파이 낸셜</w>
▁침 실</w>
▁최종 훈</w>
▁채 무자</w>
▁지 뢰</w>
▁좋아 해서</w>
▁재 일</w>
▁장 단
▁입 문</w>
▁임 진</w>
▁익 산</w>
▁이 선
▁유 관순</w>
▁원 어민</w>
▁우선 시</w>
▁외 롭</w>
▁올라 간</w>
▁예 선전</w>
▁영화 배우</w>
▁여 덟</w>
▁얽 혀</w>
▁안내 판</w>
▁안 토
▁수 온</w>
▁소비 재</w>
▁뼈 대</w>
▁불 문</w>
▁벙 커</w>
▁박 남
▁몬 몬</w>
▁들여 다
▁되새 기</w>
▁대 항</w>
▁단 추</w>
▁느 린</w>
▁내 포</w>
▁나 주</w>
▁기지 국</w>
▁기 인</w>
▁근 속</w>
▁그 쳐</w>
▁그 라
▁구 출</w>
▁교 보
▁광복 절</w>
▁공 소장</w>
▁경상 도</w>
▁간 호
▁· ·</w>
▁F I
o w
T H
P R</w>
K O
B I</w>
A N
A M</w>
흡 연</w>
후 조
후조 리원</w>
현 준</w>
해 냈</w>
합 격</w>
필 품</w>
키 즈</w>
카 운트</w>
찍 이</w>
진 압</w>
지 킴</w>
지 상</w>
정 판</w>
전 장</w>
적 절</w>
이 노베이션</w>
연 방</w>
앤 드</w>
시 성</w>
스 퍼</w>
숨 에</w>
소 자</w>
뿌 리</w>
브 리</w>
북 자</w>
모 차</w>
르 기
농 민</w>
날 이</w>
나 타</w>
김 정은</w>
그 루</w>
공 작</w>
가 방</w>
▁행 성</w>
▁할 당</w>
▁프린 팅</w>
▁폴 리</w>
▁카 펠라</w>
▁출 항</w>
▁청 량
▁처 해</w>
▁지켜 본</w>
▁정상 급</w>
▁점 프</w>
▁저 명</w>
▁자 가
▁이재 성</w>
▁오 토</w>
▁오 롯</w>
▁억 류</w>
▁시 드</w>
▁수 송
▁서 운</w>
▁상담 원</w>
▁불 릴</w>
▁보안 등</w>
▁발 상</w>
▁묻 혀</w>
▁몸 체</w>
▁몰 릴</w>
▁몰 락</w>
▁모 래
▁명 실
▁명 백히</w>
▁멜 라
▁멈 췄</w>
▁막 혔</w>
▁레 몬</w>
▁등 교</w>
▁뒤 처
▁되돌 아
▁담 론</w>
▁단 숨에</w>
▁냉 각
▁낙 폭</w>
▁끝 냈</w>
▁그 토록</w>
▁국 화</w>
▁구속 영장</w>
▁구 심
▁구 동</w>
▁관람 료</w>
▁경 인</w>
▁강남 역</w>
▁감 사
▁S OC</w>
▁2 32</w>
▁197 3</w>
a i
W P</w>
F T</w>
혼 모</w>
형 식</w>
특별 시장</w>
타 수</w>
촉 자</w>
철 호</w>
주 머니</w>
절 단</w>
자 책점</w>
입 학</w>
인 승</w>
유 국</w>
우 먼</w>
오 름</w>
수 칙</w>
손 상</w>
사 선</w>
볶 음</w>
배 정</w>
명 장</w>
리 칸</w>
둥 성</w>
니 지</w>
내 렸</w>
교육 비</w>
교 대</w>
공 주</w>
경 수</w>
경 로</w>
▁표 류</w>
▁폭 설</w>
▁포 드</w>
▁편 찬</w>
▁파 월</w>
▁탐 지</w>
▁커 리어</w>
▁카 라
▁취업 률</w>
▁차 명</w>
▁쫄 깃</w>
▁조 정안</w>
▁제 인</w>
▁정 취</w>
▁전시 실</w>
▁일 부분</w>
▁이제 야</w>
▁이끌 어냈</w>
▁이 공</w>
▁의 논</w>
▁움직 였</w>
▁아 세요</w>
▁심 했</w>
▁습 기</w>
▁슬 퍼
▁수 혜자</w>
▁서강 대</w>
▁박 신
▁명예 퇴직</w>
▁동 해안</w>
▁독 해</w>
▁단 호</w>
▁다 정</w>
▁니 콜
▁늘 려야</w>
▁내 성</w>
▁날 로</w>
▁김 복
▁근 래</w>
▁귀 족</w>
▁군 산시</w>
▁교통 량</w>
▁광역 시</w>
▁과 속</w>
▁곧 장</w>
▁경영 난</w>
▁결 격</w>
▁견 딜</w>
▁각 계각층</w>
▁19 30</w>
현 대
퓨 팅</w>
포 상금</w>
티 콘</w>
통 행</w>
터 치</w>
출 입</w>
천 사</w>
진 보</w>
전 기금</w>
저 런</w>
을 버스</w>
욕 탕</w>
아 기</w>
실 에</w>
슬 란드</w>
스 포
세종 청사</w>
세 탁</w>
서 기</w>
산 군</w>
불 금</w>
법 연수원</w>
무 용
모 직</w>
로 금</w>
렸 으나</w>
등 히</w>
더 미</w>
뇌 부</w>
기술 센터</w>
기념 물</w>
구 성원</w>
감 도</w>
▁히어 로</w>
▁홈 경기</w>
▁피 터</w>
▁플 러
▁타이 거즈</w>
▁클 라이
▁창 건</w>
▁직 계</w>
▁전 차</w>
▁저 런</w>
▁자 의</w>
▁인플 루엔자</w>
▁예 탁</w>
▁영 암
▁에 릭</w>
▁엇갈 렸</w>
▁어려 워졌</w>
▁아래 쪽</w>
▁쏠 림</w>
▁실 외</w>
▁속 성</w>
▁소송 대리인</w>
▁소 장품</w>
▁성장 기</w>
▁설 거지</w>
▁서울 특별시장</w>
▁사 들이</w>
▁빚 어졌</w>
▁불 화</w>
▁부 영</w>
▁본 토</w>
▁배 열</w>
▁방 점</w>
▁발맞 춰</w>
▁발 라드</w>
▁바 짝</w>
▁문 인</w>
▁마 중</w>
▁마 셔</w>
▁리 메이크</w>
▁뛴 뛴</w>
▁두 드리</w>
▁내려 지</w>
▁남 중국해</w>
▁남 겨
▁나 사</w>
▁나 날이</w>
▁낀 낀</w>
▁깊 숙이</w>
▁기대 치</w>
▁경 의선</w>
▁거 쳤</w>
▁강 인</w>
▁감 행</w>
▁간 접
▁10 4</w>
g e</w>
화 고</w>
혼 자</w>
해 충</w>
토 스</w>
카 이도</w>
전 법</w>
자 락</w>
유 량</w>
여 단</w>
안 산</w>
스 태프</w>
수 탁</w>
소 상</w>
사 표</w>
무 역
매 출</w>
라 믹</w>
라 가</w>
네 트</w>
김 영
관 한</w>
▁회 담장</w>
▁합 법화</w>
▁피로 감</w>
▁평 점</w>
▁편 도</w>
▁파 울</w>
▁트 랜
▁토 목</w>
▁타 개</w>
▁카 니발</w>
▁총 량</w>
▁차 리</w>
▁직 구</w>
▁조재 범</w>
▁제 품
▁정부 세종청사</w>
▁절 친</w>
▁잠 자리</w>
▁유명 세</w>
▁우 량</w>
▁오 만</w>
▁에 이</w>
▁스며 들</w>
▁수 뇌부</w>
▁속 내</w>
▁성 북</w>
▁서 식지</w>
▁생 필품</w>
▁상 쾌</w>
▁빗 방울</w>
▁볼 게요</w>
▁보 너스</w>
▁베 개</w>
▁버 려진</w>
▁백 혈병</w>
▁밀 양</w>
▁무 성</w>
▁마 리아</w>
▁드러 날</w>
▁두 각</w>
▁동 종</w>
▁대 행업체</w>
▁당 당히</w>
▁농 수산물</w>
▁놀라 움</w>
▁냉 각</w>
▁나 치</w>
▁깨 끗
▁김영 권</w>
▁기울 였</w>
▁기념 비</w>
▁굉 장</w>
▁공 관</w>
▁곱 곱</w>
▁198 2</w>
▁13 5</w>
▁1 15</w>
e w</w>
I n
획 단</w>
펀 딩</w>
케 이크</w>
친 환경</w>
추 가</w>
지 변</w>
지 민</w>
정 착</w>
장 수</w>
음악 회</w>
왔 으나</w>
오 케스트라</w>
앤 비</w>
애 플</w>
승 원</w>
세 데스</w>
성 모병원</w>
부 인</w>
보 인다</w>
방 망이</w>
미 진진</w>
뮤 지컬</w>
만 료</w>
리카 노</w>
루 타</w>
대 만</w>
놀 이터</w>
격 장</w>
㎡ (</w>
▁확 인서</w>
▁포스코 건설</w>
▁폐 렴</w>
▁톡 톡</w>
▁터 트
▁택 했</w>
▁탈 환</w>
▁켜 졌</w>
▁캡 캡</w>
▁조명 균</w>
▁조 원
▁전 도사</w>
▁자 립생활</w>
▁인천 광역시장</w>
▁응 시자</w>
▁유 로
▁위 암</w>
▁위 례</w>
▁웰 빙</w>
▁월 별</w>
▁월 등히</w>
▁와 해</w>
▁연구 비</w>
▁양 의지</w>
▁술 자리</w>
▁속 상
▁소 용</w>
▁성 명서</w>
▁산 체스</w>
▁봉 제</w>
▁복 부</w>
▁변 모</w>
▁바 랐</w>
▁문 헌</w>
▁몰 아주</w>
▁마 루</w>
▁들 러</w>
▁동두 천시</w>
▁도 미
▁녹 조</w>
▁남 북
▁깨끗 이</w>
▁김 유
▁귀 속</w>
▁공 채</w>
▁강 물</w>
▁감 시
▁감 명</w>
▁감 금</w>
▁K C
o g
A C</w>
2 50</w>
지하 철</w>
지 리아</w>
전 달</w>
인 정</w>
의 료
유 사</w>
에 스
상 봉</w>
산 화물</w>
산 율</w>
사무 국</w>
비 앤비</w>
보 통</w>
범 대</w>
버 십</w>
리 언</w>
도 세</w>
더 욱</w>
단 주의</w>
기 점</w>
그 릇</w>
공 품</w>
공 구</w>
계 비</w>
경 호</w>
결 합</w>
강 도</w>
▁흥 미진진</w>
▁휘 둘
▁포 맷</w>
▁태 그</w>
▁탈 의실</w>
▁탄 성</w>
▁키 트</w>
▁쿠 팡</w>
▁칵 테일</w>
▁최 선희</w>
▁체 형</w>
▁참여 연대</w>
▁집 안일</w>
▁중 량</w>
▁전 력
▁적 립금</w>
▁저 온</w>
▁자 민</w>
▁일 교차</w>
▁이뤄지 기</w>
▁이 희
▁이 체</w>
▁이 닝</w>
▁유 치
▁유 라시아</w>
▁옥 옥</w>
▁여겨 진다</w>
▁안 무가</w>
▁쓰러 졌</w>
▁심 리
▁식 전</w>
▁시 사회</w>
▁수 축</w>
▁수 다</w>
▁세워 졌</w>
▁세 브</w>
▁서 사</w>
▁사 탕</w>
▁사 익</w>
▁뿌 리
▁빗 발
▁봉 사자</w>
▁배 신</w>
▁방 재</w>
▁바이 오
▁바 울</w>
▁물려 받</w>
▁묵묵 히</w>
▁머 리
▁맞 섰</w>
▁리얼 미터</w>
▁레 슨</w>
▁들 끓</w>
▁득 표율</w>
▁돌아 서</w>
▁닥 터</w>
▁노 릇</w>
▁내 국</w>
▁낮 췄</w>
▁끌려 가</w>
▁기본 급</w>
▁기 자재</w>
▁관 중석</w>
▁공 보</w>
▁골 반</w>
▁거머 쥐</w>
▁개 월</w>
▁US B</w>
▁I S</w>
n et</w>
후 배</w>
해 했</w>
프라 노</w>
트 럼</w>
텔 링</w>
커 리</w>
제 회</w>
장 일치</w>
인 다고</w>
이 용자</w>
우 유</w>
와 도</w>
예 산안</w>
어 라</w>
야 수</w>
수 선</w>
베 드</w>
박 자</w>
박 계</w>
메 르
망 감</w>
마 비</w>
린 다면</w>
로 회</w>
레 길</w>
도 현</w>
데 기</w>
당 호</w>
녹 지</w>
날 로그</w>
꿈 치</w>
기 세포</w>
기 름</w>
교 원</w>
▁회 의장</w>
▁회 기</w>
▁현 물</w>
▁학 창</w>
▁폭발 물</w>
▁택 하</w>
▁출 렁
▁창 가</w>
▁참 견</w>
▁차 체</w>
▁쪼 개</w>
▁존 엄</w>
▁조 개</w>
▁전 지</w>
▁전 년도</w>
▁재 물</w>
▁자 랐</w>
▁이 유
▁유 급</w>
▁윌리 엄</w>
▁위 촉장</w>
▁위 급</w>
▁우 월</w>
▁요 동
▁왕 래</w>
▁옹 옹</w>
▁옵 니다</w>
▁양 재
▁애 로</w>
▁아파 요</w>
▁아이 슬란드</w>
▁스릴 러</w>
▁서 른</w>
▁생명 체</w>
▁살 림</w>
▁비 산</w>
▁박 지원</w>
▁바 랄
▁면 밀</w>
▁매 운
▁매 기</w>
▁말 미</w>
▁마 칠</w>
▁들어 와서</w>
▁담 요</w>
▁니 혼</w>
▁논 산</w>
▁구 운</w>
▁괌 괌</w>
▁관 습</w>
▁고 분
▁검 열</w>
▁갈아 입</w>
▁갈 비
▁가 창
▁가 설</w>
> ,</w>
회 계사</w>
화 책</w>
향 악단</w>
하 량</w>
트 랩</w>
코 프</w>
치 동</w>
청 각</w>
집 권</w>
전 문
으로 선</w>
위생 법</w>
엔 지
식 인</w>
승 우</w>
스 닥</w>
수 품</w>
세 액</w>
성 실</w>
비 상
부 시장</w>
버 스터</w>
민 수</w>
모 양</w>
놀 로지</w>
기 찬</w>
권 고</w>
가 야</w>
가 명</w>
▁헌 헌</w>
▁한 식당</w>
▁하 계</w>
▁피 츠버그</w>
▁파 나마</w>
▁토 사</w>
▁테 라스</w>
▁카 페인</w>
▁친 해</w>
▁취 합</w>
▁초 석</w>
▁좋아 했</w>
▁정 조</w>
▁정 제</w>
▁정 례회</w>
▁전 셋
▁자 백</w>
▁의뢰 인</w>
▁의 석수</w>
▁유 모차</w>
▁연장 선</w>
▁알 파
▁아 키
▁실 용
▁식 재</w>
▁수 석
▁생 리대</w>
▁새 로이</w>
▁삼 바</w>
▁사 극</w>
▁봅 시다</w>
▁복 선</w>
▁보 탬</w>
▁변 한</w>
▁방사 성</w>
▁발렌 시아</w>
▁바 래요</w>
▁멜 론</w>
▁만 장일치</w>
▁룰 룰</w>
▁따 를</w>
▁답 사</w>
▁달 라서</w>
▁노 년층</w>
▁굵 직</w>
▁강 동</w>
▁감 경</w>
▁가 마
▁가 락</w>
on g</w>
o w</w>
M D</w>
I B</w>
C O
C N</w>
형 제</w>
해 운</w>
하 락</w>
필 름</w>
포 털</w>
평 회</w>
평 택항</w>
판 정</w>
틀 랜드</w>
카 라</w>
출 신</w>
최 대</w>
처 리장</w>
징 물</w>
정 석</w>
장 학금</w>
작 성</w>
이 자이</w>
을 래</w>
외 국어</w>
예술 가</w>
실 내</w>
스 마
숙 박</w>
소비 세</w>
소 나</w>
소 기
서울 대</w>
빈 관</w>
벨 벳</w>
도 리</w>
느 님</w>
굴 착</w>
구 정</w>
고 장</w>
▁호 투</w>
▁해안 가</w>
▁한 라산</w>
▁필 드</w>
▁틀 리</w>
▁키 보드</w>
▁쿠 션</w>
▁충 충</w>
▁총 체</w>
▁청계 천</w>
▁찍 혀</w>
▁집 합</w>
▁진 단서</w>
▁전 원
▁전 염병</w>
▁저 탄소</w>
▁재 래</w>
▁잇 단</w>
▁입학 식</w>
▁읽 힌다</w>
▁이모 티콘</w>
▁유 격수</w>
▁원 더
▁우승 컵</w>
▁오 락</w>
▁영 결식</w>
▁염 염</w>
▁어떤 지</w>
▁압 승</w>
▁알 뜰</w>
▁승 패</w>
▁습 격</w>
▁스터 디</w>
▁성 황</w>
▁산 발</w>
▁사 활</w>
▁사 의</w>
▁브뤼 셀</w>
▁북 태평양</w>
▁부 두</w>
▁부 가</w>
▁본 능</w>
▁보험 업</w>
▁민 방위</w>
▁미 드</w>
▁물 동량</w>
▁무지 개</w>
▁모 처럼</w>
▁램 프</w>
▁두 뇌</w>
▁동반 성</w>
▁더 디</w>
▁대우 건설</w>
▁누 렸</w>
▁나 들이</w>
▁꺾 이</w>
▁김 시
▁기울 여야</w>
▁기다 려
▁기념 사업</w>
▁규 범</w>
▁광 산구</w>
▁과 외</w>
▁고 덕</w>
▁걸 까</w>
▁가 지
▁10 3</w>
igh t</w>
W S</w>
V ID</w>
S G</w>
P TV</w>
A C
히 토</w>
현 우</w>
직 장</w>
조 처</w>
전 용
요 제</w>
외 버스</w>
십 자</w>
신 료</w>
시 스트</w>
수 위</w>
서 명</w>
바이 어</w>
밀 도</w>
미 션</w>
무 청</w>
대 학생</w>
당 량</w>
담 동</w>
다 나</w>
닌 다</w>
는 다며</w>
나 쁨</w>
급 히</w>
과 일</w>
경 사</w>
갤 러리</w>
㎝ ,</w>
▁허 점</w>
▁한 가</w>
▁학 비</w>
▁피 했</w>
▁푸 르
▁팽 배</w>
▁트레이 너</w>
▁탈 루</w>
▁킥 킥</w>
▁콩 쿠르</w>
▁충 고</w>
▁출 연금</w>
▁천재 지변</w>
▁천연 가스</w>
▁지나 간</w>
▁지 치</w>
▁중심 부</w>
▁줄 인</w>
▁좌 측</w>
▁제 철</w>
▁절 묘</w>
▁장 충
▁잔 혹</w>
▁이 건
▁오 징어</w>
▁어 리
▁아울 렛</w>
▁아메 리카노</w>
▁아 우</w>
▁아 랫
▁소 수자</w>
▁선 미</w>
▁비 법</w>
▁북 극
▁뱀 뱀</w>
▁바 깥
▁미술 품</w>
▁미 쳐</w>
▁무 승부</w>
▁매 직</w>
▁만 주</w>
▁레 레</w>
▁떴 떴</w>
▁독 주</w>
▁단 체전</w>
▁노 무</w>
▁내 진</w>
▁나이 지리아</w>
▁나 열</w>
▁김해 시</w>
▁계획 서</w>
▁L TE</w>
▁I MF</w>
W HO</w>
U S
U EFA</w>
R I</w>
한 화</w>
하 수도</w>
투 자가</w>
착 지</w>
징 역</w>
제 원</w>
전 북</w>
의 도</w>
애 자</w>
실 현</w>
서 진</w>
사 망</w>
멕 시코</w>
매 립지</w>
녹 화</w>
녹 색</w>
구 글</w>
교 포</w>
교 도</w>
강 호</w>
간 부</w>
▁힘 차</w>
▁헤 어
▁하 느님</w>
▁핑 계</w>
▁터 키
▁칼 로리</w>
▁초 창기</w>
▁청 렴도</w>
▁집 결</w>
▁지나 갔</w>
▁일본 식</w>
▁일 단락</w>
▁이용 섭</w>
▁이 월</w>
▁이 륙</w>
▁의 례</w>
▁은 은</w>
▁유 령</w>
▁우 루
▁왔 으며</w>
▁오 산시</w>
▁영업 시간</w>
▁실 거</w>
▁신 성</w>
▁수하 물</w>
▁수 의</w>
▁수 변</w>
▁송 달</w>
▁센 토
▁세 일즈</w>
▁설 화</w>
▁상업 시설</w>
▁사용 법</w>
▁뺏 뺏</w>
▁브 런
▁보 스</w>
▁밥 상</w>
▁밝혀 져</w>
▁반 론</w>
▁모 아서</w>
▁모 세</w>
▁명 하</w>
▁마 구</w>
▁담 길</w>
▁달아 났</w>
▁다가 갈</w>
▁늦 춰
▁김영 록</w>
▁김 소
▁금 주</w>
▁교 무</w>
▁계 통</w>
▁계 약직</w>
▁경 성</w>
▁겨 루</w>
▁[ [</w>
▁A n
e e</w>
S t
A A</w>
합 차</w>
학 여행</w>
하 키</w>
키 아</w>
출 가</w>
체 류</w>
주택 자</w>
정 환</w>
정 민</w>
장 자리</w>
인 팅</w>
연 정</w>
양 주</w>
아 스</w>
실 과</w>
시 효</w>
스 오피스</w>
슈 퍼
성 자</w>
미 약</w>
미 스트</w>
메 모리</w>
또 는</w>
다 인</w>
깨 비</w>
기 타</w>
극 단</w>
군 민</w>
고 령
거 비</w>
▁휴게 실</w>
▁혹 시나</w>
▁핵 실험</w>
▁하 동
▁편 향</w>
▁컨 텐츠</w>
▁치 른다</w>
▁축 조</w>
▁차 차</w>
▁중 도
▁주 중</w>
▁전문 직</w>
▁임 팩트</w>
▁원 생</w>
▁외 국
▁왠 지</w>
▁온 수</w>
▁엄 선</w>
▁언 행</w>
▁약 사</w>
▁식 욕</w>
▁식 수</w>
▁수 확
▁성 산</w>
▁서 남</w>
▁비 품</w>
▁비 료</w>
▁뷰 뷰</w>
▁분 향소</w>
▁분 사</w>
▁버 거</w>
▁반 칙</w>
▁모 하
▁듬 뿍</w>
▁동 사</w>
▁도 운</w>
▁도 용</w>
▁대 치동</w>
▁대 충</w>
▁대 기
▁누군 지</w>
▁냉 면</w>
▁낙 점</w>
▁국제 선</w>
▁구자 철</w>
▁공 짜</w>
▁고 지서</w>
▁경영 학</w>
▁경 험
▁건 조기</w>
▁거 북</w>
▁F T</w>
▁A S
I F
H D</w>
G I</w>
환 승</w>
호 르몬</w>
허 용</w>
출 외</w>
축 전</w>
체 증</w>
중 근</w>
줄 래</w>
오 른
에 르</w>
싱 가포르</w>
스 프
스 페이스</w>
소 충</w>
소 인</w>
소 송
선거 관리위원회</w>
선 사</w>
사 시</w>
사 격</w>
버 른</w>
모 자</w>
명 식</w>
루 스</w>
로 시</w>
동 열</w>
도 시
네 이터</w>
남 녀</w>
기 상</w>
교 정</w>
곤 층</w>
고 등학생</w>
감 시원</w>
▁회 개</w>
▁황 하나</w>
▁홋 카이도</w>
▁하 늘
▁토 스</w>
▁테 두리</w>
▁킴 킴</w>
▁카를 로스</w>
▁출 하량</w>
▁최종 구</w>
▁채 권자</w>
▁착 공식</w>
▁집 약</w>
▁직 선</w>
▁지 정학</w>
▁제주 항공</w>
▁전 반기</w>
▁일회 성</w>
▁이동 하</w>
▁원 아</w>
▁용 의</w>
▁요 령</w>
▁오름 세</w>
▁영화 인</w>
▁역 차별</w>
▁에 러</w>
▁엄 엄</w>
▁어 김없이</w>
▁양 육
▁양 도세</w>
▁액 화
▁아 날로그</w>
▁신 형</w>
▁스펙 트럼</w>
▁스 텝</w>
▁스 킬</w>
▁수도 권</w>
▁수 성</w>
▁선 체</w>
▁선 수
▁사 도</w>
▁뿜 뿜</w>
▁브 라이
▁반 군</w>
▁박 스오피스</w>
▁박 세
▁미 쓰</w>
▁무 주택자</w>
▁무 실점</w>
▁명 상</w>
▁로 스쿨</w>
▁땅 값</w>
▁대장 암</w>
▁뉴 시스</w>
▁눈 썹</w>
▁내 시경</w>
▁내 딛</w>
▁길 러</w>
▁급 상승</w>
▁금 융
▁교 계</w>
▁과 천시</w>
▁고 압</w>
▁강 호</w>
▁가로 등</w>
▁가까 스로</w>
▁DH L</w>
▁C ES</w>
u c
t h</w>
C h
휴양 림</w>
했 어야</w>
해 줍니다</w>
할 인</w>
학 생회</w>
패 턴</w>
파 이브</w>
제 보</w>
자 형</w>
일 체</w>
웨 이트</w>
우리 나라</w>
엔지 니어링</w>
약 점</w>
약 관</w>
아 누</w>
시 판</w>
스타 트업</w>
수 자원</w>
속 기</w>
소방 대</w>
사 옥</w>
사 면</w>
별 표</w>
범 수</w>
민 법</w>
모 두</w>
로 코</w>
라이 언스</w>
뚜 기</w>
디 컬</w>
동 석</w>
도 망</w>
남 성</w>
난 화</w>
나 노</w>
관광 지</w>
공 군</w>
▁화 훼</w>
▁화 질</w>
▁핸 드</w>
▁항 체</w>
▁편 히</w>
▁패 했</w>
▁파고 들</w>
▁트레 일러</w>
▁텐 센트</w>
▁클린 턴</w>
▁쾌 거</w>
▁촉 박</w>
▁촉 매</w>
▁청 바지</w>
▁첫 발</w>
▁찾아 올</w>
▁직 선
▁좌 장</w>
▁조직 력</w>
▁적 임자</w>
▁장 교</w>
▁입 담</w>
▁이화 여대</w>
▁육 안</w>
▁유 화</w>
▁원 리금</w>
▁요구 사항</w>
▁연 료전지</w>
▁여 운</w>
▁양 반</w>
▁약 품</w>
▁약 진</w>
▁야 구
▁식 이</w>
▁시 화</w>
▁시 합</w>
▁수 학여행</w>
▁세 습</w>
▁서 정</w>
▁서 늘</w>
▁상 쇄</w>
▁비 춰
▁병 역
▁버 락</w>
▁믿 기</w>
▁민족 주의</w>
▁미 혼모</w>
▁미 스터</w>
▁무 기
▁모 국어</w>
▁막 연</w>
▁마 우스</w>
▁리 본</w>
▁두 부</w>
▁돔 돔</w>
▁단 맛</w>
▁놀 이
▁녹 록</w>
▁내 정자</w>
▁남아 프리카</w>
▁김 신
▁근 력</w>
▁공 권력</w>
▁고 갈</w>
▁경 쾌</w>
▁가 장자리</w>
▁A S</w>
▁19 65</w>
ar d</w>
M G</w>
후 화</w>
학 동</w>
플 라이</w>
파 이어</w>
토 크</w>
츠 하이
체 하</w>
정 의
인플 루엔자</w>
인공 지능</w>
워 지</w>
용 산</w>
완 료</w>
소 유주</w>
성 면</w>
분 류</w>
봉 지</w>
버 려</w>
레 븐</w>
다 페스트</w>
규 격</w>
거 렸</w>
가 짜</w>
▁흡 연자</w>
▁휴 스턴</w>
▁훗 날</w>
▁호 칭</w>
▁폴 리
▁페널티킥 을</w>
▁펀 펀</w>
▁패 치</w>
▁탄 산</w>
▁치 여</w>
▁총 출동</w>
▁총 영사관</w>
▁첫 해</w>
▁찔 러</w>
▁쯤 쯤</w>
▁쫓 겨
▁중 거리</w>
▁주 무관</w>
▁정 복</w>
▁적 당히</w>
▁재 활
▁일 러스트</w>
▁인도 주의</w>
▁음 색</w>
▁우루 과이</w>
▁애 호가</w>
▁쌓 았</w>
▁승강 기</w>
▁수 여식</w>
▁속 이</w>
▁소 년
▁서 양호</w>
▁산 은</w>
▁사고 력</w>
▁사 살</w>
▁보 탰</w>
▁박 태
▁몹 시</w>
▁리 츠</w>
▁리 스</w>
▁로 펌</w>
▁들 린다</w>
▁드라이 버</w>
▁대학 원생</w>
▁달라 진다</w>
▁다 목</w>
▁놔 두</w>
▁노 년</w>
▁꽃 다발</w>
▁꺼 냈</w>
▁기 수</w>
▁글 쓰기</w>
▁교 수진</w>
▁괴롭 히</w>
▁광 물</w>
▁고 루</w>
▁강 탈</w>
▁I B</w>
▁5 50</w>
▁19 48</w>
▁18 00</w>
▁16 00</w>
▁10 6</w>
o o</w>
ion al</w>
al l</w>
P U</w>
해 경</w>
클 러</w>
주 부</w>
제 일
전 기차</w>
재 무</w>
이 론</w>
원 비</w>
우 트</w>
오른 쪽</w>
영 수</w>
어 마</w>
애 틀</w>
수 명</w>
송 이</w>
소 니</w>
세 월</w>
생 교육</w>
베 이어</w>
목 회</w>
렐 라</w>
러 지</w>
디 자이너</w>
독 사</w>
대 중</w>
대 생</w>
대 감</w>
급 량</w>
국민 은행</w>
경 비
견 인</w>
개 동</w>
감 면</w>
㎡ ,</w>
▁흡 사</w>
▁환 한</w>
▁호 가</w>
▁혈 당</w>
▁현대 캐피탈</w>
▁판 독</w>
▁트래 픽</w>
▁쿠 르
▁카 트</w>
▁최 진
▁최 원
▁초 선</w>
▁찌 찌</w>
▁진 천군</w>
▁지 드래곤</w>
▁줘 요</w>
▁정우 영</w>
▁정동 영</w>
▁전셋 값</w>
▁일 쑤</w>
▁인천 항</w>
▁이 룩</w>
▁의 왕
▁음 란</w>
▁유 의미</w>
▁위 약금</w>
▁우크 라이나</w>
▁예 천군</w>
▁예 정일</w>
▁연 례</w>
▁어 묵</w>
▁애 리
▁아 담</w>
▁신 사</w>
▁수석 대표</w>
▁수 임</w>
▁설 명서</w>
▁빼돌 린</w>
▁벼 랑</w>
▁벗 어났</w>
▁박영 선</w>
▁박 병대</w>
▁바 레인</w>
▁미 사</w>
▁물러 났</w>
▁매 해</w>
▁맞 선</w>
▁망 고</w>
▁마 을버스</w>
▁두터 운</w>
▁도 예</w>
▁대 동
▁넘어 갔</w>
▁나선 다고</w>
▁김종 민</w>
▁김 우
▁기차 역</w>
▁기 압
▁그리스 도인</w>
▁귀 걸이</w>
▁국 경
▁구 애</w>
▁광 덕
▁공정 성</w>
▁건 가</w>
▁거듭 날</w>
▁강 화도</w>
▁1 28</w>
r an
P T</w>
N E
1 19</w>
행 량</w>
통 지</w>
킴 이</w>
치 스코</w>
측 근</w>
취 급</w>
집 중</w>
지 분</w>
졌 으면</w>
접 촉</w>
적 십자사</w>
위 급</w>
용 인</w>
연 출</w>
연 극</w>
여 정</w>
아 름
슬 링</w>
수 목원</w>
서 버</w>
상 우</w>
모 빌리티</w>
리 자
료 일</w>
러 시</w>
더 드</w>
다이 오드</w>
노 원구</w>
그 런</w>
구 직</w>
계 망</w>
▁훈 장</w>
▁화 주</w>
▁합 하</w>
▁하 자</w>
▁프리 킥</w>
▁프로 토
▁프랑스 어</w>
▁풍 습</w>
▁표 준
▁코 칭</w>
▁컨 베이어</w>
▁침 범</w>
▁친 족</w>
▁친 목</w>
▁추 워</w>
▁초 유</w>
▁참 치</w>
▁째 째</w>
▁진 통제</w>
▁진 위</w>
▁진 솔</w>
▁존 치</w>
▁제 대</w>
▁제 각각</w>
▁정 형</w>
▁잭 슨</w>
▁재판 장</w>
▁임진 강</w>
▁일 식</w>
▁이 름
▁이 단</w>
▁의 기
▁웨이 보</w>
▁왕 조</w>
▁와 일
▁와 도</w>
▁오르 내리</w>
▁영 국인</w>
▁양 식장</w>
▁안 성
▁시 안</w>
▁수 성구</w>
▁수 선</w>
▁쇠 고기</w>
▁송 출</w>
▁소송 비용</w>
▁생겨 났</w>
▁생 사</w>
▁사 제</w>
▁부 끄럽</w>
▁봉 안</w>
▁범 람</w>
▁박 기
▁묘 한</w>
▁멜 버른</w>
▁리 용</w>
▁를 를</w>
▁레 이</w>
▁뜻 밖</w>
▁들 으면</w>
▁도요 타</w>
▁대 권</w>
▁누 진제</w>
▁넘나 들</w>
▁내 뿜</w>
▁난 감</w>
▁끌어올 렸</w>
▁깜 빡
▁기성 용</w>
▁권 순
▁고 분</w>
▁고 국</w>
▁계 세요</w>
▁결 별</w>
▁NH K</w>
▁197 5</w>
▁1 11</w>
l y</w>
e y</w>
T P</w>
B TS</w>
호 흡</w>
프 팅</w>
탑 방</w>
체 조</w>
창 원</w>
주 최</w>
알 코올</w>
알 라
스 처</w>
소 수</w>
서 준</w>
산 제</w>
복 원</w>
보험 금</w>
버 리지</w>
당 원</w>
다 지만</w>
노동 청</w>
기 자단</w>
기 대</w>
구 치소</w>
구 립</w>
경 환</w>
▁휘 두르</w>
▁해 저</w>
▁피 켓</w>
▁풀어 내</w>
▁토 익</w>
▁취 해야</w>
▁출 판
▁축구 팀</w>
▁초 밥</w>
▁청 하</w>
▁징 벌</w>
▁직업 훈련</w>
▁지 중
▁증 감</w>
▁줄 거리</w>
▁정상 회의</w>
▁재 기</w>
▁잠 적</w>
▁잠 자</w>
▁잠 금</w>
▁일 생</w>
▁인 상
▁응 원단</w>
▁요 르
▁예 뻐
▁역 력</w>
▁여 겨졌</w>
▁애널 리스트</w>
▁알려 준다</w>
▁안 목</w>
▁아우 디</w>
▁스파 게티</w>
▁수 컷</w>
▁세 인트</w>
▁세 이
▁생 가</w>
▁상 소</w>
▁사회 단체</w>
▁뺨 뺨</w>
▁불 식</w>
▁벌 여
▁밴 쿠버</w>
▁방 미</w>
▁밑 돌</w>
▁밀어붙 이</w>
▁문 성
▁모 녀</w>
▁메르 세데스</w>
▁맡 겼</w>
▁마 틴</w>
▁리 처
▁동 승자</w>
▁동 북</w>
▁동 독</w>
▁대 마
▁다 자</w>
▁다 뤄</w>
▁눈여 겨
▁누 비</w>
▁노 후화</w>
▁낸 드</w>
▁남 길</w>
▁끼 워</w>
▁끓 여</w>
▁끌어 들이</w>
▁기관 지</w>
▁기 독
▁국제 공항</w>
▁구 르</w>
▁곰 팡이</w>
▁경 정</w>
▁견 주</w>
▁강 단</w>
▁가창 력</w>
▁가산 점</w>
O D</w>
휴 업</w>
행 착오</w>
해 피</w>
풍 경</w>
치 민</w>
즈 키</w>
중 천</w>
줄 래요</w>
원 리</w>
오 디션</w>
시 정</w>
시 인</w>
수 면</w>
사 이즈</w>
사 부</w>
법 조</w>
뱅 킹</w>
박 감</w>
목 상</w>
매니 저</w>
마 어마</w>
라 노</w>
도 액</w>
다 스</w>
논 문</w>
노 미</w>
구 도</w>
경 영
갤 럭시</w>
강 변</w>
감 각</w>
▁흑 흑</w>
▁환 호성</w>
▁환 원</w>
▁화 단</w>
▁현 존</w>
▁항 아리</w>
▁합 참</w>
▁퍼 즐</w>
▁파 편</w>
▁파 이프</w>
▁탭 탭</w>
▁친 하</w>
▁충청 도</w>
▁충 만</w>
▁출 소</w>
▁춘 천시</w>
▁추 가
▁차 갑</w>
▁차 감</w>
▁중 론</w>
▁좌 좌</w>
▁제 보자</w>
▁정 해
▁정 몽
▁저 수지</w>
▁저 널
▁자 락</w>
▁이 한
▁이 학
▁이 유로</w>
▁이 베이</w>
▁이 긴</w>
▁유 시민</w>
▁원 자</w>
▁우 파</w>
▁요 양원</w>
▁오 승환</w>
▁영암 군</w>
▁연 필</w>
▁언 언</w>
▁알 츠하이
▁아메 리칸</w>
▁싱 싱</w>
▁신 세</w>
▁시 행착오</w>
▁스 노
▁숱 한</w>
▁수 놓</w>
▁색 소</w>
▁사 회관</w>
▁사 뭇</w>
▁비 문</w>
▁부 연</w>
▁부 실
▁부 른다</w>
▁부 다페스트</w>
▁별 관</w>
▁묘 지</w>
▁모 른</w>
▁맞 닥
▁마 린</w>
▁뜬 뜬</w>
▁따 랐</w>
▁돌아 다
▁도 리</w>
▁달아 나</w>
▁달 인</w>
▁녹 차</w>
▁기울 일</w>
▁기뻐 요</w>
▁기 장군</w>
▁급 성</w>
▁그림 책</w>
▁군 함</w>
▁공 실</w>
▁고발 장</w>
▁겸 비</w>
▁L PGA</w>
▁D VD</w>
▁A FP</w>
▁198 3</w>
o t</w>
e g
d er</w>
ST R</w>
테 르</w>
클 리닉</w>
커뮤니 티</w>
중앙 지</w>
제 어</w>
전 시장</w>
저 귀</w>
자 영업</w>
임대 차</w>
연 희</w>
언 트</w>
양 심</w>
수 습</w>
산 소</w>
메 가</w>
머 신</w>
머 님</w>
링 클러</w>
두 보</w>
내 일</w>
나 이트</w>
꽃 놀이</w>
군 청</w>
군 다나</w>
개 특위</w>
▁혹 독</w>
▁호 치민</w>
▁헤 헤</w>
▁헤 이
▁플래 그</w>
▁프레 스센터</w>
▁프란 치스코</w>
▁폼 폼</w>
▁판 명</w>
▁통 근</w>
▁킬 러</w>
▁카탈 로그</w>
▁추 리</w>
▁총 영사</w>
▁창 안</w>
▁직 인</w>
▁지 름</w>
▁주 거비</w>
▁제 프</w>
▁정 쟁</w>
▁전 사자</w>
▁저 스틴</w>
▁재 수</w>
▁잔 금</w>
▁자 기
▁인 화</w>
▁인 대</w>
▁우 발</w>
▁요 시
▁왼 손</w>
▁영 빈관</w>
▁억 지로</w>
▁앙 상블</w>
▁악 의</w>
▁신 진</w>
▁식 자재</w>
▁식 견</w>
▁시 켜
▁시 집</w>
▁숟 가락</w>
▁서 핑</w>
▁서 둘
▁블루 투스</w>
▁불러일으 켰</w>
▁분 화</w>
▁보 령</w>
▁보 드</w>
▁베 란다</w>
▁박 지수</w>
▁바 구니</w>
▁뛰어 든</w>
▁따라 잡</w>
▁드 려요</w>
▁돌아 간</w>
▁대 부
▁다 녀</w>
▁닐 슨</w>
▁놓 친</w>
▁넘어 졌</w>
▁난 제</w>
▁난 임</w>
▁끝 낼</w>
▁긁 긁</w>
▁권 위
▁고 노</w>
▁고 금리</w>
▁갑작 스런</w>
▁갑 작</w>
▁감 산</w>
▁P l
▁3 20</w>
▁2 3
▁1 14</w>
L H</w>
K BO</w>
협 조</w>
했 으면</w>
하 금</w>
특별 자치
크 래프트</w>
출 판</w>
춘 기</w>
천 연
천 면</w>
직 접</w>
지 훈련</w>
장 인물</w>
자 활</w>
일 장</w>
연 소</w>
역 세</w>
시 범</w>
슬 리</w>
부 전</w>
민 속</w>
리 츠</w>
례 금</w>
락 할</w>
라 든지</w>
떨 어진</w>
디 네이터</w>
도 우</w>
더 군요</w>
다 큐</w>
는 커녕</w>
냉 면</w>
내 려</w>
극 히</w>
구 급
곱 미터</w>
계 동</w>
거 름</w>
가 치
가 짐</w>
㎞ )</w>
▁흐 뭇</w>
▁황 해</w>
▁프 레스</w>
▁폐 해</w>
▁크 라
▁취 항</w>
▁출 격</w>
▁추 천
▁지 쳐</w>
▁젓 가락</w>
▁전자 레인지</w>
▁재 촉</w>
▁재 조사</w>
▁자가 용</w>
▁이 온</w>
▁이 만
▁은 밀</w>
▁윌리 엄
▁원자 로</w>
▁원더 걸스</w>
▁왕 국</w>
▁완 치</w>
▁올라 섰</w>
▁오 지환</w>
▁연 행</w>
▁엘리 엇</w>
▁안전 교육</w>
▁안 장</w>
▁승 합차</w>
▁스트 라
▁스탠 더드</w>
▁쉬 워</w>
▁손 익</w>
▁상 이</w>
▁빅 딜</w>
▁브 이</w>
▁부 원장</w>
▁번 졌</w>
▁미 칠지</w>
▁메 세지</w>
▁막 론</w>
▁마 그
▁리 빙</w>
▁리 라</w>
▁리 딩</w>
▁로 스</w>
▁등 장인물</w>
▁들썩 이</w>
▁동 해
▁도로 공사</w>
▁달 구</w>
▁놓 이</w>
▁노 량
▁넘나 드</w>
▁납 납</w>
▁기억 나</w>
▁그리 핀</w>
▁구 토</w>
▁공개 경쟁</w>
▁고 착</w>
▁경제 학자</w>
▁결 핍</w>
▁갈 리</w>
▁간 다면</w>
▁가 드</w>
▁A D
u b
es s</w>
R E
해 서
통 운</w>
타 이
증 거</w>
적 도</w>
장 식</w>
임 장</w>
이 웃</w>
의 대</w>
요 금제</w>
예 측</w>
여 러</w>
업 료</w>
아 르</w>
실 사</w>
승 계</w>
수 행자</w>
수 로</w>
산 화</w>
부 리</w>
미 드</w>
매 각</w>
마 진</w>
려 는데</w>
내 부</w>
나 스</w>
급 제</w>
관 악구</w>
곡 군</w>
▁활 로</w>
▁헤 매</w>
▁하 남시</w>
▁편 파</w>
▁트 램</w>
▁토 마스</w>
▁컴 퓨팅</w>
▁추 계</w>
▁총 동원</w>
▁초 중</w>
▁천 만</w>
▁찾아 갔</w>
▁찌 르</w>
▁짝 퉁</w>
▁직 제</w>
▁지 워</w>
▁준 결승</w>
▁조 폭</w>
▁조 영
▁젠 더</w>
▁정 가</w>
▁일 찍이</w>
▁인터 내셔널</w>
▁의왕 시</w>
▁연 출가</w>
▁엑 셀</w>
▁어려 워질</w>
▁어 마어마</w>
▁양 진호</w>
▁아이 즈</w>
▁씁 쓸</w>
▁씁 니다</w>
▁쌍 방</w>
▁수 정안</w>
▁수 없이</w>
▁수 목원</w>
▁소비 량</w>
▁소 양</w>
▁상 징물</w>
▁뽀 로로</w>
▁볶 음밥</w>
▁버 블</w>
▁바란 다고</w>
▁물러 서</w>
▁명 기</w>
▁메 트로</w>
▁맞 잡</w>
▁만 져</w>
▁리얼 리티</w>
▁뗐 뗐</w>
▁동 거</w>
▁더 군다나</w>
▁댁 댁</w>
▁담 그</w>
▁나이 키</w>
▁까 먹</w>
▁권 혁
▁구심 점</w>
▁경제 력</w>
▁강 정</w>
▁각 질</w>
▁가 업</w>
▁14 4</w>
V C</w>
S UV</w>
S M</w>
I T
회 피</w>
포 로</w>
파 괴</w>
트 너</w>
치료 제</w>
충 원</w>
최 초</w>
체 기</w>
지 붕</w>
입 비</w>
인 민</w>
월 세</w>
여 권</w>
어 린</w>
약 국</w>
아 마
시 타</w>
소 집</w>
성 이</w>
상 담
분 위기</w>
문 건</w>
러 니</w>
라 이터</w>
다 드</w>
뉴 욕</w>
농 사</w>
교 역</w>
관 객</w>
공 학부</w>
고 위급</w>
감 히</w>
가 칭</w>
▁힘 드</w>
▁희 미</w>
▁풍 광</w>
▁펫 펫</w>
▁판매 대</w>
▁퇴 직자</w>
▁크리스티 아누</w>
▁칼 슘</w>
▁칠 곡군</w>
▁체 험학습</w>
▁챗 챗</w>
▁차 근
▁지 질</w>
▁중 소기
▁조 병
▁저 성장</w>
▁재 화</w>
▁입 힌</w>
▁어려 서</w>
▁양현 종</w>
▁아웃 도어</w>
▁아 홉</w>
▁싫어 하</w>
▁스 파이</w>
▁스 팀</w>
▁소 모
▁성 행</w>
▁서 거</w>
▁사 육
▁분 출</w>
▁분 자</w>
▁병 합</w>
▁받아들 인</w>
▁바뀐 다</w>
▁민 요</w>
▁맡 긴</w>
▁마 마</w>
▁레드 카</w>
▁레 인
▁뗄 뗄</w>
▁땅 볼</w>
▁듀 얼</w>
▁동 월</w>
▁동 산</w>
▁도 시민</w>
▁더 더욱</w>
▁대 출금</w>
▁대 전
▁늘 린</w>
▁냉 정</w>
▁나 올지</w>
▁기 저귀</w>
▁기 울</w>
▁교 두보</w>
▁관리 인</w>
▁과 오</w>
▁고 요</w>
▁거 미</w>
▁감 점</w>
▁T OP</w>
▁M ar
u m</w>
T N</w>
R P</w>
A D
화 질</w>
혜 교</w>
향 교</w>
품 위생</w>
표 지판</w>
패 키지</w>
충 분</w>
지 배
절 벽</w>
전 입</w>
전 력
장 판</w>
장 대</w>
입 로</w>
입 구</w>
인 점</w>
인 선</w>
의 혹</w>
유 니
외 주차장</w>
완 저우</w>
예 프</w>
였음 을</w>
압 박</w>
악 대</w>
식 기</w>
수 강</w>
소송 법</w>
소방 본부</w>
세 습</w>
분 계선</w>
복 귀</w>
발 견</w>
밀 러</w>
만 두</w>
드 려도</w>
동 작구</w>
니 오</w>
노 스
기 강</w>
공 해</w>
▁흘 린</w>
▁활 기찬</w>
▁해 물</w>
▁합 친</w>
▁하 태경</w>
▁품 평회</w>
▁평 안</w>
▁편 곡</w>
▁토 의</w>
▁클 리
▁취 약점</w>
▁증 강현실</w>
▁중개 업</w>
▁주 저
▁주 미</w>
▁정 해졌</w>
▁전자 파</w>
▁장단 점</w>
▁잠 식</w>
▁은행 나무</w>
▁울 음</w>
▁연 명</w>
▁에 이즈</w>
▁어 미</w>
▁양 양</w>
▁신 일</w>
▁시 애틀</w>
▁시 시
▁스테 이</w>
▁스코 어</w>
▁세 라</w>
▁삼성 생명</w>
▁살 포</w>
▁산 적</w>
▁사업 소</w>
▁빨 라질</w>
▁비 비</w>
▁불 꽃놀이</w>
▁분 분</w>
▁부여 받</w>
▁부 에
▁부 르
▁벡 스코</w>
▁박 해</w>
▁바라 볼</w>
▁밑 거름</w>
▁미 약</w>
▁문 전</w>
▁무 한
▁무 술</w>
▁모 공</w>
▁면 치</w>
▁매 표소</w>
▁등 등</w>
▁댄 서</w>
▁대 작</w>
▁대 열</w>
▁당 근</w>
▁니 트</w>
▁늪 늪</w>
▁눌 렀</w>
▁남 성
▁근 무지</w>
▁극 장가</w>
▁극 단주의</w>
▁그 린다</w>
▁교통 망</w>
▁관리 법</w>
▁관 절염</w>
▁과 하</w>
▁고 졸</w>
▁견 본</w>
▁객관 적으로</w>
▁개그 우먼</w>
▁감 형</w>
▁간 첩</w>
▁간 다는</w>
▁I C</w>
▁E TF</w>
▁A s
▁196 3</w>
▁13 00</w>
t h
t er</w>
f f
er s
c h</w>
호 영</w>
행 선</w>
해 주</w>
합 치</w>
플레이 어</w>
프 닝</w>
펌 프</w>
파 라
탐 구</w>
친 절</w>
체 티노</w>
체 가</w>
지 만
정 성</w>
재 현</w>
일 레븐</w>
을 거리</w>
신 임</w>
승 현</w>
승 점</w>
스트 리</w>
소 유</w>
선 책</w>
상 스</w>
사 령</w>
비 정규직</w>
분 담</w>
명 감</w>
마 을
리 비아</w>
루 기</w>
력 파</w>
딤 돌</w>
도 면</w>
대 여</w>
넥 스</w>
기 인</w>
기 야</w>
궤 도</w>
고 기압</w>
격 전</w>
객 사</w>
간 대</w>
▁흘 려</w>
▁헤 지</w>
▁해 발</w>
▁폭 파</w>
▁포 옹</w>
▁평 론가</w>
▁팽 창</w>
▁툴 툴</w>
▁축 구장</w>
▁청 량</w>
▁책임 질</w>
▁지 은이</w>
▁지 식인</w>
▁주 선</w>
▁좌 초</w>
▁조 지
▁전 과</w>
▁입 영</w>
▁이 덕
▁은 행장</w>
▁육 류</w>
▁유흥 업소</w>
▁유 대인</w>
▁윈 윈</w>
▁웃 음
▁우편 물</w>
▁용 납</w>
▁온 다면</w>
▁예 기</w>
▁영 접</w>
▁연구 실</w>
▁연 산</w>
▁연 기금</w>
▁업 자</w>
▁엄 벌</w>
▁어려 우</w>
▁악 마</w>
▁아니 야</w>
▁아 라
▁신호 탄</w>
▁신세계 백화점</w>
▁신 랑</w>
▁신 당동</w>
▁스 모
▁순 종</w>
▁숙 의</w>
▁수영 복</w>
▁수 화물</w>
▁수 의사</w>
▁소 프라노</w>
▁설 계
▁생 수</w>
▁사우 나</w>
▁보 수당</w>
▁보 낸다</w>
▁범 주</w>
▁발 자국</w>
▁뭉 쳐</w>
▁몸 담</w>
▁명실 상부</w>
▁명 장</w>
▁멤 버십</w>
▁머 금</w>
▁매니 지먼트</w>
▁마 카
▁뜯 어
▁두 렵</w>
▁되돌 려</w>
▁동 창</w>
▁대 수</w>
▁대 등</w>
▁냉 냉</w>
▁끝 낸</w>
▁길 목</w>
▁기 틀</w>
▁금 일</w>
▁궐 련</w>
▁국 교</w>
▁구 치소</w>
▁교 포</w>
▁교 란</w>
▁과 이</w>
▁골 망</w>
▁고 를</w>
▁거 스
▁갖 출</w>
▁가로 챈</w>
▁가 족
▁a nd</w>
▁I BK</w>
on e</w>
i s</w>
K Y</w>
훈 련
항 공기</w>
한 테
한테 서</w>
투 자
토 트넘</w>
탐 방</w>
카 카오</w>
천 수</w>
주 류</w>
정보 국</w>
자치 부</w>
인권 위원회</w>
인 생</w>
웃 음</w>
오 일</w>
알라 룸
알라룸 푸르</w>
시 물</w>
소 외</w>
셀 프</w>
생 충</w>
산 강</w>
브 라</w>
바이 벌</w>
등 세</w>
대표 단</w>
낸 다는</w>
나 리</w>
구 입</w>
경 화</w>
감독 관</w>
▁훔 치</w>
▁효 효</w>
▁허 물</w>
▁해 냈</w>
▁항 암제</w>
▁폭스 바겐</w>
▁포 체티노</w>
▁폈 폈</w>
▁태 조</w>
▁카 이
▁친 정</w>
▁출 고가</w>
▁추 출물</w>
▁추 월</w>
▁직 책</w>
▁정 선</w>
▁저 금리</w>
▁재 조명</w>
▁작 별</w>
▁잇 몸</w>
▁인 피니
▁웨 어</w>
▁예 배당</w>
▁역 주행</w>
▁아 카
▁쏟아 진</w>
▁썰 썰</w>
▁승강 장</w>
▁수 용자</w>
▁수 업료</w>
▁세 례</w>
▁삽 삽</w>
▁비닐 하우스</w>
▁부 치</w>
▁부 주의</w>
▁발 레
▁발 단</w>
▁바 늘</w>
▁뭉 클</w>
▁물 자</w>
▁문 득</w>
▁무 르
▁무 드</w>
▁멈 출</w>
▁머무 를</w>
▁로 열
▁로 또</w>
▁떨어 져서</w>
▁덩 치</w>
▁덧붙 여</w>
▁다 큐</w>
▁다 니엘</w>
▁노 린</w>
▁너 비</w>
▁남 매</w>
▁낙 마</w>
▁나아 질</w>
▁나 을</w>
▁고위 직</w>
▁고마 운</w>
▁고 점</w>
▁결 장</w>
▁검 단</w>
▁걸 러</w>
▁개 미</w>
▁강 압</w>
▁간 략</w>
▁K AIST</w>
▁1 22</w>
W h</w>
K B</w>
I O</w>
호 주</w>
한 강</w>
픽 스</w>
편 지</w>
티 슈</w>
태 양</w>
쿠 폰</w>
치 사</w>
추 세</w>
촉 식</w>
질 까</w>
지 도
중 도</w>
정의 당</w>
전 망대</w>
인 회계사</w>
이 재
으 셔도</w>
외 곽</w>
승 호</w>
솔 린</w>
성 산</w>
불 이</w>
바 토르</w>
미 경</w>
만 화</w>
립 대</w>
리 텔링</w>
리 코</w>
리 서</w>
룩 스</w>
록 버스터</w>
로 그램</w>
독 서</w>
도 식</w>
데 이션</w>
냐 며</w>
납 세자</w>
나 주</w>
나 비</w>
과 자</w>
과 수</w>
공 감</w>
계 탕</w>
갑 사</w>
간 탄</w>
가 제</w>
▁효 자</w>
▁회 사원</w>
▁황 인범</w>
▁하 순</w>
▁풍 등</w>
▁평 판</w>
▁틈 새</w>
▁텔 레</w>
▁쿠 웨이트</w>
▁코미 디언</w>
▁코 앞</w>
▁충 동</w>
▁천 문학</w>
▁천 명</w>
▁채 점</w>
▁착 취</w>
▁쥔 쥔</w>
▁조재 현</w>
▁조 직원</w>
▁젤 리</w>
▁정 박</w>
▁임 원
▁임 신부</w>
▁이종 석</w>
▁이동 식</w>
▁이 춘
▁이 장
▁이 세
▁유 병
▁유 닛</w>
▁윌리엄 스</w>
▁우 스
▁외 우</w>
▁연합 뉴스</w>
▁여 실히</w>
▁에 센스</w>
▁안전 장치</w>
▁스킨 케어</w>
▁스케 일</w>
▁쇼 핑
▁손 발</w>
▁선 회</w>
▁서 양
▁샤 워
▁삼 가</w>
▁산 업체</w>
▁뾰 족</w>
▁비 우</w>
▁부 식</w>
▁보 통
▁변 할</w>
▁박남 춘</w>
▁묻 어나</w>
▁몸 집</w>
▁목 욕탕</w>
▁모 을</w>
▁모 란</w>
▁리처 드</w>
▁리 베
▁따라 오</w>
▁대구 경북</w>
▁달려 들</w>
▁단 종</w>
▁단 단히</w>
▁니콜 라스</w>
▁늘어 남</w>
▁노 령</w>
▁넘쳐 나</w>
▁내려 온</w>
▁남 동구</w>
▁나 이트</w>
▁기 초
▁그 물</w>
▁궁 전</w>
▁공 자</w>
▁공 구</w>
▁경 호원</w>
▁결 산서</w>
▁게이 밍</w>
▁거 룩</w>
▁개 점</w>
▁각 막</w>
▁M VP</w>
ur e</w>
a t</w>
W C</w>
G S</w>
F O</w>
함 식</w>
평 소</w>
투 비</w>
테 마</w>
차 도</w>
조 끼</w>
정 심</w>
정 대</w>
전 문점</w>
전 도</w>
자산 운용</w>
이 유</w>
연 지</w>
연 시</w>
아이 레스</w>
실 력</w>
신 히</w>
스 메</w>
소매 업</w>
살 렘</w>
북 면</w>
부 르</w>
반 영</w>
리 자</w>
들 일</w>
듀 스</w>
도 비</w>
델 링</w>
데 시</w>
논 의</w>
내 려
까 봐</w>
국 관</w>
갱 이</w>
▁휴 지</w>
▁회 자</w>
▁회 고</w>
▁홀 몸</w>
▁현대 제철</w>
▁해 프닝</w>
▁해 줍니다</w>
▁하 소연</w>
▁피서 객</w>
▁플 랜트</w>
▁포 근</w>
▁평 했</w>
▁평 온</w>
▁페 루</w>
▁파이 널</w>
▁틀 렸</w>
▁탈 북자</w>
▁쿠 알라룸푸르</w>
▁코 멘트</w>
▁천 지</w>
▁질 렀</w>
▁정 론</w>
▁적 격</w>
▁재활 용품</w>
▁장 려금</w>
▁잠 든</w>
▁입 각</w>
▁인 양</w>
▁이청 용</w>
▁이뤄 낸</w>
▁윤 지오</w>
▁유 방</w>
▁우 표</w>
▁요르 단</w>
▁왕 비</w>
▁완 수</w>
▁엉 망</w>
▁안 마</w>
▁쓸 쓸</w>
▁심 할</w>
▁실 은</w>
▁신 천지</w>
▁신 일
▁살펴 본</w>
▁산 물</w>
▁사 단법인</w>
▁비 틀
▁보 정</w>
▁베이 비
▁무 안</w>
▁멧 돼지</w>
▁멕시 코
▁말 일</w>
▁떠 돌</w>
▁때 론</w>
▁드 실</w>
▁드 려</w>
▁드 럼</w>
▁뒷 뒷</w>
▁뒤따 르</w>
▁도 맡</w>
▁달 성군</w>
▁다 크</w>
▁녀 석</w>
▁넘 버</w>
▁나 트륨</w>
▁급 급</w>
▁금 세</w>
▁그래 프</w>
▁굶 굶</w>
▁교 습</w>
▁공 매</w>
▁고 혈압</w>
▁고 난도</w>
▁걸 려서</w>
▁갈 증</w>
▁간 암</w>
▁간 신히</w>
▁간 사인</w>
▁① ①</w>
▁5 20</w>
k r</w>
is t
e b
N M</w>
확 충</w>
해 소</w>
항 쟁</w>
하 원</w>
파 이
코 노미</w>
치 매</w>
제 일</w>
으 십니까</w>
오 카</w>
오 른</w>
여 행
야 마</w>
압 류</w>
아이 돌</w>
신 지</w>
수 미</w>
수 능</w>
사 용량</w>
븐 일레븐</w>
민 생</w>
르 부르크</w>
령 층</w>
돼 온</w>
동 장</w>
동 일</w>
동 감</w>
농 어촌</w>
노스 아이레스</w>
기 피</w>
급 체포</w>
그 렇</w>
갈 이</w>
간 판</w>
▁횡 단
▁활동 비</w>
▁행정 자치부</w>
▁해 준다</w>
▁합 숙</w>
▁할 로
▁학 내</w>
▁피 살</w>
▁평 안
▁펠 로시</w>
▁퍼 스트</w>
▁터 질</w>
▁캐 나
▁친 형</w>
▁청 송</w>
▁청 소기</w>
▁찾아 냈</w>
▁줄 여야</w>
▁제품 군</w>
▁장 단</w>
▁인 내</w>
▁이 하
▁이 분</w>
▁이 국</w>
▁유 신</w>
▁원 망</w>
▁와이 번스</w>
▁오 븐</w>
▁어울 림</w>
▁암 컷</w>
▁아이 러니</w>
▁시 사
▁스 즈키</w>
▁순 항</w>
▁수리 비</w>
▁수 현</w>
▁수 원역</w>
▁소 름</w>
▁소 득세</w>
▁섭 씨</w>
▁서 북</w>
▁상 점가</w>
▁비 명</w>
▁붙 여진</w>
▁보 리</w>
▁보 관
▁밸 브</w>
▁밝혀 내</w>
▁반짝 이</w>
▁박 명
▁무 주택</w>
▁매운 맛</w>
▁로 이
▁때 린</w>
▁둘 레</w>
▁도 전장</w>
▁덩 어리</w>
▁달 빛</w>
▁냉 장</w>
▁내려 갈</w>
▁남 다르</w>
▁끈 질
▁그리 움</w>
▁귀 띔</w>
▁권 영진</w>
▁구 리시</w>
▁구 급</w>
▁과 감히</w>
▁공 예품</w>
▁갖 가지</w>
▁강 습</w>
▁강 기
▁간 행</w>
▁가져 와</w>
▁16 5</w>
u d
oo d</w>
l i
함 마드</w>
학 급</w>
피 트</w>
폴 리스</w>
페테 르부르크</w>
트 페테르부르크</w>
투 합</w>
텃 밭</w>
태 리</w>
케 이
축구 협회</w>
책 감</w>
진 실</w>
중 심지</w>
이 득</w>
운 반
예 진</w>
시 행령</w>
수 궁</w>
석 유
서 동</w>
사 운드</w>
사 와</w>
불 가</w>
별 로</w>
법 원장</w>
배 추</w>
바 오</w>
명 절</w>
마 스터</w>
루 살렘</w>
로 맨
란 바토르</w>
드 게임</w>
도 움</w>
대 성</w>
대 북</w>
네 상스</w>
구 대</w>
관 문</w>
공 판</w>
걸 요</w>
각 색</w>
▁힘 찬</w>
▁힘 내</w>
▁흐 트
▁효 행</w>
▁혈 세</w>
▁행정 력</w>
▁해운 대구</w>
▁해 서요</w>
▁피 고</w>
▁프 프</w>
▁투 숙</w>
▁토론 자</w>
▁토 니</w>
▁텀 블러</w>
▁클 레
▁캐나 다인</w>
▁출 발
▁최고 점</w>
▁체 리</w>
▁책임 져야</w>
▁중 재자</w>
▁중 장</w>
▁줄 기세포</w>
▁정부 안</w>
▁정 량</w>
▁전 곡
▁장 세</w>
▁입 김</w>
▁이어 질지</w>
▁의 총</w>
▁완 제품</w>
▁온 통</w>
▁예 찰</w>
▁열 립니다</w>
▁여름 휴가</w>
▁엑 스</w>
▁어 민</w>
▁앤 디</w>
▁앞 면</w>
▁앞 날</w>
▁알파 벳</w>
▁아 찔</w>
▁쓴 다</w>
▁식 기</w>
▁시 발점</w>
▁스프 링클러</w>
▁스키 장</w>
▁스 텔
▁순 대</w>
▁셀 카</w>
▁상 주시</w>
▁삽 니다</w>
▁산업 재</w>
▁사 명감</w>
▁사 망
▁볼 펜</w>
▁백 범</w>
▁바깥 쪽</w>
▁묘 소</w>
▁모 유</w>
▁모 로코</w>
▁면 허증</w>
▁막 막</w>
▁마음 가짐</w>
▁따 스</w>
▁들 렀</w>
▁데 스크</w>
▁대 웅
▁다 닌</w>
▁눈부 신</w>
▁농 기계</w>
▁낮 춘</w>
▁김 무성</w>
▁기 약</w>
▁굴 복</w>
▁경제 자유구역</w>
▁걔 걔</w>
▁T h
▁N BA</w>
▁I I</w>
▁10 7</w>
▁1 100</w>
o b
n e</w>
M BC</w>
L O
하 산</w>
프 레</w>
편 안</w>
패 스트</w>
틀 랜
특 사</w>
특 강</w>
캠 페인</w>
충 격</w>
종 양</w>
정 예산</w>
정 구</w>
작 사</w>
자 비</w>
일 로</w>
인 계</w>
으 셔야</w>
오 후</w>
여 기</w>
식 어</w>
식 소</w>
부 두</w>
보험 공단</w>
바 니</w>
리 온</w>
렌 식</w>
동 주</w>
동 대</w>
다 던</w>
누 구</w>
곡 히</w>
경 정예산</w>
거래 세</w>
가 로</w>
▁희 박</w>
▁흑 백</w>
▁회 로</w>
▁핸 들</w>
▁해 답</w>
▁한 한다</w>
▁포 스팅</w>
▁퍼 부</w>
▁트 윈</w>
▁테 크</w>
▁태 세</w>
▁타 임스</w>
▁쿼 터</w>
▁추 진
▁초 당</w>
▁체 조</w>
▁창 간</w>
▁착 하</w>
▁직 간접</w>
▁증 오</w>
▁제일 모직</w>
▁제 왕</w>
▁전 언</w>
▁잣 대</w>
▁자 해</w>
▁의기 투합</w>
▁의 중</w>
▁유지 관리</w>
▁윗 부분</w>
▁원 점</w>
▁우 진</w>
▁오 락
▁예 뻐</w>
▁영 덕</w>
▁앞당 기</w>
▁아 꼈</w>
▁싸 웠</w>
▁시 베리아</w>
▁스 가</w>
▁수 조</w>
▁생명 력</w>
▁빠져 들</w>
▁붐 비</w>
▁부에 노스아이레스</w>
▁변 기</w>
▁번역 가</w>
▁백 서</w>
▁미래 형</w>
▁묵 인</w>
▁모 친</w>
▁마 스터
▁리 프트</w>
▁롯데 호텔</w>
▁떠 넘기</w>
▁디 딤돌</w>
▁드리 블</w>
▁돋 돋</w>
▁더욱 이</w>
▁대 국</w>
▁단 국</w>
▁다 자녀</w>
▁능 선</w>
▁농 심</w>
▁꼭 대기</w>
▁깔 린</w>
▁김지 은</w>
▁급 기야</w>
▁금 형</w>
▁공 습</w>
▁걸 까요</w>
▁갈 지</w>
▁갈 망</w>
▁간 극</w>
▁가 할</w>
▁2 10</w>
▁19 53</w>
▁19 10</w>
▁1 18</w>
l d</w>
ac k
I M</w>
한 선</w>
하 반기</w>
통 보</w>
코 르</w>
케 이블</w>
컬 레이터</w>
자 위대</w>
인 해</w>
은 정</w>
워 할</w>
오 버</w>
연 한</w>
어 느</w>
액 션</w>
쓴 이</w>
신 교</w>
시 험장</w>
시 군</w>
습 장</w>
소 수자</w>
사이 클</w>
사 과</w>
법 성</w>
바 운드</w>
바 리</w>
무 시</w>
리 데이</w>
렬 히</w>
도 약</w>
낸 스</w>
꺼 풀</w>
고 조</w>
계 산</w>
게 이</w>
▁헤 딩</w>
▁하 방</w>
▁풍 자</w>
▁폭 소</w>
▁타 고
▁커 튼</w>
▁치 부</w>
▁청 담동</w>
▁처 치</w>
▁차 입</w>
▁진 입로</w>
▁지 열</w>
▁제 국주의</w>
▁적 격성</w>
▁재 협상</w>
▁임 용
▁이정 후</w>
▁음악 인</w>
▁음 모</w>
▁원 거리</w>
▁울 진</w>
▁옹 기</w>
▁열 렬</w>
▁에스 컬레이터</w>
▁알 차</w>
▁악 몽</w>
▁싱크 탱크</w>
▁신용 장</w>
▁스탠 드</w>
▁스 프</w>
▁숨 통</w>
▁수 식어</w>
▁세 안</w>
▁성 곽</w>
▁상 추</w>
▁삼 척
▁산 학연</w>
▁빼 내</w>
▁블 록버스터</w>
▁불가 역</w>
▁분 권</w>
▁부실 시공</w>
▁보 성</w>
▁배 지</w>
▁방 청
▁밤 하늘</w>
▁반 문</w>
▁문 무일</w>
▁무르 익</w>
▁무 함마드</w>
▁먹 을거리</w>
▁매 거진</w>
▁만 든
▁돈 가스</w>
▁도 메인</w>
▁댄 댄</w>
▁당 도</w>
▁달라 요</w>
▁놈 놈</w>
▁내 연</w>
▁끈 기</w>
▁꼬 마</w>
▁그려 지</w>
▁고용 주</w>
▁고 등
▁고 독사</w>
▁경 색</w>
▁개 강</w>
▁감 세</w>
▁간 염</w>
▁간 결</w>
▁가르 쳤</w>
▁가 위</w>
▁W TO</w>
▁P ro
▁I PTV</w>
▁20 24</w>
▁197 8</w>
W TO</w>
S DS</w>
M A
CC TV</w>
A FC</w>
20 09</w>
활 력</w>
홈 페이지</w>
현 희</w>
현 무</w>
해 협</w>
픕 니다</w>
테 이블</w>
테 마파크</w>
커 니즘</w>
출 혈</w>
출 국</w>
청 정</w>
종 전</w>
장 실</w>
얼 리</w>
양 동</w>
시 장법</w>
선 언서</w>
서 전</w>
새 우</w>
상 고</w>
복 지
번 역</w>
방 기</w>
문화 회관</w>
매 기</w>
마 귀</w>
렌 징</w>
랭 크</w>
라 삐
돼 도</w>
동 수</w>
독립 운동</w>
독 부</w>
도 그</w>
다 이스</w>
나 인</w>
기 성</w>
그 리
교 시</w>
교 동</w>
고령 화</w>
건 우</w>
가치 세</w>
▁흥 겨운</w>
▁후 진</w>
▁후 임자</w>
▁횡단 보도</w>
▁화 천</w>
▁한 낮</w>
▁폐 막</w>
▁페 어</w>
▁통 합
▁탈 선</w>
▁케 냐</w>
▁카르 텔</w>
▁충무 로</w>
▁초 과
▁천연 기념물</w>
▁차근 차
▁질 책</w>
▁중 금속</w>
▁주저 앉</w>
▁조선 소</w>
▁정 주</w>
▁절 개</w>
▁전 해
▁저 격</w>
▁이 겨
▁의 미
▁유 통망</w>
▁유 골</w>
▁외 손
▁오 답</w>
▁여 호
▁얼 룩</w>
▁액 정</w>
▁쓰 인다</w>
▁실 소유주</w>
▁실 국</w>
▁신재 민</w>
▁시 련</w>
▁시 네마</w>
▁세 척</w>
▁선 언문</w>
▁선 반</w>
▁서 바이벌</w>
▁샵 샵</w>
▁상 트페테르부르크</w>
▁살 균</w>
▁사업 단</w>
▁빙 상</w>
▁부 풀</w>
▁병역 법</w>
▁병 무청</w>
▁뱅 크</w>
▁밸 류</w>
▁바 코드</w>
▁미네 랄</w>
▁문 예</w>
▁몬 스터</w>
▁맞물 리</w>
▁마 땅
▁리 모
▁로열 티</w>
▁때 렸</w>
▁디 스
▁드 려야</w>
▁동 그
▁돌 출</w>
▁도 선</w>
▁담 기</w>
▁다 룬다</w>
▁내 빈</w>
▁꿀 벌</w>
▁꺼 졌</w>
▁김치 찌개</w>
▁김 효
▁기념 사진</w>
▁기 공식</w>
▁글 쓴이</w>
▁그러 게</w>
▁국가 인권위원회</w>
▁공항 버스</w>
▁공 화국</w>
▁고 고
▁강성 훈</w>
▁강 대국</w>
▁값 진</w>
▁감 돌</w>
▁갈 비</w>
▁갈 게</w>
▁E GR</w>
▁7 50</w>
▁1 26</w>
▁1 16</w>
S OC</w>
O E</w>
1 2
현 주</w>
하 모
푸 른</w>
판 문점</w>
터 키</w>
키 트</w>
캐 나다</w>
취 록</w>
춘 다</w>
증 장</w>
정 국</w>
적 성</w>
일 인</w>
원 료</w>
용 어</w>
용 석</w>
어 음</w>
약 정</w>
아 세안</w>
신 다는</w>
승 진</w>
승 장구</w>
스크 린</w>
술 사</w>
설 계사</w>
서 야</w>
상 회</w>
비상 사태</w>
비 물</w>
배 럴</w>
배 달</w>
방 침</w>
발 사</w>
마 뉘
마뉘 엘</w>
련 관</w>
래 식</w>
라 늄</w>
낼 지</w>
기 업가</w>
교 재</w>
교 부세</w>
공 사장</w>
계 열사</w>
개발 비</w>
▁후 식</w>
▁호 스트</w>
▁헤 어진</w>
▁행 각</w>
▁팜 팜</w>
▁통신 구</w>
▁캡 슐</w>
▁치러 졌</w>
▁촬 영장</w>
▁찬 란</w>
▁직 관</w>
▁지 참</w>
▁중심 가</w>
▁절 실히</w>
▁전 단</w>
▁일 출</w>
▁일 차</w>
▁일 전</w>
▁인 맥</w>
▁인 과</w>
▁유니 콘</w>
▁오세 훈</w>
▁오 염
▁엑 엑</w>
▁억 대</w>
▁알아 듣</w>
▁알 찬</w>
▁알 바</w>
▁안전 벨트</w>
▁신 문사</w>
▁시 종
▁승 승장구</w>
▁스타일 링</w>
▁스카 우트</w>
▁숙박 업소</w>
▁송영 길</w>
▁손 꼽</w>
▁세종 문화회관</w>
▁세계 무역
▁성 형외과</w>
▁선 서</w>
▁상 수원</w>
▁북 극</w>
▁부 양
▁복 통</w>
▁밝혀 냈</w>
▁발 생
▁밀 린</w>
▁민 원
▁민 낯</w>
▁물어 볼</w>
▁물리 치</w>
▁무 이자</w>
▁마 십시오</w>
▁마 녀</w>
▁들어 간다고</w>
▁둘 러</w>
▁두드러 진</w>
▁도 와
▁데 모</w>
▁덕 망</w>
▁대 명사</w>
▁대 령</w>
▁다 수당</w>
▁남 해군</w>
▁남 방</w>
▁난 간</w>
▁꺼 낸</w>
▁기압 골</w>
▁국 사</w>
▁광 양시</w>
▁계 십니다</w>
▁걷 어
▁갖춰 진</w>
▁갈 까</w>
▁가 솔린</w>
▁가 성</w>
▁K orea</w>
▁1 13</w>
ou n
ec t
ac k</w>
T E
M E
L CC</w>
A S
히 어
흡 입</w>
홍 콩</w>
향 평가</w>
플라 스틱</w>
프 타</w>
폐 합</w>
케 이드</w>
차 세</w>
지만 은</w>
증 인</w>
증 상</w>
주 한</w>
져 도</w>
제 비</w>
장 암</w>
응 도</w>
유 틸리티</w>
위 한</w>
우 지</w>
영 향평가</w>
연 동</w>
앙 상블</w>
신 체</w>
신 뢰</w>
스테 롤</w>
수 인</w>
생 긴</w>
사 섬</w>
부 위</w>
보증 기금</w>
보 세요</w>
방 제</w>
무 서</w>
모 터스</w>
말 연시</w>
말 라야</w>
마 이크</w>
릿 지</w>
리 스크</w>
르 트
대문 시장</w>
남 편</w>
기 조</w>
군 데</w>
군 단</w>
계 심</w>
결 의</w>
검 색</w>
갈 수록</w>
▁피 부과</w>
▁퓨 마</w>
▁포 문</w>
▁펀 딩</w>
▁판 촉</w>
▁타 진</w>
▁콜 레
▁코 웨이</w>
▁카운 티</w>
▁카 디
▁층 간</w>
▁최태 원</w>
▁청 신호</w>
▁창 작자</w>
▁찬 물</w>
▁차 츰</w>
▁집 들이</w>
▁질 감</w>
▁지 극히</w>
▁증 후군</w>
▁정 진
▁전 세금</w>
▁재 범</w>
▁장 구</w>
▁일 어서</w>
▁인터 페이스</w>
▁이 혜
▁이 과</w>
▁의 과</w>
▁유엔 사</w>
▁왔 으나</w>
▁오른 손</w>
▁예 루살렘</w>
▁열 렸으며</w>
▁연 하</w>
▁여의 치</w>
▁여 보세요</w>
▁에 마뉘엘</w>
▁에 너
▁알 렉스</w>
▁쏠 렸</w>
▁시 연회</w>
▁슬 리
▁숨 겨</w>
▁수 려</w>
▁소방 본부</w>
▁소 사</w>
▁설 악산</w>
▁서초 동</w>
▁생 동감</w>
▁새 겨</w>
▁불 사</w>
▁부딪 혀</w>
▁부 린</w>
▁보 조
▁벌어 져</w>
▁번 번
▁물 씬</w>
▁모 토</w>
▁멕시코 시티</w>
▁머 머</w>
▁마주 치</w>
▁마 진</w>
▁리 치</w>
▁로이 킴</w>
▁러 블리</w>
▁디 렉터</w>
▁들어 도</w>
▁뒤 덮</w>
▁동 아
▁달 릴</w>
▁단 언</w>
▁다 낭</w>
▁능 률</w>
▁노 선
▁넥 타이</w>
▁내 재</w>
▁내 실</w>
▁낙 지</w>
▁나 물</w>
▁군사 분계선</w>
▁교 촌</w>
▁과 수</w>
▁계 셨</w>
▁계 도</w>
▁경 리</w>
▁격 상</w>
▁갇 힌</w>
▁L S</w>
▁198 1</w>
at ional</w>
L NG</w>
황 청</w>
활 절</w>
화 합물</w>
현 민</w>
표 창</w>
테 크
탬 프</w>
태 풍</w>
취 득</w>
천연 가스</w>
지 부장</w>
중 부</w>
제 동</w>
일 럿</w>
이 마트</w>
원 식</w>
외 국</w>
예 보</w>
여 종</w>
에 다가</w>
얀 색</w>
악 인</w>
스트 로</w>
스터 디</w>
슐 린</w>
사 막</w>
부 양</w>
무용 단</w>
리 토</w>
동 해</w>
달 리</w>
다 고요</w>
노동 기구</w>
년 생</w>
내 린</w>
교 부금</w>
각 도</w>
가 니스탄</w>
▁힘 듭니다</w>
▁후 반부</w>
▁해 녀</w>
▁하 얀색</w>
▁하 류</w>
▁프 런트</w>
▁포 석</w>
▁투표 소</w>
▁통 역사</w>
▁톱 스타</w>
▁터키 인</w>
▁클 린</w>
▁크 레인</w>
▁추가 경정예산</w>
▁최 정</w>
▁체크 카드</w>
▁차근차 근</w>
▁차 려
▁조 리법</w>
▁점 쳐</w>
▁장 편</w>
▁작업 실</w>
▁이따 가</w>
▁이 쁘</w>
▁이 리</w>
▁울 란바토르</w>
▁운전 사</w>
▁완 충</w>
▁예 정지</w>
▁옅 옅</w>
▁연 희</w>
▁연 신</w>
▁연 령층</w>
▁엄 격히</w>
▁어딘 지</w>
▁양 분</w>
▁아 플</w>
▁심 상정</w>
▁식 민</w>
▁스토 리텔링</w>
▁수 혈</w>
▁센토 사섬</w>
▁세워 야</w>
▁세계무역 기구</w>
▁세 븐일레븐</w>
▁생산 품</w>
▁색 조</w>
▁비상 사태</w>
▁비 화</w>
▁불 타</w>
▁분 신</w>
▁봉 지</w>
▁보 루</w>
▁발 각</w>
▁민속 놀이</w>
▁묶 인</w>
▁무리 뉴</w>
▁무 릅
▁몰 랐
▁모 일</w>
▁모 모</w>
▁머 지않</w>
▁띄 우</w>
▁뒤 덮
▁동 유럽</w>
▁도 농</w>
▁대부 료</w>
▁대 마</w>
▁놀라 웠</w>
▁넉 넉</w>
▁나 무
▁길 고양이</w>
▁기 원전</w>
▁금 식</w>
▁극 명</w>
▁국민 대</w>
▁관 직</w>
▁공 해</w>
▁계 명</w>
▁경부 고속도로</w>
▁결 항</w>
▁강 사진</w>
▁감 내</w>
▁b b</w>
▁A r
▁20 40</w>
▁196 7</w>
▁14 5</w>
i b
R C</w>
혐 오</w>
핵 심</w>
하모 닉</w>
팀 목</w>
트 레이
춧 가루</w>
종 류</w>
제 곱미터</w>
정 역</w>
장 로회</w>
자 분</w>
인 차</w>
의 상</w>
위 촉</w>
오 피아</w>
어 벤져스</w>
심 도</w>
소 서</w>
세 프</w>
선 충</w>
별 력</w>
발 전
반 찬</w>
목 소리</w>
마 는</w>
리 라고</w>
로 기</w>
력 전</w>
량 기</w>
등 부</w>
던 트</w>
대 법원</w>
다 던데</w>
노 래</w>
과 열</w>
간 호사</w>
▁희망 퇴직</w>
▁화물 선</w>
▁향 연</w>
▁하동 군</w>
▁풀 백</w>
▁포장 지</w>
▁퍼 트</w>
▁파 운드</w>
▁투자 처</w>
▁케이 블카</w>
▁친 지</w>
▁충 주시</w>
▁초 고
▁철 책</w>
▁질 투</w>
▁지 름
▁중 수</w>
▁죄 책감</w>
▁족 발</w>
▁조 서</w>
▁제 청</w>
▁정 평</w>
▁젊 음</w>
▁전통 주</w>
▁잔 해</w>
▁자 초</w>
▁인도 적</w>
▁이기 우</w>
▁이 효
▁의미 심장</w>
▁유 림</w>
▁웨 웨</w>
▁원 년</w>
▁온 난</w>
▁여 태</w>
▁애 틀랜
▁안 병
▁아프 간</w>
▁아쉬 워하</w>
▁아 까
▁신동 빈</w>
▁식 히</w>
▁시 판</w>
▁성 화</w>
▁성 급</w>
▁살 펴</w>
▁사 투리</w>
▁사 직
▁사 위</w>
▁빵 집</w>
▁브 래
▁북 서쪽</w>
▁본 국</w>
▁복 당</w>
▁변함 없</w>
▁버 릴</w>
▁밝혀 질</w>
▁반대 쪽</w>
▁미 진</w>
▁물어 봐도</w>
▁무작 위</w>
▁맞춰 져</w>
▁마음 속</w>
▁마 리나</w>
▁러시아 어</w>
▁라 틴</w>
▁라 이</w>
▁들려 오</w>
▁들 으면서</w>
▁드나 들</w>
▁동 주</w>
▁돌아 온다</w>
▁대 출자</w>
▁대 역</w>
▁단 시간</w>
▁다 방면</w>
▁놓 칠</w>
▁농 어</w>
▁농 단</w>
▁나 간다</w>
▁깃 든</w>
▁김영 주</w>
▁급 진</w>
▁금 호
▁그 랬
▁그 랑
▁권 하</w>
▁국회 법</w>
▁구매 력</w>
▁교 토</w>
▁광고 료</w>
▁공 급량</w>
▁공 고히</w>
▁고 흥</w>
▁결 여</w>
▁L o
▁E n
▁D SR</w>
▁197 2</w>
▁1 17</w>
ov e</w>
C O</w>
화 호</w>
행 단</w>
항 전</w>
평 화통일</w>
추 관</w>
지 자</w>
증 기</w>
주 스</w>
장 상</w>
장 부</w>
임 금제</w>
일 간</w>
윤 모</w>
영 동</w>
여 세</w>
아름 다운</w>
시 당</w>
슬 기</w>
세 븐</w>
성 호</w>
성 경</w>
선 임</w>
사무 실</w>
사 본</w>
사 거리</w>
빠 르</w>
비 즈</w>
번 영</w>
미 용</w>
미 수</w>
무 엇</w>
막 염</w>
리 부</w>
로 드
령 자</w>
긴 다는</w>
기 문</w>
구 비</w>
교 복</w>
광 진구</w>
게 시판</w>
개 체</w>
▁후 안</w>
▁행 동
▁핸드 볼</w>
▁항 쟁</w>
▁표 하</w>
▁폴 드</w>
▁폭 주</w>
▁파 동</w>
▁특 정인</w>
▁트렌 디</w>
▁타 사</w>
▁콜라 보</w>
▁최 신
▁초 연</w>
▁체 격</w>
▁찰 스</w>
▁지 평</w>
▁죄 질</w>
▁제네 시스</w>
▁제 비</w>
▁정 개특위</w>
▁적 시타</w>
▁자 말</w>
▁인 감</w>
▁이정 표</w>
▁은 평</w>
▁원 수</w>
▁외 식업</w>
▁올 게요</w>
▁영 사관</w>
▁연 말연시</w>
▁양 방향</w>
▁아 틀
▁아 가
▁시 외버스</w>
▁순 찰
▁수 기</w>
▁송 혜교</w>
▁선 선</w>
▁선 례</w>
▁석 조</w>
▁살 인
▁사 수</w>
▁사 다리</w>
▁빈 곤층</w>
▁붙 일</w>
▁불 이익</w>
▁북 유럽</w>
▁봉 착</w>
▁베이 커리</w>
▁반 정부</w>
▁박 한
▁민 통</w>
▁문화 예술</w>
▁명 태</w>
▁만 료일</w>
▁만 드
▁마 취</w>
▁마 리
▁들어 갑니다</w>
▁돌려 보
▁덕 수궁</w>
▁당 직자</w>
▁단 결</w>
▁눈여 겨</w>
▁넷 넷</w>
▁냄 비</w>
▁낸 시</w>
▁나 와요</w>
▁기 고</w>
▁그 립</w>
▁교보 생명</w>
▁공산 주의</w>
▁계 약자</w>
▁건너 가</w>
▁건 드리</w>
▁감 독
▁가 한</w>
▁Y Y</w>
▁JY P</w>
▁I D</w>
▁2 5
▁197 1</w>
▁14 00</w>
▁1 27</w>
or k</w>
ar k</w>
a in</w>
U STR</w>
U N
K I
K BS</w>
E M</w>
1 14</w>
회 생</w>
황 후</w>
행 정
타 입</w>
충 제</w>
체 감</w>
천 읍</w>
주 영</w>
장 자</w>
일 상</w>
이 장</w>
이 용
의 류</w>
유 입</w>
위 안부</w>
와 이
여 력</w>
스트 코</w>
수 건</w>
소년 기</w>
선 원</w>
브 리지</w>
부산 광역시</w>
번 개</w>
발 령</w>
마 철</w>
드 려야</w>
도 당</w>
데 올
덕 이</w>
난 다면</w>
광 석</w>
골 드</w>
가 든</w>
▁희 희</w>
▁휩 쓸
▁후쿠 시마</w>
▁혹 혹</w>
▁호 박</w>
▁하 얗</w>
▁플로리 다</w>
▁폐 교</w>
▁팔 꿈치</w>
▁트 러블</w>
▁타이 거</w>
▁클 렌징</w>
▁크리스티 안</w>
▁캐 슬</w>
▁친 밀</w>
▁친 문</w>
▁충 무</w>
▁찔 려</w>
▁진 하</w>
▁지름 길</w>
▁정 태
▁전곡 항</w>
▁전 결</w>
▁적 색</w>
▁일 지</w>
▁의 아</w>
▁의 복</w>
▁위 장
▁원 산</w>
▁욱 일기</w>
▁와일 드
▁오 타</w>
▁엽 서</w>
▁양 면</w>
▁액 자</w>
▁아 부</w>
▁아 기
▁스트 리트</w>
▁수 목
▁설 마</w>
▁설 계사</w>
▁선 동열</w>
▁비 투비</w>
▁블라 인드</w>
▁복 합
▁복 습</w>
▁배 낭</w>
▁박 나래</w>
▁못 한다고</w>
▁모 션</w>
▁명 지</w>
▁멜라 니아</w>
▁메 커니즘</w>
▁매 연</w>
▁마땅 히</w>
▁랭 크</w>
▁돌 릴</w>
▁도 어</w>
▁대한 축구협회</w>
▁대 인</w>
▁대 성
▁당 위</w>
▁다이 노스</w>
▁다가 와</w>
▁눈 가</w>
▁김종 필</w>
▁김 가
▁근 사</w>
▁권 총</w>
▁구 한</w>
▁괜 히</w>
▁광고 비</w>
▁관 용</w>
▁관 대</w>
▁고 체</w>
▁견 조</w>
▁거 슬러</w>
▁개 관식</w>
▁감자 튀김</w>
▁가 천</w>
▁가 용</w>
▁197 4</w>
▁19 00</w>
▁10 9</w>
pp m</w>
o u</w>
M CA</w>
G IST</w>
화 전</w>
한 겨레</w>
프 스</w>
풍 선</w>
표 자</w>
포 진</w>
키 니</w>
콥 터</w>
케 미칼</w>
축 소</w>
청 소기</w>
착 제</w>
차 지</w>
차 단</w>
짐 없이</w>
진 동</w>
지 휘
지 혜</w>
조 림</w>
정 확</w>
인 도
위 주</w>
우 려</w>
영 식</w>
연 전</w>
연 상</w>
여 간</w>
실 물</w>
시 브</w>
슈 타인</w>
수 아</w>
선 지</w>
서 비스업</w>
생 각</w>
사 법연수원</w>
비 오</w>
붙 이</w>
복 기</w>
보험 법</w>
보 레이션</w>
벤 츠</w>
백 신</w>
바 라기</w>
면 허증</w>
매 제</w>
리 콥터</w>
리 니스트</w>
로맨 스</w>
렁 크</w>
라 클</w>
동 화</w>
독 재</w>
데올 로기</w>
대 책위</w>
닝 맨</w>
누 가</w>
교육 장</w>
과 실</w>
공 증</w>
계 산서</w>
거 주</w>
▁흔 드</w>
▁휴 학</w>
▁훈련 장</w>
▁화 나</w>
▁할 랄</w>
▁한 정판</w>
▁프로그래 밍</w>
▁텅 텅</w>
▁탤 런트</w>
▁큐 큐</w>
▁큐 브</w>
▁캐 주얼</w>
▁충 실
▁체육 회</w>
▁찾아 다니</w>
▁찾아 갈</w>
▁지 양</w>
▁지 녔</w>
▁존 스</w>
▁제 이</w>
▁적 중</w>
▁적 나라</w>
▁잠 기</w>
▁자동 차세</w>
▁일반 직</w>
▁인터 폴</w>
▁인 슐린</w>
▁이 호
▁이 언
▁유 병</w>
▁월 출산</w>
▁원 도</w>
▁운전 석</w>
▁우 상</w>
▁올 랐
▁예 리</w>
▁역전 승</w>
▁어 머님</w>
▁약 식</w>
▁액 상</w>
▁애 착</w>
▁아프 가니스탄</w>
▁쐐 기</w>
▁실 직</w>
▁시 어머니</w>
▁스 틱</w>
▁송 이</w>
▁셀 러</w>
▁삼척 시</w>
▁산 후조리원</w>
▁빠 짐없이</w>
▁비 밀리</w>
▁블로 거</w>
▁부 럽</w>
▁복 싱</w>
▁보호 법</w>
▁보 우</w>
▁번 개</w>
▁버 터</w>
▁배당 금</w>
▁박 민영</w>
▁바우 처</w>
▁바 래</w>
▁미 친다</w>
▁물 증</w>
▁무너 뜨리</w>
▁몰아 치</w>
▁멸 망</w>
▁들려 준다</w>
▁두 루
▁도 우</w>
▁더 워서</w>
▁농 정</w>
▁노량 진</w>
▁내려 왔</w>
▁낮 잠</w>
▁난 청</w>
▁끈 끈</w>
▁김광 현</w>
▁기독 교인</w>
▁기 색</w>
▁기 계
▁기 강</w>
▁국제 노동기구</w>
▁국 유</w>
▁공 과</w>
▁강력 범</w>
▁갑 상선</w>
▁감 염
▁간접 흡연</w>
▁가르 칠</w>
▁T he</w>
▁P GA</w>
▁3 40</w>
▁13 7</w>
u st
or ld</w>
C P</w>
화 법</w>
허 설</w>
폐 수</w>
태 그</w>
찰 자</w>
지도 부</w>
증 설</w>
주 단</w>
조 장</w>
전 원</w>
자 연
자 보</w>
입 력</w>
움 증권</w>
올 리</w>
영 업자</w>
역 자</w>
에이 티브</w>
에 듀</w>
애 애</w>
안 내
아리 랑</w>
승 차</w>
스케 이팅</w>
스 티</w>
선 진</w>
상 어</w>
삼 구</w>
사 키</w>
사 안</w>
볼 게</w>
보 일러</w>
백 산</w>
무 원증</w>
만 주</w>
마 약</w>
리자 드</w>
라이 어티</w>
라 데시</w>
도 입</w>
다 듬</w>
노 사</w>
내 시경</w>
기 애애</w>
기 밀</w>
급 수</w>
글 라데시</w>
고 속
▁환 지</w>
▁항공 권</w>
▁할 애</w>
▁학술 지</w>
▁하 사</w>
▁하 모니</w>
▁피 처</w>
▁피 난민</w>
▁풀 릴</w>
▁패 한</w>
▁팔 린</w>
▁파운 드리</w>
▁트 렁크</w>
▁콧 물</w>
▁콜라 보레이션</w>
▁카 피</w>
▁출 산율</w>
▁초 저</w>
▁찾아 간</w>
▁짜 장면</w>
▁지 명자</w>
▁중 력</w>
▁준 우승</w>
▁주 지</w>
▁좌 회전</w>
▁좇 좇</w>
▁제 스처</w>
▁정 글</w>
▁절 경</w>
▁전 출</w>
▁자 필</w>
▁잊어 버리</w>
▁일 률</w>
▁이 토록</w>
▁유재 석</w>
▁유로 존</w>
▁울 렸</w>
▁옷 차림</w>
▁오리 엔
▁에티 오피아</w>
▁애 프
▁안 중근</w>
▁써 도</w>
▁실 화</w>
▁실 망감</w>
▁실 력파</w>
▁신분 당선</w>
▁신 영
▁쉼 쉼</w>
▁순 교</w>
▁소지 품</w>
▁소 중히</w>
▁센 스</w>
▁불 우</w>
▁분 수</w>
▁베 타</w>
▁베 드</w>
▁번역 기</w>
▁버 팀목</w>
▁버 지
▁발 전기</w>
▁반 년</w>
▁바이올 리니스트</w>
▁밀 라노</w>
▁모 회사</w>
▁명 사</w>
▁매 크로</w>
▁마카 롱</w>
▁리 오
▁땅 콩</w>
▁따돌 리</w>
▁드 셔</w>
▁뒤흔 들</w>
▁동 당</w>
▁돌 연
▁도로 변</w>
▁당 혹</w>
▁담 뱃
▁닳 닳</w>
▁다 케
▁네 일</w>
▁김희 겸</w>
▁김 구
▁기 안</w>
▁기 부자</w>
▁글 귀</w>
▁굳 건</w>
▁국 보</w>
▁광 대</w>
▁공 전</w>
▁계엄 군</w>
▁결 손</w>
▁격 파</w>
▁거 처</w>
▁개 보</w>
▁강 등</w>
▁갈 라</w>
▁가 발</w>
▁가 릴</w>
▁3 0
▁196 8</w>
▁13 4</w>
i p</w>
e ar
d s</w>
D M</w>
A L</w>
1 42</w>
헬 로</w>
피 자</w>
풍 력</w>
타 인
타인 데이</w>
코 니</w>
칭 스태프</w>
치 의</w>
초 시</w>
좌 파</w>
조선 소</w>
조 원대</w>
조 스</w>
조 망</w>
전 염병</w>
적 화</w>
장 도</w>
작 동</w>
자 니</w>
의 금</w>
은 주</w>
용 도</w>
요 청서</w>
에 로</w>
야 죠</w>
아 르
시 드</w>
스코 어</w>
수 신</w>
성 우</w>
보 였</w>
범 죄자</w>
반 사</w>
무 덤</w>
명 확</w>
마 단</w>
리 터</w>
로 미터</w>
로 마</w>
들 목</w>
내 과</w>
급 기</w>
계 장</w>
경 진</w>
강 원</w>
가 이드</w>
▁흠 집</w>
▁흔 치</w>
▁환 영사</w>
▁환 담</w>
▁화 기애애</w>
▁호 두</w>
▁협 찬</w>
▁해 상
▁합 의서</w>
▁한 라</w>
▁필 연</w>
▁피 지</w>
▁프로토 콜</w>
▁터 무
▁키 워
▁콜라 겐</w>
▁코 코
▁코 너
▁챙 길</w>
▁채 울</w>
▁차 후</w>
▁중 첩</w>
▁중 세</w>
▁주 정차</w>
▁주 변인</w>
▁주 검</w>
▁제네 바</w>
▁제 트</w>
▁접 해</w>
▁장 바구니</w>
▁장 마철</w>
▁일 렉
▁이슬 람
▁이명 희</w>
▁이 코노미</w>
▁이 걸로</w>
▁유 성구</w>
▁외 침</w>
▁올 려
▁온 기</w>
▁예 타</w>
▁연 주가</w>
▁연 세</w>
▁연 비</w>
▁역 내</w>
▁에어 부산</w>
▁양 해
▁아 현</w>
▁신 고인</w>
▁시 리얼</w>
▁쇠 쇠</w>
▁솜 방망이</w>
▁성 수동</w>
▁생 물학</w>
▁삼 거리</w>
▁살펴 봤</w>
▁브라 운
▁불 용</w>
▁불 어나</w>
▁부딪 혔</w>
▁보 온</w>
▁병 풍</w>
▁번 진</w>
▁배 점</w>
▁방 불</w>
▁발 진</w>
▁박 힌</w>
▁밀 폐</w>
▁민 법</w>
▁미 룰</w>
▁미 공개</w>
▁물 색</w>
▁무 역
▁몸 짓</w>
▁링 링</w>
▁리 허설</w>
▁뒷 좌석</w>
▁둬 야</w>
▁둘러싸 인</w>
▁두 바이</w>
▁돌 린</w>
▁도 급</w>
▁데 니스</w>
▁더 워</w>
▁단 상</w>
▁다 발</w>
▁뉴 스
▁높 여야</w>
▁내 실화</w>
▁난 사</w>
▁나 스닥</w>
▁깨 진</w>
▁김 여정</w>
▁기 어</w>
▁구 조대</w>
▁구 설</w>
▁교 황청</w>
▁광 학</w>
▁골 퍼</w>
▁고마 웠</w>
▁계 양</w>
▁건 재</w>
▁갭 갭</w>
▁개 구리</w>
▁각 하</w>
▁N GO</w>
▁I N
▁C O
▁196 2</w>
▁19 46</w>
w w</w>
N K</w>
C L</w>
C I</w>
함 대</w>
피 소</w>
포 천</w>
포 용</w>
판 기</w>
파 니</w>
틀 어</w>
특별자치 도</w>
탄 력</w>
클라 우드</w>
쾌 감</w>
코 어</w>
충 지</w>
촌 동</w>
질 러</w>
진 짜</w>
제 금</w>
정 현</w>
자 립</w>
임 새</w>
일 관</w>
으 셔서</w>
윤 호</w>
요 한</w>
아 빠</w>
시 한</w>
스 탠
선 교회</w>
사무 처</w>
사 우
볼 까요</w>
방 범대</w>
민 원실</w>
미 우리</w>
문 관</w>
매 트</w>
로 잡
둘 기</w>
데 스크</w>
대 륙</w>
논 술</w>
노 력</w>
기술 자</w>
기상 청</w>
그 때</w>
규 약</w>
관리 비</w>
공 세</w>
곤 란</w>
격 기</w>
강 경</w>
▁후 드</w>
▁홍 기</w>
▁현대 그룹</w>
▁행 해</w>
▁해 리스</w>
▁파운 데이션</w>
▁튜 브</w>
▁통 폐합</w>
▁탐 정</w>
▁큐 레이터</w>
▁코 칭스태프</w>
▁코 스트코</w>
▁청 력</w>
▁참 모
▁차려 입</w>
▁중 랑
▁종 용</w>
▁조 형</w>
▁제 방</w>
▁정 류소</w>
▁정 기회</w>
▁점 하</w>
▁전 염</w>
▁저 유소</w>
▁자산 운용</w>
▁임 명장</w>
▁유 례
▁와일드 카드</w>
▁연합 군</w>
▁연 립</w>
▁알아 주</w>
▁안전 망</w>
▁시 승</w>
▁순 탄</w>
▁소지 자</w>
▁성 악
▁선 한</w>
▁선 상</w>
▁석 권</w>
▁서 약서</w>
▁새 기</w>
▁상 법</w>
▁산 뜻</w>
▁사 인회</w>
▁사 교육비</w>
▁빼 어난</w>
▁빙 수</w>
▁비 바람</w>
▁브라 우
▁불법 체류</w>
▁불 려</w>
▁분 리
▁부 활절</w>
▁법 률안</w>
▁백 지</w>
▁배 급사</w>
▁밤 늦</w>
▁미 수</w>
▁물 감</w>
▁모하 메드</w>
▁만 류</w>
▁롯데 시네마</w>
▁동 의서</w>
▁돌이 켜</w>
▁도망 가</w>
▁도 안</w>
▁대장 정</w>
▁달 한</w>
▁다이 빙</w>
▁다 뤘</w>
▁노 외주차장</w>
▁내 린다</w>
▁나타 났으며</w>
▁끌어 안</w>
▁꾸 민</w>
▁김진 표</w>
▁김 덕
▁기 와</w>
▁구 이</w>
▁광 안</w>
▁공 금</w>
▁고 고</w>
▁계 산서</w>
▁가을 철</w>
▁가 든</w>
▁가 금</w>
▁O TT</w>
▁197 6</w>
▁17 5</w>
▁/ /</w>
r y</w>
ou r
ac e</w>
1 20</w>
형 극</w>
해 체</w>
학 부모</w>
프라이 즈</w>
푸 르트</w>
폭 포</w>
포 도</w>
퉁 이</w>
테 나</w>
코 노</w>
코 너</w>
컷 뉴스</w>
캠 핑</w>
출 납</w>
최 저</w>
진 보
저 지</w>
장 동</w>
입 지</w>
임 원</w>
인터 내셔널</w>
유 역</w>
원 주</w>
우 산</w>
예 정자</w>
영 수증</w>
였 으니</w>
역 서</w>
안전 공단</w>
스타 리카</w>
소 위원회</w>
상 영</w>
사 가</w>
보 서</w>
보 강</w>
미 콘</w>
미 리</w>
문 항</w>
문 대</w>
르기 스
들 썩</w>
동 근</w>
도 덕</w>
다 공증</w>
기 준
기 업체</w>
기 동</w>
국 과</w>
구 멍</w>
광 모</w>
고 은</w>
경 정</w>
가 비</w>
▁히 말라야</w>
▁효 용</w>
▁합 성
▁합 격
▁한화 그룹</w>
▁한국 전력
▁학 생회</w>
▁필라 테스</w>
▁피 칭</w>
▁피 치</w>
▁평 평</w>
▁펜 싱</w>
▁패러 디</w>
▁통 틀어</w>
▁크 레
▁충실 하</w>
▁출 점</w>
▁출 납원</w>
▁추 론</w>
▁초 동</w>
▁챙 겨
▁찢 찢</w>
▁쪽 지</w>
▁지방 비</w>
▁즐거 워</w>
▁즉 위</w>
▁정 액</w>
▁전 학</w>
▁전 립
▁전 도
▁자금 난</w>
▁인기 몰이</w>
▁이동 욱</w>
▁이 웃
▁이 우
▁이 스트</w>
▁이 리
▁이 근
▁유 심</w>
▁위 층</w>
▁월 마트</w>
▁운송 비</w>
▁우 익</w>
▁와 요</w>
▁오 간</w>
▁영양 분</w>
▁영 서</w>
▁어리 석</w>
▁약 수</w>
▁암 울</w>
▁알아 내</w>
▁안내 서</w>
▁안 치</w>
▁아 미</w>
▁신 명</w>
▁승 기</w>
▁스케 치</w>
▁순 례</w>
▁숙박 비</w>
▁세 대
▁선 입
▁샤 넬</w>
▁생겨 난</w>
▁삼 계탕</w>
▁사무 장</w>
▁비 참</w>
▁비 운</w>
▁비 서실</w>
▁불거 질</w>
▁볼 트</w>
▁보 임</w>
▁보 냈
▁벌 칙</w>
▁배 웅</w>
▁방 울</w>
▁반 증</w>
▁박보 검</w>
▁무 지</w>
▁모 둠</w>
▁명 명</w>
▁멀 리서</w>
▁매달 리</w>
▁말라 리아</w>
▁류 허</w>
▁되 짚</w>
▁도 산</w>
▁데려 오</w>
▁대 청</w>
▁대 림
▁단 면</w>
▁단 말</w>
▁늑 대</w>
▁노 상</w>
▁내려 간</w>
▁날 린</w>
▁난 색</w>
▁나 토</w>
▁나 눈
▁김 문
▁기초 자치단체</w>
▁기 흥</w>
▁기 뻐</w>
▁궂 궂</w>
▁국 과수</w>
▁공 신</w>
▁고 창군</w>
▁고 무
▁겸 하</w>
▁견 인차</w>
▁걸 릴까요</w>
▁감사 패</w>
▁S BA</w>
▁M LB</w>
▁A PI</w>
▁9 000</w>
in g
U N</w>
S DI</w>
%) ’</w>
희 동</w>
활동 가</w>
호 실</w>
호 법</w>
프 렌즈</w>
폭 염</w>
포 즈</w>
편 익</w>
토 벤</w>
토 리아</w>
타 스</w>
크 푸르트</w>
쾌 히</w>
질 방</w>
진 강</w>
지 역
지 선</w>
중 고</w>
제 르
점 장</w>
자 상</w>
인 종</w>
의 견서</w>
읍 성</w>
유 엔</w>
위 임</w>
요 트</w>
예 수교</w>
어 사</w>
아 고</w>
스코 이</w>
스 프</w>
수 성</w>
소 희</w>
션 스</w>
설 자</w>
빙 기</w>
블 럼</w>
변 이</w>
범 근</w>
민 상</w>
문 명</w>
모 드</w>
렁 이</w>
당 장</w>
니 라</w>
너 무</w>
교 자</w>
교 과서</w>
강 서구</w>
강 국</w>
▁회 견</w>
▁헬 리콥터</w>
▁프라 임</w>
▁팟 캐스트</w>
▁퇴 치</w>
▁테 이
▁타이 베이</w>
▁클 리닉</w>
▁출 사표</w>
▁추 징</w>
▁청 백</w>
▁천 식</w>
▁창 피</w>
▁집 요</w>
▁직 행</w>
▁직 항</w>
▁지중 해</w>
▁지 킨</w>
▁지 적도</w>
▁지 망</w>
▁주 임</w>
▁좌 완</w>
▁정우 성</w>
▁정 비
▁전 반전</w>
▁자산 관리</w>
▁자 급</w>
▁일회 용품</w>
▁이뤄 진다면</w>
▁의료 법</w>
▁유 영
▁유 스</w>
▁유 니</w>
▁우주 선</w>
▁예술 제</w>
▁염 소</w>
▁여 쭤
▁여 주인공</w>
▁여 우</w>
▁얽 매
▁어려 워진</w>
▁어 항</w>
▁어 류</w>
▁얕 얕</w>
▁양 씨</w>
▁애틀랜 타</w>
▁알 람</w>
▁안 정세</w>
▁아 크</w>
▁씨 티</w>
▁심 정지</w>
▁신 중히</w>
▁시 그널</w>
▁스탠 퍼드</w>
▁소 아
▁세르 게이</w>
▁세 외</w>
▁세 세</w>
▁성 윤모</w>
▁선 주</w>
▁선 양</w>
▁석 학</w>
▁산 유국</w>
▁빠져 나갔</w>
▁빈 집</w>
▁브라이 언</w>
▁불러 올</w>
▁불 응</w>
▁불 린</w>
▁부 경</w>
▁번 져</w>
▁발 가락</w>
▁바 닥
▁문 경
▁무릅 쓰</w>
▁멸 치</w>
▁말 투</w>
▁따 위</w>
▁드 라이</w>
▁되살 리</w>
▁독 서실</w>
▁대학 가</w>
▁대 문</w>
▁담 담</w>
▁단 양</w>
▁다이 슨</w>
▁다 윗</w>
▁늦 춰</w>
▁내 홍</w>
▁내 국인</w>
▁나 쁨</w>
▁꾸 몄</w>
▁꼼 수</w>
▁김 호
▁근 육
▁굴 착</w>
▁군 포시</w>
▁괴 한</w>
▁관광 특구</w>
▁공 대</w>
▁고 배</w>
▁고 단</w>
▁격 돌</w>
▁가격 표</w>
▁F O
▁A R
▁19 05</w>
▁1 21</w>
o h
S O
IC BM</w>
환경 부</w>
화 군</w>
한 계선</w>
플레이 스</w>
플 랜트</w>
페 이스북</w>
틸 렌</w>
큐 어</w>
축 성</w>
착 한</w>
지 배</w>
지 근</w>
정 시</w>
전 투</w>
이 슈</w>
이 러</w>
우 라</w>
연 금법</w>
에 고</w>
실 련</w>
신 환</w>
식 비</w>
수 첩</w>
성 애</w>
선수 범</w>
서 면</w>
병 원장</w>
법 사</w>
방 객</w>
메이 커</w>
리 슨</w>
르기스 스탄</w>
렛 대</w>
들 리</w>
동 진</w>
동 면</w>
던 가</w>
달 리스트</w>
근 석</w>
교 향악단</w>
공 모전</w>
고 추</w>
계 급</w>
▁힐 튼</w>
▁흔들 렸</w>
▁휴 먼</w>
▁회 비</w>
▁현 빈</w>
▁한 바탕</w>
▁풀 렸</w>
▁포 구</w>
▁파 일럿</w>
▁특 단</w>
▁탁 자</w>
▁치 앙
▁취 수</w>
▁춘 춘</w>
▁추진 력</w>
▁최 첨단</w>
▁최 문
▁짬 뽕</w>
▁지 날</w>
▁줍 줍</w>
▁적 기</w>
▁장 충</w>
▁자 비</w>
▁일어 난다</w>
▁일 용직</w>
▁이정 현</w>
▁이민 호</w>
▁이 형
▁이 현
▁이 니
▁웨 스트</w>
▁엇갈 린</w>
▁양 복</w>
▁아이스 하키</w>
▁아무 튼</w>
▁썬 썬</w>
▁시달 렸</w>
▁시 황</w>
▁시 끄럽</w>
▁스테 인
▁스코 틀랜드</w>
▁스 낵</w>
▁수 액</w>
▁손 아
▁손 기정</w>
▁성 악</w>
▁상대 국</w>
▁상 암동</w>
▁사 로잡
▁사 교</w>
▁불출 마</w>
▁불 의</w>
▁분 수령</w>
▁분 수대</w>
▁봉 하</w>
▁보 톡스</w>
▁베 리</w>
▁법 원장</w>
▁벌 리</w>
▁번 화가</w>
▁방 글라데시</w>
▁밤 사이</w>
▁박 삼구</w>
▁바 치</w>
▁민 경
▁무서 워</w>
▁모 태</w>
▁멈 춘</w>
▁망설 이</w>
▁만 개</w>
▁리 우</w>
▁리 뉴</w>
▁로 션</w>
▁뜰 뜰</w>
▁떠올 렸</w>
▁따 낸</w>
▁드러 낸다</w>
▁된 장</w>
▁독일 어</w>
▁독 소</w>
▁도 배</w>
▁도 매
▁대 책위</w>
▁대 림</w>
▁대 동</w>
▁다 뉴
▁노 랫
▁난 립</w>
▁난 리</w>
▁낙 인</w>
▁기 하
▁그 랜
▁굿 모닝</w>
▁곁 들여</w>
▁경 주
▁경 작</w>
▁건축 주</w>
▁거 둬
▁M S</w>
▁B J</w>
▁6 50</w>
▁2 7
▁196 1</w>
▁0 0</w>
s e</w>
er s</w>
I D
0 01</w>
희 망자</w>
피 티</w>
프리 미
파 제</w>
티 코</w>
통 로</w>
텐 데</w>
충 북</w>
처 스</w>
채 소</w>
찰 력</w>
정 아</w>
정 밀</w>
전 산망</w>
저 것</w>
장 어</w>
장 년</w>
잡 고</w>
이 념</w>
유 서</w>
원 동</w>
용 감</w>
알 선</w>
신 주</w>
식 주의자</w>
스 부르크</w>
수 호</w>
손 가락</w>
성 환</w>
선 도로</w>
서 트홀</w>
삼 진</w>
사 퇴</w>
사 도</w>
분 장</w>
보험 자</w>
보안 법</w>
바이 저</w>
바 르
립 니</w>
리 에</w>
라 미</w>
드 기</w>
도 교</w>
대 간</w>
뉴 타운</w>
낚 시</w>
구 조사</w>
경 고</w>
감 시
가 증</w>
▁화 목</w>
▁현대 사</w>
▁행 한</w>
▁항 균</w>
▁평 양
▁태 어날</w>
▁타 국</w>
▁코 어</w>
▁코 디네이터</w>
▁총 력전</w>
▁초 코</w>
▁천 혜</w>
▁책 장</w>
▁찜 질방</w>
▁진 열
▁직 군</w>
▁정 세
▁저널 리즘</w>
▁인 원수</w>
▁유엔 군</w>
▁위 자료</w>
▁용 적</w>
▁외손 녀</w>
▁오 인</w>
▁역 풍</w>
▁여 념</w>
▁에이 핑크</w>
▁에 프</w>
▁양 수</w>
▁애 경</w>
▁아무 렇</w>
▁아름다 웠</w>
▁아 냐</w>
▁심 해졌</w>
▁실 세</w>
▁시 효</w>
▁스 퀘어</w>
▁수 서</w>
▁손 잡고</w>
▁성취 감</w>
▁성악 가</w>
▁성 품</w>
▁서 인
▁새 긴</w>
▁사 들인</w>
▁뽑 힌</w>
▁분 석
▁분 말</w>
▁본 다는</w>
▁복 식</w>
▁병 해충</w>
▁병 동</w>
▁버 금
▁반 란</w>
▁바 삭</w>
▁믹 스</w>
▁물어 본</w>
▁물 밑</w>
▁무용 단</w>
▁무 제한</w>
▁무 명</w>
▁망 하</w>
▁막 아내</w>
▁떠 들썩</w>
▁두 통</w>
▁두 어</w>
▁두 세</w>
▁두 근
▁동양 인</w>
▁동 인</w>
▁도로 는</w>
▁도 망</w>
▁단 합</w>
▁놀 랄</w>
▁넥 넥</w>
▁넘 쳐</w>
▁내려 다</w>
▁내 기</w>
▁나뭇 가지</w>
▁김민 정</w>
▁기 를</w>
▁기 동</w>
▁그랑 프리</w>
▁그 레이
▁귤 귤</w>
▁구속 력</w>
▁구 타</w>
▁고 택</w>
▁게 으
▁검 찰청</w>
▁건축 사</w>
▁건 당</w>
▁거 둬</w>
▁가로 지르</w>
▁t o</w>
▁U S</w>
▁O K</w>
▁M D</w>
▁L CK</w>
▁13 6</w>
▁1 29</w>
el l
c om</w>
TR A</w>
O M</w>
M E</w>
M B</w>
I N</w>
C G</w>
후 반</w>
회 화</w>
화 합</w>
할 머니</w>
피 크</w>
투 호</w>
타 령</w>
카 인</w>
치 안</w>
쪼 록</w>
인지 업</w>
인 대</w>
이 벤트</w>
으 니까요</w>
유 기
유 권</w>
요 즘</w>
연 주</w>
연 속</w>
여 져</w>
양 국</w>
야겠 다</w>
야 만</w>
실 까</w>
신 화</w>
송 라이터</w>
성 고</w>
서 기관</w>
상 액</w>
상 가상</w>
비 대</w>
봐 서</w>
보 부</w>
버 려서</w>
배 터리</w>
방 재</w>
민 석</w>
무 효</w>
면 역</w>
마 라톤</w>
레 일
래 카메라</w>
동 이</w>
동 민</w>
독 도</w>
대 법관</w>
니 없</w>
나 영</w>
국 행</w>
관 용</w>
관 사</w>
과 잉</w>
경 대</w>
경 계</w>
거래 일</w>
개 성</w>
가 디언</w>
▁힘 겹</w>
▁희 석</w>
▁희 비</w>
▁휠 휠</w>
▁후 예</w>
▁환 대</w>
▁화 백</w>
▁홍 익</w>
▁헤 어졌</w>
▁헌 정</w>
▁폄 훼</w>
▁페널 티</w>
▁티 아라</w>
▁테 너</w>
▁키 움증권</w>
▁클 로
▁첫 눈</w>
▁철 학자</w>
▁처 형</w>
▁찬 바람</w>
▁차 출</w>
▁쫓 아
▁진 흙</w>
▁진 공</w>
▁중도 금</w>
▁중 식</w>
▁점 쳐
▁전 략
▁적 당량</w>
▁저 항
▁입 혔</w>
▁일 례</w>
▁이동 한</w>
▁이 씨</w>
▁이 북</w>
▁유 턴</w>
▁요 미우리</w>
▁올 려야</w>
▁온 다는</w>
▁오 수</w>
▁엿 보인다</w>
▁열 린다고</w>
▁여 아</w>
▁양육 비</w>
▁아름다 워</w>
▁아 스</w>
▁시 리</w>
▁스 팸</w>
▁스 톤</w>
▁스 와
▁숙 취</w>
▁수행 평가</w>
▁수 로</w>
▁솔 선수범</w>
▁소 강
▁설 상가상</w>
▁생 겼
▁사회 생활</w>
▁사령 부</w>
▁비 축</w>
▁비 워</w>
▁브 랜
▁불 합격</w>
▁봄 꽃</w>
▁본 받</w>
▁보라 색</w>
▁번번 이</w>
▁버 라이어티</w>
▁발 명품</w>
▁박 서준</w>
▁박 람</w>
▁바랄 게요</w>
▁미 얀</w>
▁모 서리</w>
▁면 면</w>
▁로 테이션</w>
▁레이 싱</w>
▁레 오
▁되돌 릴</w>
▁도 축</w>
▁단 체
▁노동 법</w>
▁냉 철</w>
▁내 뱉</w>
▁낙 서</w>
▁나아 졌</w>
▁끌어올 릴</w>
▁끊 긴</w>
▁꼴 찌</w>
▁김기 덕</w>
▁길 가</w>
▁기억 력</w>
▁근 린</w>
▁구 광모</w>
▁관람 권</w>
▁공격 력</w>
▁계 몽</w>
▁걸 으며</w>
▁개 그</w>
▁값 싼</w>
▁E SS</w>
▁A TM</w>
▁3 500</w>
▁2 6
f or
1 1
. .</w>
황 제</w>
호 남</w>
향 서</w>
해 양
포 니</w>
평 정</w>
트 레이</w>
테 말라</w>
태 양
탈 감</w>
타 기</w>
채 납</w>
지 책</w>
중 요</w>
중 생</w>
종 환</w>
졸 업</w>
졌 었</w>
정 제</w>
저 분</w>
장 성</w>
이 지
이 동
위 계</w>
월 일</w>
원 조</w>
우 치</w>
연 애</w>
억 제</w>
어 가</w>
양 각색</w>
아 인</w>
실 패</w>
실 대</w>
소 셜</w>
석 진</w>
산 불</w>
사이 언스</w>
브 르</w>
불 개미</w>
보 복</w>
버 시</w>
반 입</w>
미 니</w>
마 침</w>
류 관</w>
력 배</w>
려 왔</w>
라이 드</w>
드 레스</w>
동 맥</w>
던 스</w>
덕 션</w>
대 행자</w>
대 신</w>
당 해</w>
농 업
기 종</w>
구 수</w>
관 찰</w>
계 수</w>
경 과</w>
것 저것</w>
건 가요</w>
개발 연구원</w>
간 호</w>
▁흠 뻑</w>
▁혼 재</w>
▁할 지라도</w>
▁하 프</w>
▁트래 킹</w>
▁터 트리</w>
▁탐 험</w>
▁코 스타리카</w>
▁카 시트</w>
▁칫 솔</w>
▁치 약</w>
▁출 구조사</w>
▁총 회장</w>
▁초 상</w>
▁청 소년기</w>
▁청 동기</w>
▁철 조망</w>
▁처 할</w>
▁찾아 온다</w>
▁차 관보</w>
▁쪽 방</w>
▁지 민</w>
▁준 다면</w>
▁좌 익</w>
▁좋아 할</w>
▁종 가</w>
▁조 수석</w>
▁젖 소</w>
▁정 돈</w>
▁저 주</w>
▁자 석</w>
▁자 각</w>
▁이재 율</w>
▁이 방
▁이 르
▁윌 슨</w>
▁원 론</w>
▁울 주군</w>
▁운 문사</w>
▁우 동</w>
▁요 한</w>
▁왜 관</w>
▁올라 간다</w>
▁옥 탑방</w>
▁영 성</w>
▁연 서</w>
▁아기 자기</w>
▁싸 울</w>
▁심 기</w>
▁시 구</w>
▁숙 식</w>
▁송 구</w>
▁손 녀</w>
▁속 한다</w>
▁소 질</w>
▁성 서</w>
▁성 기</w>
▁선거 관리위원회</w>
▁선 천</w>
▁상 패</w>
▁산 란</w>
▁산 간</w>
▁사회 학</w>
▁사라 진다</w>
▁뿌 린</w>
▁비상 구</w>
▁비 키니</w>
▁블 리자드</w>
▁부지 런</w>
▁볼 링</w>
▁보내 왔</w>
▁병 원장</w>
▁반 짝</w>
▁박종 철</w>
▁민 영</w>
▁미 야
▁물 들</w>
▁몽 환</w>
▁몰아 넣</w>
▁면 회</w>
▁마스 터스</w>
▁르 르</w>
▁르 네상스</w>
▁로 버
▁라 마단</w>
▁둘러싸 여</w>
▁동 래
▁돌아 선</w>
▁델 델</w>
▁다 각도</w>
▁농업 용수</w>
▁녹 여</w>
▁네 오</w>
▁넋 넋</w>
▁내 심</w>
▁낙 엽</w>
▁꽃 잎</w>
▁김영 삼</w>
▁그 레이</w>
▁구 슬
▁교육 자</w>
▁공 중
▁곤두 세우</w>
▁고 칠</w>
▁거 시</w>
▁강 성</w>
▁각 양각색</w>
▁가 구
▁196 9</w>
▁19 07</w>
▁13 3</w>
a d</w>
화 사</w>
화 동</w>
형 편</w>
한 미</w>
하 청</w>
포 상</w>
패 널</w>
팔 트</w>
파 악</w>
택 배</w>
총 재</w>
체 중</w>
철 강</w>
지 킴이</w>
즈 음</w>
중 동</w>
준 열</w>
주 원</w>
주 심</w>
주 금</w>
조 인</w>
장 국</w>
잔 액</w>
작 년</w>
자 극</w>
응 방</w>
원 법</w>
원 경찰</w>
우 징</w>
용 준</w>
에 른</w>
쓸 이</w>
신 안</w>
스타 디움</w>
스 페인</w>
수 질</w>
소 관</w>
생 활
생 산
상 회복</w>
삼성 전자</w>
사 학</w>
부 실</w>
보 살</w>
법 정</w>
반 환</w>
문 트</w>
모 로</w>
메르 스</w>
메 르</w>
리 바</w>
론 화</w>
러 기</w>
디 밭</w>
대 란</w>
단 주</w>
권 당</w>
국 정</w>
공 신</w>
개 량</w>
각 지대</w>
▁흔 쾌히</w>
▁효 소</w>
▁화 끈</w>
▁홍 종
▁허 무</w>
▁했 으니</w>
▁해 이</w>
▁해 남</w>
▁항 산</w>
▁핫 도그</w>
▁한국전력 공사</w>
▁한국 사</w>
▁하 필</w>
▁프라이 빗</w>
▁풍 토</w>
▁포장 재</w>
▁포 커스</w>
▁포 격</w>
▁페 달</w>
▁판매 소</w>
▁파 우</w>
▁토 핑</w>
▁타이 완</w>
▁키 르기스스탄</w>
▁카 메
▁참 혹</w>
▁찰 리</w>
▁집어 넣</w>
▁직 사
▁지 퍼</w>
▁지 명
▁조 희
▁조 윤
▁제 물</w>
▁제 막식</w>
▁정 모</w>
▁전 지훈련</w>
▁적 재</w>
▁장충 동</w>
▁장 중</w>
▁장 신</w>
▁자 손</w>
▁입 출금</w>
▁임용 권자</w>
▁인 력
▁이상 일</w>
▁이 것저것</w>
▁유 권</w>
▁웰 웰</w>
▁웃 기</w>
▁여호 와</w>
▁여 대생</w>
▁여 과</w>
▁에릭 센</w>
▁액 티브</w>
▁액 액</w>
▁애 국가</w>
▁알아 차
▁안전 시설</w>
▁아 부
▁실 속</w>
▁승부 차기</w>
▁승부 수</w>
▁슬리 퍼</w>
▁숭 고</w>
▁수송 기</w>
▁섣 불리</w>
▁상 충</w>
▁살아 왔</w>
▁뿌 뿌</w>
▁비 보이</w>
▁브런 치</w>
▁불출 석</w>
▁부러 워</w>
▁본 성</w>
▁밀 렸</w>
▁민 박</w>
▁물리 학</w>
▁문제 집</w>
▁묶 음</w>
▁모 음</w>
▁명 문화</w>
▁메 운</w>
▁메 가
▁매 혹</w>
▁마 라</w>
▁렌 트</w>
▁독 촉</w>
▁도 우
▁대 상
▁논 하</w>
▁네이 처</w>
▁남 동</w>
▁난 도</w>
▁나 위</w>
▁나 루
▁나 뉜
▁꺼 꺼</w>
▁깬 깬</w>
▁김현 철</w>
▁김정 훈</w>
▁김 서
▁긴급 히</w>
▁긴 박</w>
▁기 이</w>
▁기 업
▁근 거리</w>
▁극 본</w>
▁그럴 까</w>
▁그런 가</w>
▁그 걸로</w>
▁궁금 해하</w>
▁구 술</w>
▁광역 철도</w>
▁공격 진</w>
▁공 법</w>
▁견 지</w>
▁강 연회</w>
▁강 림</w>
▁갑 시다</w>
▁감 히</w>
▁가산 금</w>
▁가 시
▁s t
▁B B
▁16 8</w>
▁14 6</w>
▁14 2</w>
u n</w>
b ps</w>
an d
S E</w>
C R</w>
후 기</w>
횡 단</w>
회 비</w>
환경 청</w>
현 석</w>
행 범</w>
필 리핀</w>
피 아
품 격</w>
포 폴</w>
특 례
토 사</w>
타 로</w>
코 틴</w>
치 히</w>
출 관</w>
천 안</w>
챔피 언</w>
짜 기</w>
진 상</w>
진 과</w>
지 우지</w>
점 상</w>
잔 디</w>
은 가</w>
옴 부즈만</w>
올 린</w>
오 브</w>
암 리</w>
신 규</w>
시 험
스마 트폰</w>
스 웨
수 화</w>
설 주</w>
서 민</w>
삼 동</w>
사 르</w>
비 례</w>
불 교</w>
부 청</w>
본 사</w>
발 광</w>
미 아</w>
마을 금고</w>
릴 까</w>
리 교</w>
렌 스</w>
렌 드</w>
디오 스타</w>
당 제</w>
다 오</w>
누 설</w>
나 올</w>
구 로</w>
공 법</w>
고 개</w>
계 통</w>
계 인수</w>
경 련</w>
㎞ ,</w>
▁훈 령</w>
▁후 계자</w>
▁홍 진영</w>
▁험 난</w>
▁향 방</w>
▁해 충</w>
▁합 쳐서</w>
▁피해 액</w>
▁프랑 크푸르트</w>
▁풍 랑</w>
▁퍼 진</w>
▁팔 려</w>
▁코 카</w>
▁코 언</w>
▁캐 리어</w>
▁칸 막이</w>
▁충 치</w>
▁추 종</w>
▁청 나라</w>
▁진 해
▁지방 행정</w>
▁증 여세</w>
▁중앙 선</w>
▁좌 지우지</w>
▁종 점</w>
▁젤 젤</w>
▁적 금</w>
▁작 성자</w>
▁자 위대</w>
▁자 랄</w>
▁잉 크</w>
▁입 회</w>
▁인도 인</w>
▁인 민
▁이상 민</w>
▁이 데올로기</w>
▁은 상</w>
▁유례 없</w>
▁운동 화</w>
▁왕 족</w>
▁올 리
▁역 행</w>
▁엑스 레이</w>
▁엄 두</w>
▁약 제</w>
▁애국 심</w>
▁애 국</w>
▁안 락</w>
▁아 깝</w>
▁시사 점</w>
▁슈 트</w>
▁수 요
▁송 하
▁소용 돌이</w>
▁성 주</w>
▁선 후배</w>
▁선 동</w>
▁선 결</w>
▁서 커스</w>
▁서 영
▁생긴 다면</w>
▁생 깁니다</w>
▁사고 방식</w>
▁사 춘기</w>
▁사 라</w>
▁브 라</w>
▁부 릅니다</w>
▁부 렸</w>
▁보여 줄지</w>
▁병 영</w>
▁변 별력</w>
▁베 토벤</w>
▁백 운
▁백 만</w>
▁발 하</w>
▁발 코니</w>
▁뭄 바이</w>
▁문화 부</w>
▁모 건</w>
▁명 인</w>
▁메 타</w>
▁말 린</w>
▁로드 리
▁레 지</w>
▁라이 프
▁둔 갑</w>
▁됐 으며</w>
▁대림 산업</w>
▁당 겨</w>
▁달아 오르</w>
▁단 발</w>
▁녹색 당</w>
▁노 을</w>
▁노 렸</w>
▁네이 마르</w>
▁내비 친</w>
▁내 공</w>
▁남 겨진</w>
▁나빠 질</w>
▁김정 남</w>
▁김복 동</w>
▁기 형</w>
▁궁 궁</w>
▁교 리</w>
▁괄 목</w>
▁과 격</w>
▁공 문서</w>
▁골 밑</w>
▁골 다공증</w>
▁고등 어</w>
▁고 춧가루</w>
▁고 운</w>
▁고 성장</w>
▁경 전철</w>
▁겔 겔</w>
▁개인 택시</w>
▁개 선책</w>
▁강 북구</w>
▁감 귤</w>
▁가 출</w>
▁가 셔야</w>
▁S KT</w>
▁196 4</w>
▁19 49</w>
▁19 40</w>
▁15 7</w>
▁14 3</w>
i k
el l</w>
a s</w>
O LED</w>
환 자실</w>
형 성</w>
한 데요</w>
편 집</w>
판매 소</w>
쳤 으며</w>
체 대</w>
청 동</w>
철 소</w>
주 무</w>
주 름</w>
제 리</w>
적 금</w>
저 하</w>
재판 장</w>
재 개</w>
자 식</w>
유 학</w>
유 층</w>
운 다는</w>
왔 었</w>
어 학</w>
실 험장</w>
신 장</w>
식 량</w>
스 캐
세 품</w>
세 브</w>
선 호</w>
산 도</w>
사 각지대</w>
비 어</w>
베 르</w>
백 서</w>
물 고기</w>
무 형문화재</w>
명 세</w>
멸 시효</w>
린 공원</w>
려 다가</w>
라 디오</w>
따 리</w>
든 가</w>
드 롬</w>
드 론</w>
두 대간</w>
극 본</w>
구 치</w>
관 청</w>
간 힘</w>
▁후 자</w>
▁회 귀</w>
▁활 기차</w>
▁현 아</w>
▁허리 케인</w>
▁향 응</w>
▁해 상도</w>
▁항 문</w>
▁함 경
▁하 정우</w>
▁폐 허</w>
▁펀 치</w>
▁판 별</w>
▁판 권</w>
▁파 킨
▁튼 튼</w>
▁통 할</w>
▁타고 난</w>
▁클라이 언트</w>
▁콜 로</w>
▁코너 킥</w>
▁추 대</w>
▁처 방전</w>
▁처 럼</w>
▁지 저분</w>
▁지 렛대</w>
▁지 독</w>
▁증 발</w>
▁주 안
▁정해 인</w>
▁정 선
▁점 원</w>
▁전 매</w>
▁전 경</w>
▁재 치</w>
▁장 모</w>
▁잠 그</w>
▁이 천</w>
▁유 한
▁위장 전입</w>
▁위 임장</w>
▁원 색</w>
▁오 갈</w>
▁연 호</w>
▁연 한</w>
▁어려 워하</w>
▁어려 워서</w>
▁어 수선</w>
▁어 리</w>
▁양해 각서</w>
▁약 탈</w>
▁야 수</w>
▁안전 띠</w>
▁안 간힘</w>
▁아스 널</w>
▁아낌 없이</w>
▁쌓 였</w>
▁시 음</w>
▁슈퍼 스타</w>
▁수비 진</w>
▁수 어</w>
▁소 풍</w>
▁성 토</w>
▁서 독</w>
▁생 계비</w>
▁살 라</w>
▁사직 서</w>
▁사 립대</w>
▁빨 랐</w>
▁브 룩스</w>
▁불 쌍</w>
▁불 명확</w>
▁부정 행위</w>
▁버 거
▁발 짝</w>
▁발 신</w>
▁반 향</w>
▁박 은
▁바 랄</w>
▁뭉 치</w>
▁문제 없</w>
▁모 교</w>
▁명예 훼손</w>
▁머 니</w>
▁말 문</w>
▁마 우리
▁리오 넬</w>
▁리모 컨</w>
▁루 프</w>
▁들 으니</w>
▁도 수</w>
▁다가 온다</w>
▁다 급</w>
▁느 려</w>
▁느 느</w>
▁논 현동</w>
▁녹 취</w>
▁넘어 갈</w>
▁나 간다는</w>
▁끌 려</w>
▁꾸 린</w>
▁김태 호</w>
▁김재 욱</w>
▁김영 환</w>
▁김 천시</w>
▁김 보
▁기념 사</w>
▁급 매물</w>
▁굴 러
▁군 복</w>
▁광 개
▁공 터</w>
▁골 든
▁경 지</w>
▁결 의문</w>
▁걷 잡</w>
▁개 천
▁M net</w>
▁Lo L</w>
▁E NM</w>
▁2 2
w ww</w>
oo k</w>
a z
S P</w>
N BA</w>
I F</w>
확 정</w>
협 박</w>
하 트</w>
프린 팅</w>
포 크</w>
투 데이</w>
테 이프</w>
태 권</w>
카 풀</w>
침 서</w>
진 작</w>
지 문</w>
정 문</w>
점 제</w>
잡 지</w>
작 곡</w>
자 취</w>
일 드</w>
인 화</w>
윤 정</w>
유 적</w>
예 수</w>
영 재</w>
영 구</w>
양 면</w>
심 원</w>
심 문</w>
스프 레스</w>
상 의</w>
비 교</w>
브 릭</w>
부 하</w>
복 수</w>
복 권</w>
보 호사</w>
벼 락</w>
모 어</w>
마 차</w>
립 스</w>
렸 었</w>
레 스트</w>
러 미</w>
랩 스</w>
도 국</w>
델 리</w>
단 력</w>
다 섯</w>
농 부</w>
국 방</w>
교 차로</w>
관 행</w>
관 련자</w>
관 람
게 이
건 강
개 인
감 자</w>
▁힘 써</w>
▁회 전
▁확 연</w>
▁화 기</w>
▁헐 헐</w>
▁할로 윈</w>
▁할 수록</w>
▁피 보험자</w>
▁페널티 박스</w>
▁팝 콘</w>
▁판 도</w>
▁파 출소</w>
▁특례 시</w>
▁통 쾌</w>
▁출 몰</w>
▁출 금</w>
▁추 인</w>
▁체 포
▁철 제</w>
▁차 입금</w>
▁중앙 일보</w>
▁전기 료</w>
▁전 태
▁저 리</w>
▁장 신
▁잡 아내</w>
▁잡 스</w>
▁잠 실
▁잔 디밭</w>
▁자 생
▁인 질</w>
▁익 힌</w>
▁이 채
▁으 뜸</w>
▁울 진군</w>
▁온 화</w>
▁영 종
▁연장 전</w>
▁에스 더</w>
▁에 디션</w>
▁양 궁</w>
▁애 절</w>
▁애 견</w>
▁쏘 나타</w>
▁싹 쓸이</w>
▁심 해서</w>
▁수용 소</w>
▁수목 드라마</w>
▁세 이브</w>
▁세 무사</w>
▁세 라믹</w>
▁설 리</w>
▁선 처</w>
▁서 산시</w>
▁상 감</w>
▁삼성 전기</w>
▁산 다는</w>
▁사 적</w>
▁사 우</w>
▁빈 틈
▁불 똥</w>
▁분리 수거</w>
▁볼 리비아</w>
▁보 름
▁뱉 뱉</w>
▁발 랄</w>
▁받 쳐</w>
▁반 포</w>
▁반 월</w>
▁바 빠</w>
▁밑 그림</w>
▁밀 크</w>
▁미 인</w>
▁무궁 무진</w>
▁로 저스</w>
▁떠오 를</w>
▁들 인</w>
▁동해 시</w>
▁동 절기</w>
▁독 수리</w>
▁다 져</w>
▁뉴 이스트</w>
▁나 르</w>
▁김기 춘</w>
▁기 우</w>
▁기 발</w>
▁규 율</w>
▁귀 책</w>
▁굴 곡</w>
▁국내 선</w>
▁광주 시장</w>
▁곧 이어</w>
▁고 삐</w>
▁게 을
▁건 보</w>
▁거래 일</w>
▁강원 영</w>
▁간 헐</w>
▁M A
▁G PS</w>
▁3 80</w>
i an</w>
es s
al l
U S</w>
M LB</w>
FA IR</w>
C J</w>
20 08</w>
20 07</w>
형 수</w>
향 신문</w>
했 었
한 국인</w>
학 제품</w>
하 임</w>
평 동</w>
펜 스</w>
파 스</w>
티 넨
찬 회</w>
지 소</w>
지 니</w>
주 현</w>
주 권</w>
제 트</w>
정 립</w>
정 규</w>
잠 재
자 며</w>
자 매</w>
자 릿수</w>
입 도</w>
일 대</w>
인도 네시아</w>
이 력</w>
을 박</w>
육 법</w>
용 허</w>
연구 재단</w>
연 단</w>
어 준</w>
안 리</w>
시 카</w>
시 작</w>
승 태</w>
스타 트</w>
스 컴</w>
스 비</w>
수 액</w>
속 력</w>
성장 률</w>
산 읍</w>
사 슬</w>
비 안</w>
부 문장</w>
부 동</w>
병 식</w>
번 가</w>
마 치</w>
리 타</w>
류 층</w>
론 을박</w>
로 브</w>
레이 더</w>
레 마</w>
라 디오스타</w>
데 르
네 임</w>
네 갈</w>
가 마</w>
▁힘 써
▁후 대</w>
▁효 도</w>
▁호 위</w>
▁형 광</w>
▁항 거</w>
▁플로리 다주</w>
▁프로 포폴</w>
▁풍 계리</w>
▁포르 노</w>
▁퇴 거</w>
▁탑승 객</w>
▁타 일</w>
▁콜레 스테롤</w>
▁켜 진</w>
▁치 켜
▁창 호</w>
▁짝 사랑</w>
▁지원 서</w>
▁줌 줌</w>
▁조 심히</w>
▁조 세
▁조 동
▁조 던</w>
▁정 적</w>
▁정 일
▁정 운
▁전 현무</w>
▁전 라</w>
▁전 곡</w>
▁재 추진</w>
▁자라 나</w>
▁임 성
▁인사 동</w>
▁인공 강우</w>
▁이철 우</w>
▁의 약</w>
▁응 할</w>
▁음 성군</w>
▁원 상회복</w>
▁워 런</w>
▁운 집</w>
▁우 라늄</w>
▁요 율</w>
▁외 로운</w>
▁왕 위</w>
▁올 지</w>
▁올 림
▁오 버
▁예 스</w>
▁영 업소</w>
▁억 억</w>
▁안토 니오</w>
▁아쿠 아</w>
▁아부 다비</w>
▁아무 쪼록</w>
▁아 자르</w>
▁신 간</w>
▁슬라이 드</w>
▁스트라 이크</w>
▁스 릴</w>
▁순 국</w>
▁수 산업</w>
▁손 병
▁소 행</w>
▁소 심</w>
▁설 치
▁서 풍</w>
▁상 조</w>
▁살 폈</w>
▁사이 다</w>
▁사 유지</w>
▁빛 내</w>
▁빛 났</w>
▁빛 깔</w>
▁빌 렸</w>
▁빅 토리아</w>
▁비닐 봉지</w>
▁블로 킹</w>
▁불어 오</w>
▁베네 치아</w>
▁배 변</w>
▁밝혀 야</w>
▁반 세기</w>
▁밀어 내</w>
▁민 병
▁뮤지 엄</w>
▁모 신</w>
▁모 셔
▁머 문</w>
▁맴 돌</w>
▁매달 려</w>
▁매 장이</w>
▁마 당
▁립 립</w>
▁롤 러</w>
▁로 밍</w>
▁떠 난다</w>
▁둔 기</w>
▁되 레</w>
▁동 일인</w>
▁돌아 와서</w>
▁돌 고래</w>
▁도요 지</w>
▁도 무지</w>
▁더 블
▁더 딘</w>
▁대웅 전</w>
▁대마 초</w>
▁대 타</w>
▁다녀 간</w>
▁다 육</w>
▁노트 르담</w>
▁노 영민</w>
▁노 면</w>
▁넘어 오</w>
▁내 원</w>
▁기 타
▁기 도회</w>
▁급 등세</w>
▁금융 업</w>
▁국립 대</w>
▁국 익</w>
▁교 외</w>
▁광 양
▁공 인회계사</w>
▁검 침</w>
▁거침 없</w>
▁개 진</w>
▁개 당</w>
▁각 료</w>
▁k t</w>
▁K CC</w>
▁E x
▁Con t
▁A l
▁A c
[...]
