#version: 0.2
h e</w>
i n
▁t he</w>
t i
e r
e n
e d</w>
a n
o n
a ▁
o r
o n</w>
▁o f</w>
a r
t ▁
e ▁
in g</w>
n d</w>
o u
e r</w>
o ▁
i ▁
e s
▁t o</w>
▁t h
e a
e s</w>
e c
i t
r o
i c
▁a nd</w>
o s
a l</w>
a ti
i s
i l
o r</w>
▁i n</w>
- @</w>
t h
o m
a l
e l
a t
a t</w>
@ -@</w>
u r
en t</w>
q u
a n</w>
▁i s</w>
t he</w>
a s</w>
t r
t s</w>
e n</w>
e m
p os
o t
c e</w>
o l
u s
v e</w>
t▁ he</w>
▁i n
a s
▁w h
a c
ati on</w>
l y</w>
i s</w>
i d
▁th at</w>
r e
n g</w>
i r
▁ e</w>
▁T he</w>
ot ;</w>
l e</w>
u c
i n</w>
t h</w>
i g
u l
r e</w>
u ▁
c h
▁f or</w>
pos ;
p ▁
an d</w>
a m
& a▁
▁o n</w>
ti on</w>
v er
e t
er e</w>
▁p ro
f f
s ▁
a g
qu ot;</w>
a y</w>
u n
r ▁
▁a s</w>
o f</w>
it h</w>
p l
▁i t</w>
i m
▁c on
▁b e</w>
t o</w>
t ed</w>
er s</w>
o o
▁r e
t er</w>
h ▁
&a▁ pos;
▁b y</w>
a▁ nd</w>
o c
r es
u t</w>
▁e x
o p
w ▁
▁s h
il l</w>
m ent</w>
o t</w>
▁c om
u d
s t
o u</w>
s e</w>
i on</w>
▁w ith</w>
▁h a
▁s t
▁w as</w>
o w
p or
a b
r i
it y</w>
e t</w>
c ▁
a d
on g</w>
e v
▁a re</w>
a p
ou n
p er
on s</w>
f ▁
l ▁
r ea
i c</w>
e▁ n
d ▁
s t</w>
t er
i▁ ng</w>
in ▁
at e</w>
al l</w>
i ti
▁w ill</w>
u m
l d</w>
▁a l
i t</w>
i d</w>
on g
d uc
a k
▁a t</w>
▁K or
& quot;</w>
ro m</w>
▁c h
a y
▁y ou</w>
i v
f or
e x
e e</w>
ic e</w>
u b
t y</w>
▁th e
c i
▁T h
m ▁
an ▁
e a</w>
▁, ,</w>
o w</w>
e d
ti ▁
▁b e
c on
c h</w>
▁ s</w>
e ar
&a▁pos; s</w>
an g
i z
b ▁
th ▁
▁ha ve</w>
p ro
ic h</w>
t ur
n ▁
y e
▁f rom</w>
ea r</w>
o ver
d s</w>
r ou
e p
s i
en ts</w>
p ec
i es</w>
en ▁
e g
▁r es
i m</w>
▁u n
▁h as</w>
on al</w>
u e</w>
c om
a r</w>
th er</w>
▁p l
▁a n</w>
▁a c
d ing</w>
ar y</w>
c l
en t
ig h
i r</w>
a t▁
▁I n</w>
e▁ r
▁p ar
a in
▁C h
▁n ot</w>
es s</w>
▁I t</w>
▁wh ich</w>
an ce</w>
t ing</w>
an t</w>
▁th is</w>
▁t r
& a
l l</w>
o▁ n</w>
t e</w>
▁p er
▁w or
▁e n
d er</w>
s o</w>
o v
g ▁
ou t</w>
▁o n
a id</w>
over n
es t</w>
& ▁
th ▁e</w>
▁o r</w>
e▁n t</w>
i al</w>
g h</w>
at ed</w>
g e</w>
▁wh o</w>
▁ ed</w>
a▁ r
u p
▁c an</w>
ff ic
▁com p
ag e</w>
ou ld</w>
▁a n
▁( (</w>
uc h</w>
or e</w>
w i▁
o▁ n
▁d is
▁a b
w h
▁ u
ati ▁
es s
ea n</w>
e w</w>
s s
il l
im e</w>
ar e</w>
▁sh all</w>
i f
▁& quot;</w>
▁b ut</w>
e l</w>
o▁ r
em ent</w>
▁Kor ea</w>
a▁ n
f ter</w>
e▁ d</w>
on ▁
s h
ti c
ou r
an y</w>
▁r ec
a us
in is
ea d</w>
r e▁
▁a d
▁& qu
o g
ol l
em b
o t▁
i▁ n
▁a p
t en
ye ong
▁ t</w>
i b
u ng</w>
in ce</w>
a in</w>
k e</w>
▁i m
as t</w>
ea s
u t
i t▁
o▁ t
ou r</w>
an g</w>
en ce</w>
ou s</w>
tr y</w>
in g
e y</w>
e m</w>
▁th ere</w>
ak e</w>
▁w ere</w>
▁f ir
ou ▁
▁h e</w>
op le</w>
▁W h
er v
ar ▁
am e</w>
u n</w>
f▁ or</w>
o d
m e</w>
o▁t ;</w>
k s</w>
e ople</w>
▁b ec
f or</w>
▁c l
▁t ime</w>
▁y ear</w>
- ▁
▁e v
es ti
▁be en</w>
▁a g
om e</w>
0 0</w>
-▁ @</w>
por t</w>
& qu
ec t</w>
p r
a m</w>
in e</w>
el y</w>
in▁ g</w>
cl ud
g i</w>
p▁ os
; s</w>
▁f or
k ing</w>
oo d</w>
▁i f</w>
ati▁ on</w>
▁I n
e f
or ▁
ot▁ ;</w>
▁o r
tur e</w>
aus e</w>
ub l
pos ▁
▁s aid</w>
an d
s tr
a f
@ -▁@</w>
▁al so</w>
a ir
a d</w>
s ed</w>
al ly</w>
th▁ at</w>
▁r el
t▁ o</w>
igh t</w>
al l
iti es</w>
ro v
▁Kor ean</w>
▁s uch</w>
a v
▁s o</w>
for m
b e</w>
ar d</w>
ati ons</w>
▁wh en</w>
q ▁u
ati onal</w>
▁p r
id e</w>
o▁ f</w>
▁d o</w>
▁the ir</w>
▁the y</w>
o m</w>
▁a fter</w>
▁p eople</w>
e▁ s</w>
on e</w>
▁m ore</w>
w▁ h
i ve</w>
e en</w>
a e</w>
res id
or s</w>
p ar
en c
an▁ d</w>
▁con t
o b
▁K im</w>
e e
om m
@ ▁
ur e</w>
u l</w>
▁ ot;</w>
e▁ c
u m</w>
e▁ r</w>
ad e</w>
▁a t
o▁ s
an c
b y</w>
t▁ h
@▁ -@</w>
▁th an</w>
c or
o on</w>
ti v
y ▁
an s</w>
▁ab out</w>
▁p re
o o</w>
pos ;</w>
ea l
il e</w>
i ke</w>
▁S e
o in
t u
ab le</w>
er ▁
a ce</w>
▁G yeong
os t</w>
▁d i
u s</w>
i l</w>
▁m e
us t</w>
▁2 0
it t
▁& a
ar k
d i
▁in v
ubl ic</w>
▁h ead</w>
e a▁
▁fir st</w>
el l</w>
w o</w>
C h
▁com m
overn ment</w>
▁f ac
▁ es</w>
▁pro v
▁w e</w>
▁s tr
p en
ar t
▁Th is</w>
an ag
pos; s</w>
t▁ er</w>
▁h is</w>
re e</w>
▁o ut</w>
es e</w>
▁a r
e w
ver s
d ed</w>
it h
n ing</w>
i▁ n</w>
al ▁
p res
▁m ay</w>
ay s</w>
▁s ec
s ti
p ol
▁in clud
ev el
▁u p</w>
▁A c
▁con s
an s
al s</w>
▁m y</w>
▁re g
wi▁ th</w>
▁s ub
▁s up
▁h el
l is
ci al</w>
d us
▁on e</w>
▁in ter
m e▁nt</w>
▁m on
t▁ ed</w>
s u
i ous</w>
d is
▁p ol
d er
ig n
i p
es t
c rea
ti▁ on</w>
▁bec ause</w>
ig h</w>
s ec
▁pro duc
g h
or y</w>
▁Gyeong gi</w>
▁e m
oo l</w>
us in
rou gh</w>
K or
&a p▁os
g r
▁o ffic
▁s p
▁I f</w>
▁c oun
t or</w>
ur r
▁s ch
or th</w>
il ▁
it e</w>
as e</w>
ou l</w>
b er</w>
b l
ati ve</w>
e on</w>
a▁ s</w>
i a</w>
o p</w>
o d</w>
▁i ts</w>
oo k</w>
▁l oc
ti ons</w>
▁wh ere</w>
ic al</w>
▁P ar
▁al l</w>
w as</w>
S e
a ve</w>
a w
ti ci
ow n</w>
&▁ a
▁m e</w>
▁A s</w>
a il
▁ac c
▁ h
▁per s
s ing</w>
ic ▁
q▁u ot;</w>
s ion</w>
os e</w>
▁ha d</w>
ill ion</w>
o y
l ec
▁f in
▁o ther</w>
▁G u</w>
ol d</w>
▁g overnment</w>
m s</w>
s u▁
▁q u
d r
▁@ -@</w>
w▁ as</w>
▁st ud
et w
y st
por t
I n
pro v
▁d ue</w>
e ed</w>
k ed</w>
a▁ t</w>
ear s</w>
ea se</w>
▁a m
en d</w>
▁p os
f r▁
K ▁
▁d ec
at ing</w>
e b
a▁ l
r ec
it s</w>
▁y our</w>
▁o p
an n
p r▁
u r</w>
e▁r s</w>
▁W e</w>
ir ec
▁on ly</w>
ti ve</w>
s es</w>
, 0
g an
▁w on</w>
▁w ith
f er
▁p ublic</w>
▁m emb
h ed</w>
▁l ea
o▁ r</w>
▁Th ere</w>
ri v
▁o per
in c
s i▁
a▁ re</w>
▁S t
▁p ur
j u</w>
▁includ ing</w>
th at</w>
▁t wo</w>
ac h</w>
s t▁
▁th rough</w>
en ti
ac k</w>
ing s</w>
ou gh</w>
ig n</w>
ul ar</w>
si b
h e▁
a i▁
w▁h o</w>
i ed</w>
f ir
ul t</w>
el l
r y</w>
ar ge</w>
▁U n
▁p res
▁l ast</w>
i tion</w>
▁N orth</w>
▁d ay</w>
▁m at
gan iz
▁in crea
▁un der</w>
e ti
s pec
e h
tici p
f l
enc y</w>
ec h
evel op
▁s m
▁l ike</w>
in k</w>
▁P rov
resid ent</w>
i▁ ty</w>
p h
j ect</w>
s el
e▁ re</w>
▁t ea
S .</w>
itt ee</w>
r o▁
▁A r
ark et</w>
S ▁
an ies</w>
i p</w>
▁f l
▁w ould</w>
▁n um
et y</w>
m inis
▁k n
sti tu
▁M inis
w h▁
il ity</w>
en▁ t</w>
v er</w>
2 0
wi▁ ll</w>
c er
▁n o</w>
t ly</w>
w ith</w>
v is
a▁ n</w>
s s</w>
o▁ ng</w>
▁d r
▁d es
t ers</w>
cor ding</w>
ou th</w>
at es</w>
esti g
▁n ew</w>
il y</w>
en ter</w>
pos▁ ;s</w>
ff er
ter n
ex t</w>
▁b u
r el
i▁ c
▁m any</w>
v ▁
▁20 1
ol og
▁&qu o▁t;</w>
et ro
i▁ ch</w>
ent ly</w>
id ed</w>
tr ▁
fr▁ om</w>
it ed</w>
u g
is t
▁h igh</w>
i▁ s</w>
ff ice</w>
▁Ch in
en d
v i
▁m anag
e ther</w>
▁Wh en</w>
▁the m</w>
▁num ber</w>
▁s pec
com p
▁s erv
i vers
en er
ow ing</w>
▁ap p
▁ex pec
em s</w>
p on
▁m ed
d o</w>
▁sh ould</w>
a▁ c
b e▁
ti▁ ng</w>
un ▁
▁d el
ur ing</w>
k ▁
yst em</w>
a▁ ll</w>
w or
usin ess</w>
ab lis
▁s c
ro w
o▁ m
▁rec e
a▁ te</w>
ap o▁s
▁v is
ang e</w>
v en
e o
ic ation</w>
is e</w>
a▁ l</w>
if e</w>
duc ation</w>
u tion</w>
▁m ade</w>
▁C omm
ec ▁
ar g
▁s e
str uc
iz ed</w>
u p</w>
ec ess
j ▁
▁loc al</w>
for e</w>
etro pol
. S.</w>
,0 00</w>
et ing</w>
ti f
w on</w>
o▁n s</w>
d ay</w>
▁comp anies</w>
us t
▁&qu ▁ot;</w>
ic es</w>
p le</w>
ou nd</w>
ac t</w>
▁an n
▁y ears</w>
ech n
m an</w>
▁L ee</w>
r ap
m er</w>
▁com pl
a w</w>
&ap▁os ;
▁in to</w>
▁Se oul</w>
ou s
l l
▁hel d</w>
ev er</w>
▁c ar
i▁ al</w>
d in
i ons</w>
l oc
rou nd</w>
▁o ver</w>
s c
ul tur
▁H e</w>
▁e st
con om
t▁ s</w>
▁u se</w>
▁p h
▁comp any</w>
ow er</w>
as s
etw een</w>
t ro
f ac
at er</w>
▁g r
▁T r
▁c r
on d</w>
minis tr
s p
&a▁pos; ▁s</w>
an ts</w>
re a</w>
▁t ake</w>
&▁ qu
▁re qu
▁pro c
▁r ea
c▁ h
oc i
▁v ar
▁wor k</w>
er y</w>
▁b etween</w>
▁m ake</w>
▁d o
▁f oll
ti es</w>
s id
ver y</w>
▁ch il
ud g
▁b as
at▁ ion</w>
is ▁
s ur
▁ n
▁ex per
▁sup port</w>
em ▁
o ve</w>
gh t</w>
h a▁
c oun
er e
▁e ach</w>
▁th ink</w>
▁ap pl
▁N ational</w>
el ec
y ing</w>
▁sch ool</w>
▁w ant</w>
er g
P rov
▁st ar
▁m arket</w>
& q▁uot;</w>
com m
a u
▁P resident</w>
u al</w>
▁or der</w>
▁ev en</w>
▁in dus
▁memb ers</w>
▁t er
&a▁pos; ▁t</w>
ecess ary</w>
in v
tic le</w>
i e
s a▁
es ▁
iz e</w>
▁d ep
j ec
▁wh ile</w>
▁par ticip
h▁ as</w>
▁g o</w>
▁b usiness</w>
▁d et
el ▁
on▁ al</w>
i▁ on</w>
▁s ince</w>
o▁ ut</w>
&▁ quot;</w>
e ong</w>
rou p</w>
ou ng</w>
n ot</w>
▁Ac cording</w>
▁inv estig
f r
i▁ ce</w>
▁Y ou</w>
▁s u
v ir
▁b r
▁pro m
in d</w>
ch ▁
▁at ten
▁U .S.</w>
il ities</w>
pl ▁
m e
▁n ecessary</w>
ur es</w>
▁&a pos;s</w>
ol ▁
h as</w>
c ed</w>
&▁a pos;</w>
&a pos;s</w>
en g
l i
i als</w>
▁tr ans
▁g et</w>
▁d on</w>
w ill</w>
wh i▁ch</w>
▁th ree</w>
▁f am
▁be ing</w>
ay ing</w>
t▁ h</w>
▁Prov ince</w>
o l</w>
m a▁
1 ▁
▁c oll
▁J ap
▁est ablis
▁d evelop
e▁ n</w>
d e</w>
▁c rea
▁g o
▁s ystem</w>
▁res id
at▁ ed</w>
▁f e
▁g ood</w>
▁Par k</w>
▁P l
▁e ar
is t</w>
u▁ r
t a▁
▁D o</w>
▁w ell</w>
▁s ome</w>
ap p
&qu o▁t;</w>
s e▁
&qu ▁ot;</w>
pl oy
p re
i ence</w>
▁in d
ul ▁
▁A l
ou se</w>
▁S h
t a
b u
▁pers on</w>
u ation</w>
▁e t
l i▁
▁per form
▁m a
am p
y ear</w>
▁a ss
e o</w>
▁expec ted</w>
re g
▁c ould</w>
▁pl ace</w>
▁Minis try</w>
o k</w>
h er</w>
sib le</w>
▁&qu ot▁;</w>
▁ al</w>
art ment</w>
w ay</w>
tr ic
eas on</w>
e ed
▁a m</w>
▁ er</w>
▁i ss
ak ing</w>
▁s ur
▁m ov
▁c as
er m
s he</w>
▁r em
▁an y</w>
ati o▁n</w>
i▁ es</w>
▁p oin
al e</w>
an cial</w>
▁b el
u▁ n
d y</w>
▁bu il
▁o ur</w>
▁h ea
▁n ext</w>
▁n eed</w>
form ation</w>
an▁ ce</w>
▁pol ice</w>
▁d irec
n am</w>
i onal</w>
e ts</w>
▁stud ents</w>
▁E n
oun t</w>
dr en</w>
▁or ganiz
▁manag ement</w>
p p
tr ies</w>
▁1 0</w>
b▁ ut</w>
▁c ase</w>
Kor e▁
▁O n</w>
m o▁
▁var ious</w>
▁) )</w>
o ther</w>
ain ed</w>
▁m ost</w>
on▁ g</w>
un g
▁ac tiv
▁e conom
ti me</w>
y e▁
▁1 1</w>
▁g u</w>
i▁ t</w>
ab ▁
an k</w>
▁r a
▁g u
en s</w>
d iti
▁c er
▁t a
▁ex c
b e
; t</w>
t e▁
▁d uring</w>
▁s ame</w>
▁be fore</w>
▁offic ial</w>
▁Ar ticle</w>
▁re por
▁tea m</w>
G yeong
s on</w>
om ▁
vir on
▁pro bl
h o▁
or t</w>
el d</w>
iv ing</w>
▁Chin a</w>
tr ib
pr o▁
▁c or
overn or</w>
th ing</w>
our t</w>
emb er</w>
▁wh at</w>
n o▁
p o▁s
▁u sed</w>
n ed</w>
r u
oo per
P ▁
p▁ l
▁F or
▁b l
▁d ays</w>
▁ann oun
▁m in
▁h ow</w>
ultur al</w>
ff ▁
d▁ er</w>
sh ip</w>
▁a rea</w>
i▁ s
h▁ is</w>
o or</w>
▁A t</w>
▁e l
air s</w>
oc ial</w>
m ents</w>
i od</w>
▁m illion</w>
en▁ ts</w>
▁cont in
p s</w>
▁at t
as s</w>
it al</w>
▁e ff
e ong
af t▁er</w>
ic y</w>
▁S outh</w>
T he</w>
▁w r
&a▁pos; t</w>
op e</w>
olog y</w>
▁al l
▁n ow</w>
r ed</w>
p o▁r
ti o▁n</w>
f rom</w>
ch eon</w>
ac ▁
ain ing</w>
&qu ot▁;</w>
▁l ot</w>
▁1 9
▁di ffer
▁pro ject</w>
h is</w>
o▁ ul</w>
l e▁
l es</w>
▁C on
un d
▁e lec
▁me eting</w>
i um</w>
C ▁
us ▁
t ain</w>
A ▁
th is</w>
K im</w>
ul ture</w>
w n</w>
si ve</w>
g u</w>
▁s l
▁a s
▁s it
▁ex pl
th er
ib er
a▁r y</w>
▁di ffic
m is
e x</w>
ic s</w>
y p
ivers ity</w>
m e▁
o k
f f</w>
▁g ener
M ▁
in▁ ce</w>
o o▁
▁par tic
o b</w>
▁a ff
wh o</w>
s aid</w>
▁A m
ear ch</w>
▁mon th</w>
▁c urr
▁res pon
▁“ “</w>
&a▁ pos▁;s</w>
▁con cer
y ou</w>
▁t ri
ag rap
▁l ong</w>
▁v i
▁C ity</w>
c ri
iv ed</w>
it an</w>
m on
&a pos;</w>
▁h er</w>
▁f i
t ors</w>
▁P ro
o w▁
▁pl an</w>
c .</w>
f ul</w>
▁kn ow</w>
K or▁
▁con duc
▁wor ld</w>
an t
u▁ re</w>
▁rel ated</w>
com e</w>
sel f</w>
od ay</w>
is m</w>
▁with out</w>
th e▁
▁s al
▁A ss
l ed</w>
ha▁ ve</w>
▁d em
&a▁ po▁s
id ent</w>
▁e ducation</w>
&a▁pos; m</w>
is h
r i▁
l a▁
m ed</w>
o ti
is h</w>
rou ▁
m ed
m y</w>
ow ed</w>
em e▁nt</w>
ev ▁
▁with in</w>
n▁ ot</w>
anc es</w>
▁in formation</w>
▁w ee
▁sm all</w>
▁foll owing</w>
▁f r
w ang
c o▁
s h▁
▁produc ts</w>
ot al</w>
▁f u
en t▁
oc k</w>
▁a round</w>
▁ex p
▁fac t</w>
▁partic ular</w>
ic k
en tr
y m
▁H y
f o▁r</w>
is ion</w>
2 ▁
s▁ t
c c
in d
▁Comm ittee</w>
e t▁
▁c ity</w>
▁Pl ease</w>
k ers</w>
▁l arge</w>
▁sec ond</w>
▁serv ice</w>
s an</w>
d u
▁s ee</w>
▁re f
it ing</w>
Se o▁ul</w>
▁b o
en se</w>
om en</w>
t ment</w>
al ity</w>
di tion</w>
a ir</w>
overn me▁nt</w>
▁r ight</w>
ci l</w>
▁j ust</w>
▁o ffice</w>
th ough</w>
h ave</w>
▁c o
ab or</w>
a▁ tion</w>
K▁ or
▁ev ent</w>
▁g row
U n
a e
ow s</w>
s erv
l▁ y</w>
il it
▁o ut
f i▁
▁O r
ati on
L ▁
ac k
al y
ul t
▁Ac t</w>
▁d id</w>
▁m eas
s▁ h
af ety</w>
▁pre v
m it</w>
ent al</w>
▁pr ice</w>
▁ch ec
eal th</w>
▁resid ents</w>
for m</w>
h ere
▁f ood</w>
▁indus try</w>
e ign</w>
us e</w>
s up
por ts</w>
d e▁
▁b ro
Kor▁ ea</w>
▁d e
ust om
b ut</w>
& apo▁s
all ed</w>
t▁h at</w>
struc tion</w>
▁M oon</w>
▁m uch</w>
▁l ife</w>
v en</w>
ea l</w>
s ide</w>
▁spec ial</w>
▁h igh
▁pro f
um p</w>
as ▁
at t
ai▁ d</w>
ur ▁
iti z
▁cas es</w>
i an</w>
▁cons id
ro w</w>
a k</w>
Kor ea</w>
ea s</w>
Kore▁ an</w>
er ing</w>
▁s ti
▁increa se</w>
i k
re t
i or</w>
n e▁
▁be g
▁s ol
es ted</w>
s ung</w>
s l
ag es</w>
▁fac ilities</w>
b ▁e</w>
h y
▁ p
l ine</w>
▁coun try</w>
▁t otal</w>
▁e nd</w>
a p▁
z e</w>
os p
ati on▁al</w>
▁per iod</w>
ee p</w>
ac c
iz ation</w>
▁am ong</w>
▁A n
▁ter m</w>
o▁ l
v ing</w>
g u
y ung</w>
▁w ay</w>
▁t echn
▁Th at</w>
▁f il
b een</w>
v es</w>
at ely</w>
ar ds</w>
▁m us
▁chil dren</w>
im es</w>
▁ th</w>
i e</w>
tr ac
▁ma j
th s</w>
▁wh ether</w>
▁f un
uc c
▁in st
th▁ er</w>
t▁ r
i g</w>
ati c</w>
o i</w>
▁p op
▁f ri
n er</w>
ow ever</w>
▁v ery</w>
un ity</w>
ot h</w>
a u▁
ain st</w>
▁oper ation</w>
at a</w>
an u
here in
▁r ate</w>
oo m</w>
▁o b
a▁ ge</w>
▁ex pen
ec tion</w>
▁dis c
▁re port</w>
ti l</w>
▁r eal
m ak
o p▁
pos e</w>
▁A fter</w>
C omm
el f
b le</w>
en▁ ce</w>
ch ed</w>
a▁ m
al f</w>
▁th ▁e</w>
in cial</w>
air man</w>
agrap h</w>
▁h ear
or k</w>
▁Par ty</w>
pl em
u th
u te</w>
&a▁ pos▁
M etropol
▁un der
▁announ ced</w>
▁g l
ul ts</w>
▁G overnor</w>
0 ,000</w>
us an</w>
▁f ound</w>
d ic
ar t</w>
t▁ y</w>
a z
ot e</w>
d i▁ng</w>
▁g rea
b u▁
▁produc t</w>
▁th ose</w>
▁b illion</w>
jec ts</w>
ak es</w>
con ▁
a ff
d i▁
il▁ l</w>
▁ad v
ew s</w>
▁pl ay
it▁ an</w>
▁des ign
▁ch ang
ep t</w>
▁investig ation</w>
d en</w>
an ese</w>
oc r
▁o cc
G ▁
▁th ese</w>
y o▁
▁G ang
u▁ c
pres ent
ac h
▁Wh at</w>
ffic i
T ▁
iti ▁
ar m
is ed</w>
l o▁
▁g roup</w>
p ri
c ent</w>
og ether</w>
R W</w>
n▁ d</w>
▁in stitu
in es</w>
▁S am
▁J e
r em
w ard</w>
▁re v
▁proc ess</w>
th a▁t</w>
om e
ac hed</w>
▁e as
▁et c.</w>
u ty</w>
▁E x
ut es</w>
w▁ on</w>
an ding</w>
. ▁
▁t al
▁r o
▁in tro
l▁ ed</w>
eas ed</w>
▁fin ancial</w>
a▁ t
a i</w>
o y</w>
▁r et
▁develop ment</w>
ev el</w>
od y</w>
▁s aying</w>
▁b udg
ar k</w>
en s
▁w ater</w>
▁for mer</w>
ol e</w>
▁e very</w>
h ib
t▁ ion</w>
o▁n e</w>
it▁ h</w>
er ▁s</w>
▁inv est
▁o pen
N ▁
c o▁n
▁c enter</w>
ie f</w>
▁H owever</w>
igh ts</w>
▁d oc
▁s ay</w>
▁cont ro
▁mat ters</w>
▁Al though</w>
w▁ ill</w>
▁perform ance</w>
in ter
i ev
s ch
p ly</w>
▁u s</w>
i▁ d
e▁ ss</w>
▁in ten
▁s us
b▁ er</w>
▁d ef
m▁ an</w>
in ation</w>
ob al</w>
▁im port
s ub
▁am ount</w>
▁ex am
▁pur su
he▁ ad</w>
▁i d
i▁ l
tic s</w>
▁s ign
c es</w>
ur ity</w>
▁h im</w>
K▁ im</w>
▁com e</w>
▁U S</w>
din ance</w>
s um
d ers</w>
en ds</w>
▁u s
▁r eason</w>
u ed</w>
s ai▁d</w>
▁ ot▁;</w>
enti al</w>
▁diffic ult</w>
▁repor ted</w>
▁par ty</w>
u es</w>
a▁n t</w>
▁s k
e▁c t</w>
▁ch ange</w>
▁s ocial</w>
▁ch arge</w>
D ▁
be▁ en</w>
d▁ ed</w>
m en▁t</w>
ar ac
▁pro t
v ed</w>
▁bec ome</w>
▁fir e</w>
u▁ l
▁st at
f in
eg al</w>
ul l</w>
riv ate</w>
ec ted</w>
▁& q▁uot;</w>
▁ad ministr
▁n o
w e▁
▁i t
esti v
▁h ome</w>
▁par t</w>
ou▁ ld</w>
i ver
emb ly</w>
ec u
p ing</w>
▁en ter
n s</w>
an ds</w>
etropol itan</w>
ef t</w>
m .</w>
▁t rea
▁a ud
if ic
s e
at ur
▁probl em</w>
▁wor king</w>
c r
in ed</w>
r d</w>
er ed</w>
▁ag ain</w>
▁ad dition</w>
& q▁u
▁fam ily</w>
ea t</w>
▁ag re
ou ght</w>
ev ant</w>
m anag
f t
▁offic ials</w>
▁hel p</w>
▁C enter</w>
ti c</w>
esti c</w>
et ter</w>
▁en tr
▁pro sec
n ow</w>
on t</w>
b e▁c
▁s elec
sa▁ id</w>
▁pro gr
&a pos;
▁c ustom
▁J ae</w>
tr ial</w>
▁con struction</w>
▁l o
b▁ y</w>
▁h ere</w>
pl o
s o▁
c an</w>
▁Th ey</w>
▁b ack</w>
▁o ver
▁comp eti
H ▁
e▁ x
for m▁
▁h um
c▁ an</w>
ir e</w>
▁sh ar
p ed</w>
▁prov ide</w>
l s</w>
▁M y</w>
▁par agraph</w>
▁F or</w>
▁pos sible</w>
▁wh y</w>
oun d
Metropol it▁an</w>
s m
ov ▁
fer red</w>
▁sit uation</w>
▁ag ainst</w>
f▁ f
▁a uth
▁go ing</w>
S t
a▁ y</w>
▁ ts</w>
▁coun tries</w>
in al</w>
▁con fir
r▁ ed</w>
our s</w>
▁sti ll</w>
rea s</w>
▁inter n
ou▁ n
▁m od
u▁ n</w>
▁u sing</w>
du ce</w>
▁Jap an</w>
▁sal es</w>
▁s et</w>
c as
▁M ar
▁differ ent</w>
m▁ ent</w>
20 1
er ▁e</w>
▁d om
▁d am
▁2 0</w>
d ec
en ted</w>
▁S ince</w>
▁th ▁
eh ic
oin t</w>
w o▁r
▁compl et
ir ed</w>
▁s im
▁m ain
▁n ational</w>
ul ation</w>
ug g
▁p as
id ▁
c a▁
s▁ ed</w>
ain s</w>
a▁ ng</w>
B ▁
d ep
p▁ le</w>
▁w at
▁Chin ese</w>
i▁ ts</w>
iv es</w>
▁rece ived</w>
at ure</w>
A ss
▁rec or
uc l
si a</w>
n ess</w>
▁C oun
ir ▁
ea m</w>
ig ▁h
▁en viron
d le</w>
▁d ata</w>
duc ed</w>
tric t</w>
air per
▁d own</w>
▁s he</w>
▁Tr ump</w>
▁B usan</w>
w ere</w>
▁inter est</w>
▁maj or</w>
is ts</w>
▁c aus
oun ▁
▁th en</w>
▁t oday</w>
ea d
▁p ower</w>
i o</w>
i o▁n</w>
k i▁ng</w>
▁P ol
▁J ung</w>
o ol
th▁ is</w>
▁g ive</w>
t▁ or</w>
▁mon ey</w>
pos ed</w>
ye ong</w>
t o▁
ch ing</w>
w e▁re</w>
▁c ap
▁3 0</w>
ri ed</w>
▁meas ures</w>
o tion</w>
▁an aly
▁memb er</w>
▁dep artment</w>
on ed</w>
iv id
ar s</w>
vi ew</w>
iv ▁
▁pursu ant</w>
▁pre par
▁Sam sung</w>
r a▁
▁import ant</w>
c t</w>
▁rel evant</w>
elf are</w>
is sion</w>
▁m ain</w>
em ocr
i▁ t
▁bas ed</w>
▁s er
on y</w>
sib ility</w>
▁In tern
po▁r t</w>
ov er</w>
▁for eign</w>
c o▁m
▁in c
tr act</w>
▁r oom</w>
▁f our</w>
o▁ us</w>
en ing</w>
▁p rivate</w>
▁e qu
a p</w>
rea dy</w>
ur n</w>
on ▁s</w>
▁per cent</w>
▁un til</w>
▁Minis ter</w>
tr uc
▁res ult</w>
▁a reas</w>
▁increa sed</w>
u nd</w>
▁Jap anese</w>
▁p ay</w>
▁econom ic</w>
lis h</w>
am ▁
G overnme▁nt</w>
▁Un iversity</w>
i x</w>
▁f ive</w>
▁ n</w>
b ec
▁c ame</w>
t e▁r
ex p
a un
▁dec ided</w>
ti▁ me</w>
ti ce</w>
▁h ope</w>
▁G wang
su▁ ch</w>
in clud
▁w in
▁h ol
▁p ay
re a▁
▁fu ture</w>
▁Wh ere</w>
▁em ploy
ilit ary</w>
▁Or dinance</w>
h av
estiv al</w>
▁att ached</w>
▁A n</w>
h i▁
▁t imes</w>
C h▁
▁t ogether</w>
▁l oo
▁v al
▁budg et</w>
▁l ear
th▁ ey</w>
J ▁
ev en</w>
am es</w>
▁w omen</w>
itiz ens</w>
▁l im
p o▁
▁res ults</w>
a il</w>
▁O n
con t
▁ab le</w>
e▁ st</w>
▁chec k</w>
res s</w>
n o</w>
is ing</w>
el s</w>
p e</w>
▁b est</w>
▁t oo</w>
o s</w>
e ir</w>
▁med ia</w>
f o▁r
▁t em
▁ear ly</w>
f o▁
re d
m it
▁n eed
E n
▁s um
y▁ ou</w>
is tr
ver y
fir ▁
pro duc
▁vis it</w>
▁im prov
v ▁e</w>
▁n eg
p a▁
ep ar
g r▁
a fter</w>
wh▁ en</w>
as ter</w>
▁in spec
it▁ y</w>
▁pur pose</w>
▁w ar
▁exper ience</w>
▁ta x</w>
&▁qu o▁t;</w>
ir d</w>
tur es</w>
▁do es</w>
es ts</w>
m in
▁b ur
▁t ook</w>
un ic
n▁ g</w>
▁comm ittee</w>
ub l▁
s▁ o</w>
▁s ome
▁gener al</w>
▁atten tion</w>
n ew</w>
o h
c al</w>
▁w ea
at eg
▁l aw
ic▁ h</w>
d es
▁p ic
▁pl ans</w>
re qu
er ation</w>
▁activ ities</w>
a in▁
pos ition</w>
o ffic
ay or</w>
▁c ulture</w>
al▁ so</w>
A r
0 th</w>
▁rea l</w>
▁h alf</w>
▁p ast</w>
▁sur v
▁m ust</w>
g s</w>
u le</w>
▁c ooper
r ic
in dus
▁l eft</w>
or ganiz
▁F in
id n</w>
▁cons um
▁&a pos;</w>
▁En g
a th
l▁ d</w>
t▁ ry</w>
iti ▁es</w>
▁tr ad
▁g ame</w>
e e▁
b as
L ee</w>
▁op in
il i
▁s ucc
w a▁s</w>
or ity</w>
▁p aid</w>
w il▁l</w>
. m.</w>
y s</w>
ex ▁
▁grea t</w>
▁l evel</w>
▁S up
▁u r
i▁n e</w>
▁y oung</w>
▁r ul
▁st or
▁ex pres
no▁ t</w>
id dle</w>
us ed</w>
▁wee k</w>
the▁ ir</w>
w ays</w>
▁s afety</w>
▁w ent</w>
el f</w>
▁c iv
▁l ow</w>
▁E ducation</w>
and id
t or
▁h ard</w>
a▁n y</w>
m ore</w>
▁s ite</w>
▁j ob</w>
E O</w>
▁fin d</w>
l ike</w>
d r▁
oc ▁
ib le</w>
▁en j
th▁ an</w>
▁c ol
▁st and
▁H ow</w>
ye es</w>
yo▁ u</w>
on om
1 9
▁m ar
▁mat er
▁dom estic</w>
res ▁
▁requ est</w>
ann ot</w>
sh a▁ll</w>
b r
▁h ouse</w>
or▁ th</w>
▁S ec
s y
▁E ven</w>
e▁ m
y e</w>
per ▁
d irec
▁pol icy</w>
p▁os ;s</w>
i al
ar ed</w>
▁pl ease</w>
▁ph ot
▁expen ses</w>
▁t our
i▁ g
▁vi ol
▁S erv
▁s end</w>
▁prov ince</w>
▁c ar</w>
▁buil ding</w>
un▁ g</w>
▁A d
C ▁h
is si
▁pres cri
▁o ff</w>
e et</w>
h▁ er</w>
ti s
fir▁ st</w>
th ers</w>
u▁ ng</w>
ool s</w>
▁iss ue</w>
ear ▁
ad ▁
ir st</w>
▁v id
p re▁
ubl▁ ic</w>
a▁ r</w>
▁on ce</w>
▁c alled</w>
▁wor kers</w>
▁v ehic
▁re present
▁m aking</w>
▁h ou
▁l abor</w>
▁b rea
e duc
K o▁
at ten
ar ▁e</w>
▁fe el</w>
▁K RW</w>
is ting</w>
g o</w>
▁n ame</w>
▁ch arac
et t
w e</w>
▁N ew</w>
tr on
ati o▁ns</w>
en ter
▁f oc
▁sub sid
b ed</w>
▁pur ch
in a</w>
▁h ours</w>
ar ding</w>
▁det erm
iz ▁ed</w>
ac es</w>
em ents</w>
0 s</w>
ir c
▁ev al
a ther</w>
▁20 0
z ed</w>
l ing</w>
id es</w>
eo p▁le</w>
ous ly</w>
ie ve</w>
ul ly</w>
h ead</w>
▁W or
l ea
h a▁s</w>
at or</w>
▁aff airs</w>
ab▁ le</w>
y u</w>
▁techn ology</w>
h ▁e</w>
l ▁e</w>
▁re p
▁v ol
▁s ing
▁b ea
t e▁d</w>
▁pro jects</w>
ti c▁
d ong</w>
▁sh ow</w>
▁h ist
or m
▁m or
▁c ou
si an</w>
op er
▁app ly</w>
es si
f am
▁se ems</w>
t wo</w>
P ro
y o</w>
▁t yp
pos▁ ;</w>
▁o w
u k</w>
2 0</w>
▁C om
▁em erg
▁W ith</w>
▁D a
st ud
i e▁s</w>
rou▁ gh</w>
in s
as te</w>
tic al</w>
d o▁
▁a ut
d en
▁rece ive</w>
e▁ ly</w>
ye▁ ar</w>
▁l ik
s ure</w>
▁rel eased</w>
l d
▁su per
ess es</w>
▁disc us
oci ation</w>
▁appl ication</w>
erg y</w>
at▁ e</w>
▁prosec ution</w>
at▁ ional</w>
ag ▁
l▁ l</w>
1 0</w>
i f</w>
as h
▁expl ained</w>
5 th</w>
▁p ut</w>
v i▁
▁curr ent</w>
enc es</w>
▁R es
wh▁ o</w>
sur ance</w>
plo yees</w>
s▁ t</w>
s▁ on</w>
O r
ch ool</w>
ar▁ ty</w>
R ▁
▁al ready</w>
▁c os
▁M etropolitan</w>
▁con c
ac tiv
▁prov incial</w>
▁s w
▁fr ont</w>
em ony</w>
▁ex ch
re en</w>
ti m
ro▁ m</w>
re fer
f ri
▁l aw</w>
▁c ultural</w>
iv en</w>
for ▁
▁pay ment</w>
i qu
un e</w>
b o
▁c ri
oo ds</w>
s p▁
e a▁r
8 th</w>
a▁n s</w>
▁in t
oci ety</w>
p▁ ro
ent ary</w>
all s</w>
▁o wn</w>
▁l ook</w>
s w
g er</w>
m at
h igh</w>
▁& apo▁s
e er</w>
▁C ourt</w>
▁star t</w>
▁D ec
▁pr ices</w>
tif ic
▁res earch</w>
e▁ t</w>
l ess</w>
ret ary</w>
og n
p a▁r
▁conduc ted</w>
▁c annot</w>
um ▁
ous eh
airper son</w>
ig▁h t</w>
C on
Se oul</w>
▁re ferred</w>
▁d ate</w>
▁Ass embly</w>
▁med ical</w>
▁h ealth</w>
▁im plem
u ally</w>
ar i
7 th</w>
au▁ se</w>
ati▁ ve</w>
▁D is
▁c our
mo▁ re</w>
4 th</w>
stitu te</w>
▁poin t</w>
▁s en
p ur
Prov in▁ce</w>
▁v ic
w ang</w>
3 ▁
▁m ilitary</w>
u b</w>
▁mon ths</w>
▁gl obal</w>
o ff
▁b ody</w>
▁pl an
n ov
▁m an
▁g ot</w>
ati s
▁grow th</w>
e▁ l
▁se ver
▁ha pp
it t▁
pro ve</w>
▁str ong</w>
im ▁
▁sch ed
ex pec
an ks</w>
itt le</w>
▁tr av
er c
▁mus ic</w>
▁ac cording</w>
k er</w>
▁f ree</w>
tu al</w>
▁O ffice</w>
▁invest ment</w>
osp ital</w>
fr as
g y</w>
▁Ch airman</w>
wh ich</w>
c▁ ed</w>
▁p ri
amp ;</w>
e es</w>
al▁ l</w>
▁u n</w>
l ast</w>
▁Pol ice</w>
y ang</w>
ul ar
▁d iv
med i
▁rec omm
&a▁pos▁ ;t</w>
▁m is
em p
▁a v
▁pol iti
por ation</w>
f i
▁b oth</w>
▁f ull</w>
or row</w>
a▁r d</w>
▁S o</w>
i ally</w>
es s▁
es t▁
s ol
▁S u
ta ur
▁c are</w>
▁me ans</w>
▁R ep
es ter
tr ans
em or
▁o ld</w>
d▁ s</w>
▁P r
▁p er</w>
b usin
al▁ ly</w>
▁I s</w>
▁c ourt</w>
N ation▁al</w>
e on
▁me th
▁d riv
▁G overnment</w>
p e▁
▁l ess</w>
trib u
en ef
en e</w>
. 5</w>
comp an
com pl
d▁ uc
ou▁ r
▁str eng
▁et c</w>
am s</w>
d el
inc ▁e</w>
▁C an</w>
g over
a im
▁l aun
▁B ut</w>
refer r▁ed</w>
N or▁th</w>
c l▁
ig h▁
r a
o▁r s</w>
▁ta x
ay ▁
ai▁ r
▁st ate</w>
▁c itizens</w>
c ement</w>
▁op en</w>
n i▁ng</w>
al so</w>
▁l et</w>
▁Ch oi</w>
anu fac
1 st</w>
▁H ong</w>
iv er</w>
▁cl os
▁Eng lish</w>
▁s ide</w>
▁agre ement</w>
▁c ost</w>
▁under st
p e▁r
c y</w>
▁ex hib
▁M ay</w>
p▁ er
▁Wh ile</w>
▁l ive</w>
l o
▁serv ices</w>
▁h ar
duc tion</w>
p er</w>
▁econom y</w>
▁Th en</w>
▁ag ency</w>
20 ▁
3 0</w>
▁a f
&qu ▁ot▁;</w>
▁D ep
is es</w>
d ance</w>
▁i ll
ess ed</w>
▁b ig</w>
5 0</w>
▁th ings</w>
▁s epar
Gyeong ▁
i▁c t</w>
a▁l s</w>
d▁ ue</w>
▁t ak
▁In cheon</w>
ep t
▁wh ▁
▁F r
o▁r y</w>
ch er</w>
W e</w>
ov ▁er</w>
ail s</w>
M inis
o ice</w>
pro f
ti onal</w>
ang u
bu▁ t</w>
▁environ ment</w>
im um</w>
▁gr ad
u ro
herein aft▁er</w>
▁establis h</w>
c t
▁a ▁s</w>
un t
▁l iving</w>
en t▁s</w>
▁Un ited</w>
▁h and
▁m ark
m or
w it▁h</w>
▁t op</w>
▁as ked</w>
j in</w>
i▁ le</w>
er al</w>
▁selec ted</w>
ti o▁ns</w>
er n
ym p
e▁ on</w>
t ain
▁d idn</w>
0 ▁
▁hum an</w>
▁pro per
▁g overn
▁me et</w>
on es</w>
&▁qu ot▁;</w>
ft en</w>
pr▁ o
6 th</w>
om s</w>
▁H an
n ers</w>
▁em ployees</w>
▁b ook</w>
▁particip ate</w>
ic t</w>
▁direc tor</w>
▁vid eo</w>
ail ed</w>
n el</w>
▁Coun cil</w>
▁p ubl
er ic
▁star ted</w>
▁l ove</w>
m ing</w>
▁establis hed</w>
P ar
▁prov ided</w>
▁app oin
▁b oo
▁& ▁
&a▁pos; ▁
u ly</w>
&▁qu ▁ot;</w>
▁t est</w>
▁p en
▁&a pos;
wor k</w>
e ung</w>
▁establis h
ab ility</w>
▁c anc
▁a w
g▁ u</w>
air m▁an</w>
d▁ o</w>
m o
K▁or ean</w>
▁produc tion</w>
▁del iber
at ory</w>
bu k</w>
▁tr ade</w>
I t</w>
d e
la▁ st</w>
et ting</w>
▁S ome</w>
▁D ong</w>
▁m an</w>
▁fi eld</w>
F ▁
▁kn own</w>
re f
▁l ed</w>
▁R eg
ess ion</w>
en t▁er</w>
▁lik ely</w>
ud ▁
m ark
▁acc ident</w>
o▁ re</w>
▁ad diti
um ents</w>
ay ed</w>
ob ile</w>
fras truc
▁pers ons</w>
▁mov ie</w>
e▁ s
ob s</w>
ess or</w>
p are</w>
▁an other</w>
▁1 5</w>
g et</w>
▁rec ently</w>
▁ f</w>
▁a way</w>
eal ed</w>
u▁ s
hav ▁e</w>
C om
resid e▁nt</w>
▁cer emony</w>
ill age</w>
▁Serv ice</w>
p ic
c▁ h</w>
a▁ ce</w>
▁tr aining</w>
i▁ ll
▁1 00</w>
a▁ g
eo k</w>
entr al</w>
em e</w>
▁In dus
▁administr ative</w>
&a pos▁;s</w>
L▁ ee</w>
y n
ul ations</w>
T r
w an</w>
▁s oon</w>
w▁ ith</w>
▁pl ay</w>
in t
b o▁
ec ts</w>
▁sub ject</w>
▁s ent</w>
▁prev ent</w>
▁crea te</w>
▁M ayor</w>
ex per
▁con tract</w>
▁bec ame</w>
b an</w>
pro c
iti onal</w>
Gyeong▁ gi</w>
▁e very
all ing</w>
▁J ong</w>
▁f ine</w>
▁Y es</w>
d▁ ay</w>
▁n ew
▁con diti
▁h old</w>
eg ▁
▁acc oun
e ff
▁confir med</w>
m ost</w>
▁organiz ations</w>
pri l</w>
▁open ing</w>
ur ch</w>
ill s</w>
▁p resident</w>
fer ence</w>
▁poin ted</w>
f▁ or
a▁ b
al k</w>
ci es</w>
ou ▁t</w>
▁dem and</w>
&ap▁os ▁
▁me an
▁chil d</w>
in ess</w>
▁competi tion</w>
▁c ause</w>
▁pop ular</w>
c▁ on
re es</w>
&apo▁s ;s</w>
; m</w>
e qu
g o▁
▁dr am
▁progr am</w>
ther n</w>
o▁ on</w>
w or▁
iz ing</w>
em ed</w>
▁stud y</w>
o▁ w
re v
ur i▁ng</w>
c o
ent ation</w>
ch es</w>
▁pr in
▁S p
i et
y our</w>
▁t ▁
▁w a
eg e</w>
e um</w>
▁o ften</w>
h ad</w>
▁beg an</w>
A ct</w>
▁dam age</w>
▁B r
m emb
t ory</w>
▁Je ju</w>
▁a ir
ag ed</w>
n▁ ed</w>
mit ted</w>
c▁ l
g ency</w>
in ten
is hed</w>
▁mor ning</w>
▁or ig
bu il
▁probl ems</w>
he▁ ld</w>
▁u p
Kor ean</w>
E ▁
▁p ati
▁l ate</w>
f er</w>
d u▁c
▁par ents</w>
con s
▁b etter</w>
th an</w>
f oll
par ticip
▁fl oor</w>
ti l
▁t aking</w>
oc al</w>
h▁ ad</w>
▁cl ass</w>
ch ers</w>
▁pre dic
▁C or
▁st ock</w>
ti▁ ve</w>
em b▁er</w>
▁ex ecu
▁T o</w>
▁im prove</w>
▁th ird</w>
ip ment</w>
▁in come</w>
ot ing</w>
e p</w>
an k
▁sch ools</w>
ed ly</w>
▁pr ac
▁con ven
t u▁
▁res taur
ic ies</w>
ic▁ al</w>
▁sp ace</w>
▁th ought</w>
▁loc ated</w>
▁al ong</w>
▁E lec
▁s elf</w>
om orrow</w>
ill ed</w>
th r▁
ill i▁on</w>
ail y</w>
▁l ine</w>
p ubl▁ic</w>
c ar
w ▁e</w>
rea d</w>
▁trea tment</w>
o▁ p
▁caus ed</w>
s it
includ i▁ng</w>
urr ed</w>
P a▁r
; ▁s</w>
g o
mis sion</w>
▁t ur
▁n ight</w>
as ed</w>
ot el</w>
ec ause</w>
m eas
▁p at
▁al ways</w>
e o▁
w ith
r is
loc al</w>
ver age</w>
g est</w>
▁intern ational</w>
G u</w>
▁ind ivid
im in
▁institu tions</w>
ld n</w>
▁des ign</w>
▁pre pare</w>
r .</w>
▁1 2</w>
▁m iddle</w>
ci ence</w>
id ents</w>
m an
▁o vers
▁min utes</w>
anc ▁e</w>
▁vis ited</w>
▁qu ality</w>
S h
s is</w>
c oll
ex c
▁v er
▁con n
ati▁ ng</w>
▁5 0</w>
▁comm unity</w>
v y</w>
ap er</w>
&a▁po▁s ;s</w>
▁inspec tion</w>
inv estig
h o</w>
▁exper ts</w>
▁contin ue</w>
▁Gwang ju</w>
th rou▁gh</w>
▁K ang</w>
▁sh ort</w>
n▁ ew</w>
▁chang ed</w>
on al
ic ▁e</w>
▁organiz ation</w>
a▁ me</w>
res pon
as t
a▁n ce</w>
▁a ge</w>
J ap
ch il
l and</w>
e▁r y</w>
t echn
▁sh owed</w>
▁D emocr
wh e▁re</w>
▁a ir</w>
▁Mar ch</w>
c ooper
▁in fl
rel at▁ed</w>
▁c ard</w>
G ang
▁l ittle</w>
▁In stitute</w>
▁Y oung</w>
▁auth or
d evel
▁l arg
▁f ar</w>
▁lea st</w>
f t</w>
i b▁
▁no tif
e f</w>
d et
▁w elfare</w>
cl os
o g▁
ro ss</w>
rem e</w>
o th
it al
▁ch arg
▁n atur
w o▁n</w>
if ication</w>
▁t ell</w>
ib r
▁additi onal</w>
▁bro ad
eg r
e▁ nd</w>
em ploy
per s
ad v
w▁h ich</w>
ow n
i▁ m
g ue</w>
▁st ore</w>
▁1 0
b or
▁n ews</w>
p tion</w>
iti▁ on</w>
▁Ch o</w>
▁g iven</w>
itt▁ ee</w>
cl es</w>
en ess</w>
or ts</w>
▁res ol
it er
ab o▁ut</w>
i▁ n▁g</w>
▁re vis
▁b loc
id ay</w>
▁j udg
▁c irc
▁Wor ld</w>
ac y</w>
f ied</w>
e▁ en</w>
t▁ e</w>
e d▁
▁s em
▁l os
id ing</w>
i▁ ll</w>
▁hist ory</w>
▁T a
iti ve</w>
▁n on</w>
▁b us</w>
oc c
▁r is
ter ed</w>
in king</w>
▁l and</w>
▁an y
▁prev ious</w>
▁st age</w>
qu art
▁in surance</w>
▁bas ic</w>
▁1 1
ou t
es ▁s</w>
si▁ on</w>
▁S he</w>
&q▁u o▁t;</w>
▁sec urity</w>
▁prom ote</w>
▁fe es</w>
▁l ater</w>
d evelop
▁Comm ission</w>
d em
ou▁ nd</w>
itt en</w>
at ors</w>
▁play ers</w>
▁appl ied</w>
e k</w>
h▁ ave</w>
▁For m</w>
▁direc tly</w>
m a
und ai</w>
▁b enef
▁ap prov
p eop▁le</w>
ound ation</w>
▁op port
m os
▁St ates</w>
anufac tur
▁ex isting</w>
if ied</w>
p o</w>
▁ad ded</w>
g en
us tice</w>
▁bu y</w>
o o▁n</w>
▁ha ving</w>
▁Am eric
ann oun
ap e</w>
an ted</w>
u▁ st</w>
our ces</w>
▁a n▁d</w>
▁B ecause</w>
▁o ff
▁enj oy</w>
ur ed</w>
▁c andid
g ed</w>
au gh
▁d eb
▁real ly</w>
vers y</w>
O ▁
ministr ation</w>
▁” ”</w>
ad em
▁rec ogn
r▁ es
an▁ g</w>
y ou▁
▁surv ey</w>
t▁ wo</w>
▁pers on
ea th</w>
c are</w>
▁b or
Gyeong gi</w>
r up
▁Prov ided</w>
h▁ ed</w>
e y
▁E m
ye on</w>
▁tak en</w>
▁at trac
a▁r s</w>
▁th ough</w>
▁k eep</w>
aff ic</w>
Y ▁
▁val ue</w>
&ap▁os ;s</w>
▁con f
▁f ea
s us
i on
ear ed</w>
▁ac cor
▁ro ad</w>
▁f ans</w>
ic k</w>
▁G roup</w>
E x
▁Intern ational</w>
▁Am ong</w>
pl ac
▁for m
o▁n g
ea ce</w>
sl and</w>
▁s ociety</w>
▁represent ative</w>
der g
▁d ev
W ▁
▁fri ends</w>
▁ 00</w>
un d▁er</w>
e ans</w>
ati ves</w>
on▁ ly</w>
▁wor ks</w>
s▁ uch</w>
▁conditi ons</w>
af e</w>
tiv ely</w>
▁complet ed</w>
▁particip ated</w>
▁civ il</w>
af f</w>
▁h om
▁fac ility</w>
d ent</w>
ucl ear
S ec
▁a ch
t ak
▁fin al</w>
n am
c▁ om
▁j oint</w>
▁s eason</w>
▁mater ials</w>
st▁ em</w>
em ale</w>
▁custom ers</w>
H y
om an</w>
▁On e</w>
th ey</w>
▁ev ents</w>
▁n ear</w>
b ro
s uch</w>
▁fun ds</w>
▁high er</w>
e ep
▁R us
en cies</w>
c i▁
▁employ ment</w>
▁L et</w>
▁ra ised</w>
▁vic ti
▁h ouseh
e▁ v
il ar</w>
ic ial</w>
▁s ix</w>
▁o thers</w>
▁overs eas</w>
▁F irst</w>
S▁ e
▁s o
rou ps</w>
s ite</w>
ip s</w>
▁en g
▁for m</w>
▁f ace</w>
▁l ead</w>
n ext</w>
por ted</w>
▁m ove</w>
loc ▁al</w>
c le</w>
rec e
c▁ es</w>
olog ical</w>
▁ap pro
▁sup ply</w>
th em</w>
ar d
ob er</w>
▁c all</w>
re w</w>
e▁n ts</w>
▁pos sibility</w>
▁Ass ociation</w>
w ell</w>
u▁ m
id ence</w>
ur al</w>
o es</w>
li er</w>
el t</w>
a▁ tio▁n</w>
▁reg ion</w>
o▁ ol</w>
ot ed</w>
ee k</w>
ea k</w>
▁p ass
form▁ er</w>
ap pl
angu age</w>
▁trad itional</w>
▁sub mit</w>
▁Fin ancial</w>
th e▁re</w>
ag n
or din
▁n ever</w>
a▁ ti▁on</w>
▁s ize</w>
▁eff ect</w>
qu ▁
str ▁
d ef
▁atten ded</w>
▁H ouse</w>
▁bec om
▁offic er</w>
▁contro l</w>
▁wor ds</w>
el ing</w>
a ud
▁r ights</w>
▁m akes</w>
i er</w>
com p▁
ex ual</w>
▁rul ing</w>
t on</w>
▁ret urn</w>
▁exch ange</w>
e igh
▁streng th
▁wh i▁ch</w>
t e▁r</w>
▁ag o</w>
re h
▁ex ten
o th▁er</w>
▁activ ely</w>
frastruc ture</w>
it▁ ed</w>
j e▁ct</w>
▁dr aw
W ▁e</w>
es ting</w>
▁rec ent</w>
n eg
der ed</w>
▁ph one</w>
w it
ex p▁
▁fri end</w>
▁exhib ition</w>
▁k in
▁dec ision</w>
▁A pril</w>
pl ▁e</w>
a▁ n▁d</w>
C oun
J e
i▁ c</w>
▁sh are</w>
es n</w>
ea ch</w>
i▁ ed</w>
ti al</w>
d own</w>
e▁ e</w>
eg u</w>
▁tr y</w>
per form
ro ad</w>
▁conduc t</w>
o i▁n
a ther
c r▁
J ae</w>
▁f ur
▁it ems</w>
▁cooper ation</w>
red it</w>
on▁ g
&a▁ p▁os;s</w>
ati v
ul a</w>
w a</w>
▁accor dance</w>
▁stud ent</w>
ver ▁
us ing</w>
e an
si ons</w>
c s</w>
▁g o▁
▁dec rea
trib ution</w>
▁im p
ec h</w>
▁eas y</w>
▁a verage</w>
rec ▁
▁i ▁n</w>
▁increa sing</w>
ul d</w>
u▁ t</w>
▁A b
port ation</w>
in t▁
▁cos ts</w>
▁en ti
il ies</w>
▁St ation</w>
&ap▁os; l▁l</w>
a▁ s
▁c al
f e</w>
i▁ ve</w>
▁oper ate</w>
▁eval uation</w>
▁doc uments</w>
▁ar res
&q▁u ot▁;</w>
▁b usin
▁i ▁s</w>
▁cour se</w>
▁appl ic
▁hou sing</w>
com ▁
b ur
m ov
▁D ong
and ed</w>
ud e</w>
▁J une</w>
▁fun c
anc ed</w>
▁E uro
A d
▁respon se</w>
▁J uly</w>
un ication</w>
in▁ to</w>
a▁ d
▁author ities</w>
u ment</w>
en ding</w>
u t▁
i ety</w>
it ors</w>
▁o ▁f</w>
▁comp ared</w>
▁&a pos▁;s</w>
ar▁ y</w>
▁acc ount</w>
p op
▁Democr atic</w>
e▁ a</w>
▁h ospital</w>
▁d u
▁d eg
ag ▁e</w>
ig ▁
▁neg oti
pl ace</w>
▁w ar</w>
▁qu esti
em▁ ent</w>
▁trav el</w>
▁Sup reme</w>
o▁ me</w>
d▁ ing</w>
&apos; ▁s</w>
▁ar t</w>
▁oper ating</w>
▁op position</w>
o h</w>
m ental</w>
ept ember</w>
pl ay
el eb
▁Sh in</w>
▁sign ific
▁hear d</w>
▁vol unt
▁prom otion</w>
er n</w>
us tr
▁r eas
tron ics</w>
▁s een</w>
▁Hy undai</w>
ar▁ ge</w>
▁sec tor</w>
▁emerg ency</w>
e▁n ce</w>
R es
e▁ t
an▁ t</w>
t u▁re</w>
ph as
▁e r
▁grow ing</w>
▁tem per
v ice</w>
▁@ -▁@</w>
er▁ al</w>
▁p us
▁e ffici
▁plan ning</w>
il▁ l
▁r ole</w>
y s
ear ly</w>
▁p ain
▁lea ve</w>
T h
▁r un</w>
▁d ust</w>
w▁ ay</w>
a▁c k</w>
▁m inis
r▁ e
▁some thing</w>
i x
ic i
▁st ory</w>
▁lea der</w>
on ▁e</w>
ultur ▁al</w>
uc ▁
u k
a g</w>
ven tion</w>
th y</w>
o▁ se</w>
U .▁
c al
▁ex tr
▁re view</w>
ap p▁
▁e at</w>
▁ra ther</w>
▁tri al</w>
▁g en
▁elec tion</w>
ov e▁r
for t
▁1 st</w>
▁cl as
▁f ew</w>
ct ober</w>
S e▁
▁rev ealed</w>
oun tain</w>
ou r▁
ec on
&▁ apo▁s
es tion</w>
ep end
g ood</w>
▁r un
▁reg is
if t</w>
us ted</w>
es ▁t</w>
▁B l
p▁ ol
fir st</w>
c our
▁politi cal</w>
▁bel ieve</w>
c o</w>
▁Y oon</w>
s▁ ec
▁out side</w>
P ark</w>
▁inv ol
▁cl ose</w>
▁&apos; ▁s</w>
te▁r m</w>
is is</w>
▁tr illion</w>
▁pos ition</w>
▁j oin
▁f estival</w>
dis ▁
a▁ p
▁im medi
ff airs</w>
oun ds</w>
a▁c t</w>
cl us
▁purch ase</w>
▁includ e</w>
▁S chool</w>
▁N o</w>
20▁ 1
D is
▁intro duced</w>
en▁ cy</w>
en ded</w>
▁w age</w>
rap h
▁reg ular</w>
▁sh ows</w>
▁dis p
ar m</w>
p eople</w>
in crea
▁diffic ul
dis c
ma▁ de</w>
ar r
▁cor por
▁str uc
a▁ use</w>
f e▁
s▁ es</w>
s▁ aid</w>
▁d aily</w>
rel ▁
quart ers</w>
s en
g overnme▁nt</w>
▁establish ment</w>
▁g roups</w>
▁wr itten</w>
s▁ he</w>
ish ing</w>
h eld</w>
g▁ et</w>
K▁or ea</w>
ex pl
▁M any</w>
2 nd</w>
▁prepar ed</w>
k ▁ed</w>
▁as k</w>
▁adv ance</w>
ug ust</w>
i j
▁t old</w>
▁Tr ans
pl es</w>
if ic</w>
▁d en
▁Pr ime</w>
▁l eg
herein after</w>
▁b ir
ou▁ th</w>
▁dis ab
P ar▁ty</w>
▁B ank</w>
u▁ p</w>
ec tive</w>
▁bel iev
▁curr ently</w>
h n</w>
i o▁ns</w>
▁u su
▁res pec
spec ially</w>
▁f av
U.▁ S.</w>
l aw
Pa▁r k</w>
▁l egal</w>
j o▁
▁r ise</w>
e el</w>
▁j obs</w>
▁d ro
o .</w>
enc ed</w>
▁l ower</w>
▁crea ted</w>
b all</w>
▁pol icies</w>
▁deliber ation</w>
ev▁ el</w>
th eir</w>
▁s ugg
▁indus trial</w>
▁c ities</w>
▁ ation</w>
ev▁ en</w>
c ap
u ture</w>
ir ect</w>
m any</w>
▁prof essi
▁t omorrow</w>
. 3</w>
ell ing</w>
ef ul</w>
con c
▁m en</w>
inc l▁
pos al</w>
▁cont ents</w>
▁L and</w>
eb ru
ow l
▁meth od</w>
n um
▁sever al</w>
t al
g re
▁develop ed</w>
pl ement</w>
anu ary</w>
tif ul</w>
3 rd</w>
d ro
a i▁n
▁D ae</w>
▁4 0</w>
op ping</w>
compan i▁es</w>
▁m ess
▁need ed</w>
▁med ium</w>
ye a▁r</w>
on ly</w>
etw e▁en</w>
▁k ey</w>
▁th a▁t</w>
▁fil m</w>
▁Gang won</w>
in ing</w>
▁com b
▁P ublic</w>
▁poin ts</w>
fac il
ed ge</w>
▁s old</w>
en ti▁
▁need s</w>
l ar
▁1 2
d on
▁m anufactur
▁en ergy</w>
▁us ers</w>
▁id enti
ot t
▁spec ial
▁aud it</w>
op s</w>
. 2</w>
▁loo king</w>
ick ly</w>
ar ant
▁design ated</w>
▁concer ning</w>
k n
C i▁ty</w>
i▁ r
c ul
▁equ ipment</w>
s y</w>
a▁ ys</w>
▁cl ear</w>
or t
▁Ch ung
▁on line</w>
▁R ec
ch airm▁an</w>
ail able</w>
▁opin ions</w>
▁stat us</w>
l iv
▁l ost</w>
▁A gency</w>
n▁ ow</w>
wh en</w>
▁iss ues</w>
▁an sw
ti▁ ons</w>
gr ic
ar ter</w>
a▁n g
▁vehic le</w>
▁chang es</w>
ch e▁on</w>
a▁ m</w>
▁S ung</w>
ae j
▁f arm
▁pas sed</w>
▁opin ion</w>
▁happ y</w>
▁en ough</w>
▁cl aim
for cement</w>
▁sim ilar</w>
▁par ties</w>
ti on
▁re port
▁l anguage</w>
u▁ d
at▁ ic</w>
▁t arg
▁administr ation</w>
▁Tr ade</w>
▁phot o</w>
ab il
y ears</w>
k et</w>
h ea
e un</w>
▁includ ed</w>
i very</w>
un der
▁reg ulations</w>
▁t▁ o</w>
us ▁ed</w>
▁contro versy</w>
um e</w>
▁open ed</w>
rea m</w>
▁beg in
in c▁
in▁ gs</w>
a▁ le</w>
▁cont ent</w>
u▁ se</w>
t▁ ing</w>
s ang
iqu e</w>
▁k ind</w>
or ry</w>
▁progr ams</w>
▁t akes</w>
▁pres ent</w>
mon th</w>
d ings</w>
ol o▁
con ven
o▁ nd</w>
t▁ ly</w>
m ar
ent ers</w>
▁pl aces</w>
s er
ester day</w>
▁en ter</w>
▁dis trict</w>
an▁ g
▁s even</w>
▁ter ms</w>
▁rec ru
▁pres s</w>
▁cons ult
au ght</w>
▁P h
▁natur al</w>
▁ill egal</w>
e▁ ty</w>
▁c am
▁sus pec
▁det ails</w>
▁1 3</w>
t▁ ime</w>
▁prin ci
t w
ann ed</w>
▁govern ments</w>
ucl ear</w>
▁m et</w>
ch ang
as tic</w>
▁A nd</w>
p ite</w>
▁ch ief</w>
▁un iversity</w>
▁recor d</w>
b ers</w>
sup po▁rt</w>
g overn
l ow</w>
Kore▁ a</w>
▁e duc
▁J i</w>
▁typ e</w>
ou▁ l</w>
▁s ports</w>
▁o il</w>
▁exper i
▁Y ang</w>
tur al</w>
eti tion</w>
wh i▁le</w>
i▁ m</w>
▁sc ene</w>
▁m om
iv ely</w>
en d▁
m a▁r
f un
n er
et ary</w>
m i▁n
▁su ffer
▁V iet
▁t w
▁t as
ro om</w>
▁buil t</w>
l ife</w>
▁m et
t ee</w>
▁L iber
▁H an</w>
▁A sian</w>
▁f inis
sti m
an tly</w>
▁Dep artment</w>
▁d evel
tr ic</w>
is ions</w>
▁an im
▁s ett
▁D uring</w>
g round</w>
▁f emale</w>
▁busin esses</w>
v ari
ol ds</w>
▁pic ture</w>
▁St ate</w>
▁contin ued</w>
▁1 3
s k
b us
▁underst and</w>
j ust</w>
. 6</w>
irec tor</w>
▁f ee</w>
ain▁ st</w>
. 1</w>
▁S eptember</w>
b▁ e
▁manag er</w>
▁tri p</w>
▁re duce</w>
an▁ ge</w>
▁tr affic</w>
▁par ts</w>
▁t ow
▁consid ered</w>
ow▁ er</w>
I ▁
. 4</w>
&▁a pos;s</w>
od e</w>
c ▁e</w>
▁r ice</w>
▁Intern et</w>
at▁ es</w>
G ye
l▁ ike</w>
d on▁g</w>
▁g etting</w>
▁ac tive</w>
▁Hy un</w>
tern oon</w>
&apo▁s ;</w>
▁determ ined</w>
▁Elec tronics</w>
▁prescri bed</w>
i ent</w>
▁inter ested</w>
f u▁
p▁ ar
wh ere</w>
▁exp and</w>
e ight</w>
▁sen ior</w>
ov ember</w>
g n
wor k
f ro▁m</w>
▁sp read</w>
▁Ad ministration</w>
p t</w>
▁comm issi
our th</w>
&a▁po▁s ;t</w>
l ong</w>
▁d eath</w>
p ar▁
▁s aw</w>
▁g ave</w>
▁w oman</w>
d ays</w>
c a▁n</w>
▁st aff</w>
at e▁d</w>
est ablis
▁iss ued</w>
▁1 6</w>
sc ri
▁st ation</w>
▁ret ur
▁improv ement</w>
▁G od</w>
▁compl ex</w>
▁sched ule</w>
▁f all</w>
▁devel op</w>
ad ministr
▁h y
or ed</w>
p as
▁O ctober</w>
om ic</w>
i▁ ly</w>
enc ▁e</w>
b etwe▁en</w>
▁sus pen
tu ally</w>
ell ent</w>
e▁ se</w>
▁ac qu
l ev▁el</w>
y le</w>
▁wee k
▁be h
gover ▁n
t eam</w>
9 th</w>
▁in side</w>
wi▁ t▁h</w>
c urr
an ch</w>
▁Wh y</w>
▁C l
▁tea ms</w>
▁201 6</w>
art ph
ad s</w>
▁l ight</w>
istr i▁ct</w>
▁l ec
▁d on
J ung</w>
▁hea t</w>
▁sum mer</w>
o ot
um st
j ong</w>
en ed</w>
▁al one</w>
is tics</w>
▁institu tion</w>
▁A ffairs</w>
a▁ e</w>
▁b us
di ffic
▁fam ous</w>
incl▁ ud
▁min imum</w>
▁ch airperson</w>
▁b ig
▁charac ter
av ▁
▁de emed</w>
▁S pec
con sid
▁comm er
▁eas ily</w>
▁M anag
▁pati ents</w>
A n
▁E conom
ea▁ r</w>
▁&qu ▁ot▁;</w>
p▁ ublic</w>
pl ay</w>
s ome</w>
N orth</w>
▁inten ds</w>
G over
▁infl u
en sive</w>
. 8</w>
di ff▁
▁s ea
u tiful</w>
ot te</w>
▁con fl
s ucc
▁par king</w>
▁immedi ately</w>
▁ et</w>
d o▁ng</w>
s al
t in▁g</w>
at ch</w>
0 0
▁P er
g ener
U .S.</w>
vi ew
▁B e
▁l ist</w>
a em
T▁ he</w>
onal d</w>
in st
▁t ick
der ly</w>
mos ph
e ering</w>
▁g oods</w>
▁M us
an▁ s</w>
▁b ack
tiv es</w>
▁person nel</w>
▁est ate</w>
▁du ties</w>
▁contin u
▁J anuary</w>
▁trans portation</w>
▁h and</w>
▁stand ard</w>
▁mat ch</w>
com m▁
▁W a</w>
▁201 8</w>
▁hea d
&a▁ pos;</w>
▁g ather
▁l ack</w>
r en
k no▁
inc i▁al</w>
g▁ h
▁v ac
▁p .m.</w>
▁in j
▁2 nd</w>
▁r ap
▁av ailable</w>
▁A ugust</w>
▁m obile</w>
G wang
▁vehic les</w>
ti t
busin e▁ss</w>
▁sub mitted</w>
▁stand ards</w>
▁s ou
▁m ight</w>
g▁ h</w>
▁d oll
y▁ ear</w>
th ly</w>
▁requ ired</w>
▁M r.</w>
e▁ m</w>
,0 ▁00</w>
▁tal k</w>
▁h on
in ter</w>
al l▁
▁ind ic
▁Th ese</w>
st ar
pr is
D istri▁ct</w>
▁v illage</w>
os ▁
▁go al</w>
ebru ary</w>
s ay
▁w anted</w>
▁larg est</w>
▁$ $</w>
▁Da egu</w>
▁g ir
ic on
▁j ud
rea n</w>
▁w it▁h</w>
▁fam ilies</w>
▁c old</w>
a▁ in</w>
bas ▁ed</w>
▁individ ual</w>
p u▁
is ted</w>
▁do esn</w>
▁ad ver
i f▁
▁car ried</w>
. 7</w>
ong er</w>
b us▁
▁en d
com ▁p
b er
ur s</w>
▁n etw
▁proper ty</w>
▁C EO</w>
▁do ing</w>
▁us er</w>
a x
▁pro g
▁S ing
s s▁
ear ing</w>
▁proc ed
em entary</w>
ins ula</w>
h el
▁appoin ted</w>
s ign
▁F estival</w>
p▁ or
k y
s iz▁ed</w>
w o▁
▁fur ther</w>
▁e stim
▁1 8</w>
o▁ c
ac t▁
hi▁ gh</w>
w ide</w>
f il
ag re
▁requ ir
▁Prov incial</w>
ti▁ es</w>
▁th ing</w>
ab ly</w>
vis ▁
mor ▁e</w>
▁cont act</w>
ab out</w>
ul es</w>
te▁ am</w>
▁rel ation
▁exam ple</w>
Ch ina</w>
▁l ives</w>
▁aut om
art ments</w>
▁fu nd</w>
▁A ir
ow i▁ng</w>
o ds</w>
▁A ll</w>
res ent
S u
n▁ or</w>
at s</w>
▁car s</w>
▁C urr
▁sing le</w>
▁oper ated</w>
erv ation</w>
▁ur ban</w>
▁M ed
si b▁
m arket</w>
pro sec
5 ▁
▁sh ip
h▁ in</w>
h er
▁Se ung</w>
o ff▁
▁restaur ant</w>
▁bel ow</w>
▁& a▁
▁p oor</w>
▁b ill</w>
▁questi ons</w>
▁comp ens
▁T V</w>
▁s ent
a▁r t</w>
▁P en
▁opport unity</w>
▁cr isis</w>
▁ag ric
oo k
ell ig
▁1 4</w>
▁expres sed</w>
l der</w>
▁y et</w>
▁ag encies</w>
ul ate</w>
on d
▁201 7</w>
▁mod el</w>
ou l▁d</w>
Ko▁ rean</w>
▁h it</w>
▁approv al</w>
▁Dec ember</w>
▁s t▁
▁D ef
l obal</w>
be i▁ng</w>
il d</w>
cont in
b r▁
&a▁pos;▁ d</w>
▁rece iving</w>
y i▁ng</w>
▁str ateg
▁consum ers</w>
in to</w>
f y</w>
▁S tr
▁c redit</w>
ef o▁re</w>
▁J ang</w>
p o▁l
▁m other</w>
▁19 9
E duc
▁pers onal</w>
▁execu tive</w>
li▁ ke</w>
▁y outh</w>
ati▁ onal</w>
▁M on
▁Cor poration</w>
▁f elt</w>
▁Pro f
oo t</w>
▁temper ature</w>
▁b ad</w>
▁ap artment</w>
I n</w>
ear▁ ch</w>
▁ha p
▁analy sis</w>
an d▁
▁V ice</w>
▁ac tual</w>
▁star ting</w>
▁im plement</w>
▁L abor</w>
oo▁ k</w>
a x</w>
▁e y
▁trans fer</w>
▁man age</w>
U ▁
&ap▁os; ve</w>
▁wh ole</w>
▁lear n</w>
o ke</w>
or ing</w>
D ec
▁1 ,
oc ks</w>
m▁ ay</w>
d u▁
f a▁
▁sec retary</w>
▁lo an</w>
pr ec
▁v en
▁U .
▁bea utiful</w>
▁ref lec
▁S ong</w>
▁re duced</w>
▁qu ickly</w>
▁O h</w>
ul ed</w>
i▁n ce</w>
▁J ustice</w>
o▁ u
l ea▁
▁g ames</w>
▁in nov
▁em phas
▁consid ering</w>
▁coll ege</w>
m▁ it</w>
an▁ y</w>
▁d one</w>
wo▁r k</w>
▁G u
a o</w>
▁all eg
ig r
d uri▁ng</w>
▁high est</w>
you▁ ng</w>
▁Y oo</w>
y er</w>
ic ▁es</w>
▁del ivery</w>
▁ch airman</w>
p ublic</w>
&ap▁os; re</w>
ur y</w>
o ts</w>
▁c entral</w>
ti on▁s</w>
qu al
pos sible</w>
et ed</w>
em en▁t</w>
▁boo ks</w>
▁b ank</w>
▁lea ding</w>
si▁ te</w>
▁professi onal</w>
▁2 5</w>
eed ed</w>
▁un ion</w>
▁ch o
▁del iver
ong s</w>
e▁n t
c os
▁h o</w>
▁dis aster</w>
▁th ere
▁cer tain</w>
▁J in</w>
▁&▁ amp;</w>
c▁ il</w>
▁ind epend
▁sk in</w>
▁h e▁
▁B y</w>
▁r e▁
ut ors</w>
tr▁ y</w>
p ay
▁u til
▁or dered</w>
▁cer tific
l eg
Prov ince</w>
▁K yung</w>
clud ed</w>
. 9</w>
i▁c y</w>
d h
&ap▁os ;</w>
▁I r
li k
pr i▁
ol l▁
mosph ere</w>
ta▁ ke</w>
▁ac tion</w>
et c</w>
u g</w>
▁A re</w>
F in
▁Kor eans</w>
s▁ tr
s e▁r
h im</w>
▁con ference</w>
p riv
i▁g n</w>
▁g overnor</w>
m us
▁wor k
▁a head</w>
ec t▁ed</w>
▁ar ti
por ting</w>
▁A t
m i▁
▁f re
▁J eong</w>
ar ies</w>
▁c amp
▁a ▁
tribu ted</w>
▁exam ination</w>
▁charg es</w>
o ch
▁T echn
▁M ot
&ap▁os; ▁
▁s ong</w>
e▁ ss
af t</w>
▁reg arding</w>
▁orig inal</w>
▁h ot</w>
▁eff orts</w>
▁stor es</w>
u▁ ch</w>
the▁ y</w>
▁y esterday</w>
▁com ing</w>
r ight</w>
eleb r
ib er▁
Or din
sy st▁em</w>
in tro
a ult</w>
▁ab o▁ut</w>
f▁ rom</w>
▁com es</w>
▁cap ital</w>
S am
coun t</w>
u▁ m</w>
▁implem entation</w>
sec o▁nd</w>
m ade</w>
4 ▁
tim ▁e</w>
▁H wang</w>
sel ves</w>
h▁ o</w>
▁S m
▁Liber ty</w>
▁Gang nam</w>
augh ter</w>
ye a▁rs</w>
d e▁r</w>
Ko▁ rea</w>
▁F rom</w>
▁w i▁ll</w>
C ity</w>
e▁ ment</w>
▁dis t
▁H ealth</w>
g ing</w>
▁ris k</w>
P r▁
▁conc entr
m on▁
▁produc ed</w>
▁h eal
▁f ell</w>
oun▁ g</w>
▁tr end</w>
▁d ou
▁tri ed</w>
▁s ee
b s</w>
▁l if
a j
▁N ovember</w>
▁&apo▁s ;s</w>
o▁r t</w>
ac ks</w>
▁inst alled</w>
re▁ c
▁exc ellent</w>
por ▁t</w>
u▁ al</w>
h s</w>
sh o▁
s ang</w>
i▁ de</w>
h ol
▁ra ise</w>
▁deg rees</w>
▁ar riv
is ten
our n
erm any</w>
ent ing</w>
it able</w>
co▁m p
▁un ivers
▁p r▁
▁w aste</w>
▁s pr
▁p resid
▁Curr ently</w>
ec▁ ts</w>
▁n uclear</w>
s in▁ce</w>
is l
o f▁f
v ol
tr ad
be▁c a▁use</w>
▁driv ing</w>
▁wat ch</w>
our ce</w>
▁sum mit</w>
▁law mak
▁bur den</w>
i▁ ef</w>
▁usu ally</w>
▁cr ime</w>
▁perform ances</w>
▁investig ating</w>
ff i▁ce</w>
▁s anc
▁I sland</w>
▁prescri be</w>
▁gu id
▁Trans port</w>
▁commissi oned</w>
s ts</w>
id ▁ed</w>
eal s</w>
d▁ r
▁lear ning</w>
▁concer ns</w>
y ong
▁D onald</w>
ri ve</w>
over ed</w>
▁comm on</w>
st anding</w>
e f▁
▁reas ons</w>
tr a▁
▁doc ument</w>
▁ach iev
P reside▁nt</w>
&a pos▁;</w>
▁wea ther</w>
▁occ urred</w>
▁Ch eong
A m
▁qu estion</w>
▁P eople</w>
wi▁ th
▁f alling</w>
▁201 5</w>
s ue</w>
i▁n a</w>
▁col or</w>
▁6 0</w>
▁broad cas
▁s pen
▁b ri
▁h os
ur is
ea t
il l▁
&▁ q▁uot;</w>
▁h otel</w>
re present
▁super vis
▁Ch ung</w>
pl ex</w>
ent▁ ly</w>
a▁ ble</w>
▁r ound</w>
▁sub par
▁F ebruary</w>
esti g▁
▁wh▁ ich</w>
▁requ ested</w>
▁s ▁
v al
s h</w>
e p▁
▁Th ank</w>
r▁ ec
pro t
▁sc re
▁s yst
▁m ind</w>
▁pres sure</w>
▁ch urch</w>
eo▁ ple</w>
en viron
▁in f
▁h er
wh▁ ich</w>
a ut
▁Se o</w>
og raph
li am
dr aw
▁r en
▁br ing</w>
iti e▁s</w>
▁succ ess
▁lea ders</w>
e th▁er</w>
app oin
D a
&▁a p▁os
ov ed</w>
ec▁ ted</w>
ativ ely</w>
as h</w>
th▁ em</w>
▁ad d
▁imp act</w>
or thern</w>
S up
▁Y eong
u ge</w>
t em
B S</w>
he▁ l
ar ded</w>
▁concer t</w>
un ities</w>
u ter</w>
ell s</w>
▁L otte</w>
th i▁s</w>
thr▁ ee</w>
m ee
el▁ y</w>
C O</w>
au th
▁comm unication</w>
in ary</w>
an▁ ts</w>
direc t▁or</w>
t▁ ic
i k</w>
e ign
i h
▁hap pen
em b▁
j▁ in</w>
▁tr ying</w>
▁h all</w>
i en▁ce</w>
oc i▁al</w>
ma▁ ke</w>
▁M in</w>
um an</w>
▁reg ional</w>
▁f requ
▁entr ance</w>
D emocr
iv ▁e</w>
ay▁ or</w>
▁mat ter</w>
▁f ig
gr ad
▁S ang</w>
duc ing</w>
an ch
t ations</w>
on str
d om
▁br and</w>
is on</w>
er a</w>
Comm itt▁ee</w>
▁w id
ae k
in s</w>
▁hear t</w>
up s</w>
por ▁
announ c▁ed</w>
&ap▁os; ll</w>
▁Reg arding</w>
T V</w>
tr ess</w>
w r
r i</w>
or d</w>
▁tr ue</w>
th e▁r</w>
ec o▁n
▁& q▁u
ut or</w>
j ob</w>
ibr ary</w>
S ou▁th</w>
▁d own
ul▁ ar</w>
tr i▁al</w>
f l▁
ea▁ ch</w>
s▁ p
▁victi ms</w>
▁s ession</w>
▁go▁ ing</w>
sh ar
▁cri tici
▁w eb
d in▁g</w>
▁circ umst
▁Def ense</w>
t▁ ri
s i</w>
ult i</w>
j i</w>
icon duc
i e▁
▁t im
▁inter pre
▁dram a</w>
k ey</w>
▁s ense</w>
m emb▁er</w>
il ed</w>
▁st op</w>
▁adv ant
▁ac adem
▁3 rd</w>
wh at</w>
In dus
▁2 4</w>
et e</w>
▁predic ted</w>
g▁ ed</w>
4 0</w>
▁relation ship</w>
a▁ ri
t i</w>
in stitu
cl u▁
▁acc idents</w>
▁sit es</w>
▁c enters</w>
▁ann ual</w>
▁M ost</w>
oh n</w>
igh▁ t</w>
d oc
e▁ st
▁win ter</w>
▁sup pl
▁ex erc
ab or
u i</w>
iti ons</w>
d ue</w>
gr o▁
▁re duction</w>
sh▁ ip</w>
i▁ or</w>
▁s ea</w>
ic ally</w>
i p▁
B C</w>
▁n orm
▁m o
▁N am
onom y</w>
▁s exual</w>
▁de pos
olo▁ gy</w>
h ing</w>
▁T ae</w>
M anag
▁wor th</w>
▁th e▁re</w>
▁ey es</w>
Ordin an▁ce</w>
▁cou ldn</w>
C or
▁K ong</w>
s▁ oo</w>
▁r ead</w>
v ic
ai▁r s</w>
▁m etropolitan</w>
▁ser ies</w>
▁p un
▁coun cil</w>
▁atten d</w>
N at▁ional</w>
&▁a pos;
▁organiz ed</w>
▁c aught</w>
ye▁ ong
▁pop ulation</w>
▁in ter</w>
h ea▁
▁dis tribution</w>
b rea
ar ily</w>
▁foll owed</w>
s em
e▁n s</w>
e um
e or
m ake</w>
ev al
▁Rus sia</w>
t ation</w>
i on▁s</w>
▁sh owing</w>
▁enter pr
s et</w>
ener al</w>
▁F und</w>
ou▁ se</w>
▁mark ets</w>
▁L ocal</w>
d▁ id</w>
wor ld</w>
In tern
e o▁n</w>
▁laun ched</w>
▁N am</w>
ur ▁es</w>
s er▁
h i▁s</w>
inten dent</w>
O S
▁Manag ement</w>
a▁ ir
▁d uty</w>
▁D irector</w>
▁D es
pro m
▁s ays</w>
k en</w>
at t▁
▁l ow
oth es</w>
▁n ation</w>
x t</w>
▁play ed</w>
▁comp reh
▁benef its</w>
ular ity</w>
dic tion</w>
▁m emor
▁enter ed</w>
▁el ig
is ter</w>
e i▁
t ained</w>
o in▁
istr ation</w>
▁for ward</w>
▁eval u
inv est
▁notif y</w>
ar▁ d</w>
am ▁e</w>
▁r ain</w>
▁e ight</w>
ess ing</w>
▁it self</w>
▁m as
P ro▁
M in▁
t ake</w>
manag eme▁nt</w>
▁educ ational</w>
▁p or
▁intro duce</w>
st and
g re▁
ear by</w>
▁hea vy</w>
▁beh ind</w>
▁im m
▁f ile</w>
tr o▁
T h▁e</w>
oi▁n t</w>
rou▁ nd</w>
p resid
▁compl ain
▁Al so</w>
e i</w>
ter ▁
m in</w>
it▁ s</w>
it▁ ion</w>
ans ion</w>
▁Y ong
m uch</w>
k▁ ing</w>
▁wr iting</w>
▁prot ection</w>
si▁ de</w>
f ace</w>
ea ter</w>
▁R e
su▁ r
▁var iety</w>
▁high ly</w>
▁el derly</w>
i▁ f</w>
Un iver
▁Spec ial</w>
▁Dis trict</w>
ea▁ n</w>
t oo</w>
evelop ment</w>
▁ph ys
Prov inc▁e</w>
▁hol ding</w>
▁ar gu
▁wr ong</w>
tis ts</w>
por ▁ts</w>
aus ▁e</w>
▁im age</w>
▁In frastructure</w>
▁Ch airperson</w>
tur ▁e</w>
o in</w>
l ement</w>
h os
c ast</w>
▁int egr
▁bo ard</w>
▁w in</w>
▁gu arant
el ds</w>
b l▁
▁at mosphere</w>
ab les</w>
▁custom er</w>
tain ment</w>
▁f ather</w>
▁Prof essor</w>
&ap▁os▁ ;
▁indus tries</w>
▁fil ed</w>
▁begin ning</w>
e▁ ar</w>
a▁ d</w>
▁t en
▁cl ub</w>
om▁ ic</w>
me▁ m
in ▁e</w>
e▁r n</w>
U S</w>
▁struc ture</w>
▁ow ner</w>
▁foc us</w>
▁corpor ate</w>
▁c ur
uclear ization</w>
m es</w>
i▁ ze</w>
▁r ates</w>
s ame</w>
f in▁
S▁e oul</w>
▁sm artph
▁mom ent</w>
▁Ch eong</w>
▁m er
▁af ternoon</w>
vari o▁us</w>
d ec▁
▁t aste</w>
▁th em
▁sh opping</w>
▁differ ence</w>
sch o▁ol</w>
oo king</w>
▁res ources</w>
▁r e</w>
ag ain▁st</w>
n▁ am</w>
in tern
▁res t</w>
▁b ase</w>
▁vi ew</w>
▁coll ection</w>
▁A p
ul ting</w>
ivers ary</w>
in d▁
a f▁
▁H igh</w>
▁G ermany</w>
n ec
▁v ice</w>
er ies</w>
▁Com p
a▁ fter</w>
ar t▁
ti▁ n
▁sus pic
▁c ut</w>
v e
▁stat ement</w>
con struc
▁Rep resent
▁ad vis
m in▁
g le</w>
et ings</w>
▁buil d</w>
ow▁ ed</w>
oo▁ d</w>
an e</w>
▁L ea
▁In v
▁bl ood</w>
s ystem</w>
▁s ale</w>
▁particip ation</w>
▁en cour
▁G r
▁hou ses</w>
tic ism</w>
▁enti re</w>
ver s</w>
▁1 7</w>
h ous
▁s n
▁real ity</w>
▁kin derg
▁vis itors</w>
▁m en
me ans</w>
f ood</w>
ul l
tiv eness</w>
▁wh ose</w>
▁particip ants</w>
wh ile</w>
b and</w>
▁trans ac
▁div ision</w>
▁4 th</w>
w ou▁ld</w>
ul ated</w>
ar b
I n▁
▁Sec retary</w>
▁Se ong
b ack</w>
▁mess age</w>
▁d irect</w>
▁entr usted</w>
l i▁ne</w>
K i▁m</w>
▁tea cher</w>
sh all</w>
ar▁ ea</w>
▁rece ip
n on</w>
eti c</w>
s om
▁inter view</w>
j us
c ally</w>
b ass
igh t
▁S un
sc a▁le</w>
▁h our</w>
id ge</w>
f ully</w>
l san</w>
▁w ays</w>
w▁ or
r▁ ea
di ffer
c ase</w>
ar ea</w>
comp eti
▁S on</w>
▁repor ts</w>
i ec
agrap hs</w>
▁m ut
en▁ se</w>
ed eration</w>
M oon</w>
▁g reen</w>
end a</w>
▁Americ an</w>
os eon</w>
ec ting</w>
▁m ul
▁agre ed</w>
owl edge</w>
▁s ymp
eo pl▁e</w>
▁sanc tions</w>
t▁h eir</w>
k ch
e▁ y</w>
▁enj oy
im prov
▁g row</w>
t our
l aw</w>
inv estig▁
g row
S erv
▁univers ities</w>
o ffici
Ar tic▁
▁pr em
▁inc ident</w>
i en
bec au▁se</w>
▁inst ead</w>
F or
▁rea ding</w>
▁d est
▁C ulture</w>
D ep
▁ac ross</w>
▁A sia</w>
f▁ o▁r</w>
A▁ ct</w>
ae k</w>
▁av o
su p▁
J ong</w>
▁F ac
expec t▁ed</w>
▁r ed</w>
▁ear lier</w>
neg oti
1 5</w>
▁g round</w>
▁dis ease</w>
su▁ ng</w>
ap pro
ust ment</w>
o e</w>
cor por
▁spec ific</w>
▁p ot
▁Ch ief</w>
ye▁ on</w>
ub ▁
ivers i▁ty</w>
rea l</w>
d a▁y</w>
▁s cor
▁For eign</w>
t op</w>
rea t</w>
e u
▁p aper</w>
qu are</w>
su▁ p
▁vi ew
ur t</w>
▁lim ited</w>
d riv
▁m ach
▁inst all
▁a im
u▁l t</w>
cal l▁ed</w>
▁accoun ting</w>
ne▁ xt</w>
el imin
eh ol
iv e▁r
b el
▁rel ease</w>
t est</w>
▁sim ple</w>
▁pos itive</w>
▁p oll
▁Pro sec
▁ ing</w>
1 8</w>
▁st ay</w>
sp▁ ec
ou gh
1 0
▁s ud
▁d eal</w>
▁Viet nam</w>
h ere</w>
▁particip ating</w>
s ity</w>
memb e▁rs</w>
l im
C ent▁er</w>
▁% %</w>
▁sol ve</w>
rea▁ se</w>
▁w al
▁s am
▁direc tion</w>
p▁ r
f uture</w>
▁tea chers</w>
at▁ er</w>
▁tour ists</w>
▁some one</w>
▁tr ain</w>
▁lo ans</w>
▁S afety</w>
it▁ ies</w>
s c▁
n ey</w>
▁analy zed</w>
mee ti▁ng</w>
▁L ast</w>
c i▁ty</w>
Par t▁y</w>
▁J in
pres ▁
m a▁ny</w>
el ed</w>
▁s atis
▁prov isions</w>
rou gh
iber▁ ty</w>
▁f ailed</w>
▁O ur</w>
ow ers</w>
▁or din
res i▁d
it ation</w>
▁tem por
p ower</w>
▁wor ked</w>
▁A hn</w>
anc i▁al</w>
y ers</w>
tern al</w>
re t</w>
▁exc ept</w>
ing ly</w>
▁m enti
for▁ m
a por
▁re ven
m illi▁on</w>
h▁ ow</w>
d ev
▁Y ong</w>
▁Sec urity</w>
▁Res earch</w>
▁1 8
pr▁ ov
k ay</w>
▁v ir
▁p ost</w>
▁fav or
▁Y ork</w>
▁M ore</w>
▁1 9</w>
am ed</w>
G ye▁ong
▁sched uled</w>
▁r ati
▁los s</w>
▁Indus trial</w>
▁coun sel
▁O f</w>
▁h ands</w>
▁p o
y cle</w>
l▁ th</w>
iz es</w>
▁W elfare</w>
pri ate</w>
per c
ol▁ d</w>
l▁ es</w>
in form
▁&a p▁os
fi▁ r
P ol
2▁ 0
▁hear ing</w>
▁all ow</w>
so▁ o</w>
& amp;</w>
▁pos ted</w>
▁pr ec
▁Rec ently</w>
▁th eme</w>
id ly</w>
ear ance</w>
w s</w>
ag ing</w>
m▁ in</w>
20 1▁
▁str essed</w>
▁househ olds</w>
▁b ought</w>
1 00</w>
er ve</w>
ir e▁c
ip p
6 ▁
s y▁
e▁ ar
S .
1 2</w>
▁per form</w>
▁elig ible</w>
we▁ ll</w>
sti tu▁
g ery</w>
o ff</w>
Com m▁
▁F oundation</w>
ustr al
sec ▁
1 3
▁wh ite</w>
▁w ish</w>
▁di ed</w>
th▁ rough</w>
is i▁on</w>
an ad
▁s ell</w>
▁b anks</w>
u ▁e</w>
p ubl
uc k</w>
2 5</w>
▁w ▁
▁f ully</w>
h ist
ea v
▁compens ation</w>
k now</w>
an c▁
▁deliver ed</w>
dis tr
▁pl at
s a</w>
r im
▁pl ant</w>
▁co ff
▁cl othes</w>
▁ch ance</w>
e▁ l</w>
▁p m</w>
▁e specially</w>
pl a▁ce</w>
l a
enti▁ al</w>
▁new ly</w>
er ce</w>
con f
ro w▁
A r▁
▁E ar
trib ute</w>
▁mov ement</w>
c ity</w>
aej eon</w>
l ymp
S t▁
Minis t▁ry</w>
▁sec ure</w>
▁mater ial</w>
▁g as</w>
▁ y</w>
am o▁ng</w>
▁s om
▁recor ds</w>
▁agric ultural</w>
w▁ ant</w>
as ▁t</w>
I ▁n
▁t it
▁sp eed</w>
▁difficul ties</w>
▁sh own</w>
▁n ation
▁St ud
▁C ould</w>
ter y</w>
▁negoti ations</w>
▁K ing</w>
▁candid ate</w>
▁C ultural</w>
d o
D ong</w>
▁N ow</w>
m p
g▁h t</w>
▁re form</w>
▁in iti
▁Je oll
▁invol ved</w>
▁H all</w>
es▁ s
▁p ain</w>
▁driv er</w>
i▁ te</w>
0 0,000</w>
▁tur ned</w>
▁l iv
t oc
▁netw ork</w>
▁ev idence</w>
▁b ar
f▁ ul</w>
coun ▁
▁occ up
er i▁ng</w>
ci pl
▁ser ious</w>
▁foll ow</w>
▁L G</w>
▁D on</w>
in ner</w>
a ul
▁un it</w>
▁pass eng
▁e ss
d oor</w>
In che▁on</w>
▁reg istration</w>
▁ann iversary</w>
▁mov ed</w>
▁i r
▁big gest</w>
eb ook</w>
b u</w>
ain i▁ng</w>
im plem
▁l un
▁gather ed</w>
▁environ mental</w>
▁loo ks</w>
th ea
ou▁r t</w>
▁f ro▁m</w>
▁Su per
▁G eneral</w>
▁dis clos
▁20 th</w>
▁re ti
▁hol iday</w>
&a▁pos;▁ m</w>
r o</w>
he▁l p</w>
am a</w>
▁recomm ended</w>
▁becom es</w>
▁E ast</w>
ou▁ gh</w>
g l
▁strength en</w>
▁pre vention</w>
▁n ature</w>
▁determ ine</w>
spec i▁al</w>
g en</w>
b ir
▁b al
pre v
ill ing</w>
e o▁ng</w>
b a▁
▁res tric
ent▁ al</w>
▁exp ansion</w>
▁el ementary</w>
a im</w>
▁th▁ at</w>
▁un f
▁o lder</w>
im self</w>
es day</w>
Democr at▁ic</w>
s u</w>
re▁ g
▁qu arter</w>
pro bl
o▁ un
&ap▁os; v▁e</w>
▁s on</w>
Minis t▁er</w>
▁w ife</w>
▁p ass</w>
▁en sure</w>
▁En viron
w a▁
ic an</w>
h ome</w>
er t</w>
▁str eet</w>
p▁ ort</w>
b eg
▁pro posed</w>
t ent</w>
l a▁r
a b</w>
o▁ m</w>
▁st ep</w>
▁in s
▁d ream</w>
▁d ig
y oung</w>
ur ities</w>
▁sk ills</w>
▁bl ack</w>
▁In di
econ om▁ic</w>
▁conven ience</w>
f▁ irst</w>
it ted</w>
id s</w>
er i
▁p eace</w>
▁o ffer
▁complet e</w>
don es
an a</w>
▁a .m.</w>
▁1 5
ag ain</w>
6 0</w>
▁w on
▁separ ately</w>
▁par k</w>
▁air port</w>
▁ac t</w>
▁D ue</w>
sp e▁
▁m id
I f</w>
▁en h
▁2 00</w>
ch ange</w>
r▁ y</w>
it▁ al</w>
▁eff ects</w>
▁certific ate</w>
▁Sh in
it ment</w>
▁s ound</w>
▁con dition</w>
▁Ab out</w>
▁vis iting</w>
▁for ce</w>
i ation</w>
en▁ d
ellig ence</w>
▁wh ic▁h</w>
▁ra ising</w>
▁1 0th</w>
th ere</w>
pl om
h om
an▁ d
al ization</w>
en i▁ng</w>
clud ing</w>
n▁ ing</w>
is tic</w>
f▁ l
en▁ t
2 2</w>
▁D evelopment</w>
el ect</w>
M ar
as n</w>
A▁ r
▁regis tered</w>
ten ance</w>
m od
ess▁ or</w>
▁exch ang
u x
▁p l▁
▁n earby</w>
▁M at
▁m y
▁g re
m ain
▁typ es</w>
▁gener ation</w>
fr▁ ee</w>
▁intern al</w>
▁car ry</w>
sm a▁ll</w>
n ation▁al</w>
▁l and
▁S i</w>
ou▁n t</w>
Y oung</w>
▁tax i</w>
▁s elling</w>
▁For mer</w>
▁separ ate</w>
op ped</w>
num b▁er</w>
P h
▁all owed</w>
i▁s m</w>
et er
▁candid ates</w>
▁c elebr
i▁ ci
fort able</w>
▁auth ority</w>
ea ted</w>
En g
ad ing</w>
co▁ un
▁f ourth</w>
▁aud ience</w>
n e
▁consid eration</w>
▁F ood</w>
or ▁s</w>
eas es</w>
E lec
▁s afe</w>
▁rel atively</w>
J ap▁
1 9</w>
▁go es</w>
▁cor poration</w>
▁con trac
▁b ott
ter m</w>
rou ght</w>
ic h
▁implem ented</w>
ar ing</w>
▁A ir</w>
t ea▁
si t▁y</w>
s e▁c
m otion</w>
h ouse</w>
▁menti oned</w>
it ure</w>
h w
▁loc ation</w>
▁add ress</w>
vi ol
T S</w>
Ch ung
▁them selves</w>
t oday</w>
▁id ea</w>
▁circumst ances</w>
▁K won</w>
sh ou▁ld</w>
▁v oice</w>
ea ker</w>
▁pop ularity</w>
▁ab ove</w>
s ▁e</w>
co▁ me</w>
b▁ ec
▁s ure</w>
▁invest ors</w>
st▁ r
p reside▁nt</w>
fri end</w>
e ous</w>
if y</w>
art me▁nt</w>
▁includ es</w>
sh i▁
sch ool</w>
oti ce</w>
▁publ ic
▁compreh ensive</w>
▁W on</w>
f▁ am
▁viol ence</w>
▁head quarters</w>
▁c op
▁buil dings</w>
ult u▁re</w>
p▁ er</w>
pro je▁ct</w>
ow on</w>
occ er</w>
fo▁r m</w>
▁f un</w>
▁crea ting</w>
ye o▁n</w>
uris diction</w>
j ud
▁receip t</w>
▁r ad
iv al</w>
Prov ▁
▁proper ly</w>
▁over all</w>
ac king</w>
or i</w>
▁re plac
▁S cience</w>
iv il</w>
eti mes</w>
ou ▁s</w>
▁super intendent</w>
▁draw ing</w>
sa▁ me</w>
oo d
k y</w>
b um</w>
at▁ ch</w>
P res▁
c e▁n
▁dec l
▁a ▁t</w>
o ffice</w>
▁report edly</w>
▁consult ation</w>
▁201 4</w>
off i▁ce</w>
m▁ y</w>
m en</w>
um▁ ber</w>
ic ine</w>
e en
s▁ ho▁
▁C up</w>
▁resol ution</w>
▁Su won</w>
s▁ ion</w>
in spec
an ti
▁bro ke</w>
z ing</w>
n▁ ment</w>
duc t</w>
▁pl ac
▁n eigh
▁clas ses</w>
o▁ k</w>
anc y</w>
i▁ l</w>
e▁ as
▁prof it</w>
ch arac
▁ha ir</w>
ut ting</w>
1 8
▁un ique</w>
▁it em</w>
s n</w>
s eong</w>
e▁ ms</w>
▁Bl ue</w>
un der</w>
s im
mark ▁et</w>
ea u</w>
▁app eared</w>
ris ti
ex am
con t▁
be e▁n</w>
▁coff ee</w>
▁7 th</w>
u▁ ty</w>
t u▁r
t ea
g e▁n
ec k</w>
▁H is</w>
▁war r
▁pro posal</w>
▁bas is</w>
com pl▁
▁coll ected</w>
par ty</w>
oun ding</w>
Par ty</w>
▁tour ism</w>
e ers</w>
▁5 th</w>
agn os
O ffi▁ce</w>
▁s orry</w>
▁laun ch</w>
▁C o
w▁h ic▁h</w>
eb all</w>
▁Techn ology</w>
▁Je on
201 8</w>
▁t urn</w>
▁cer tif
▁respon sible</w>
▁ex port</w>
con tro
▁qu al
▁Dec ree</w>
t e▁n
h▁ eld</w>
b o</w>
N ew</w>
▁s ign</w>
▁rea ched</w>
▁S un</w>
oun▁ d</w>
ester n</w>
1 1</w>
yp toc
ti▁ v
▁S K</w>
ul t▁
ub e</w>
o x
a ign</w>
▁n ur
d iv
d am
▁web site</w>
▁sec tion</w>
▁ev er</w>
▁b at
tr a</w>
o▁m y</w>
in n
▁h uge</w>
▁clos ed</w>
ploy ment</w>
ish ment</w>
▁manufactur ing</w>
s ti▁
g overnment</w>
ation ▁s</w>
▁s av
s▁ an</w>
ing u
E m
▁wa it</w>
▁A gric
it▁ tee</w>
▁co ach</w>
▁P yeong
t ogether</w>
▁tal ks</w>
▁W ave</w>
st or
▁prog ress</w>
ok es
t le</w>
m a▁n</w>
ear ▁s</w>
con sum
dr▁ en</w>
Ass oci
&apos; t</w>
▁f ast</w>
▁af t▁er</w>
m en▁ts</w>
in v▁
▁sm o
ular ly</w>
re▁ l
k in▁g</w>
s▁ et</w>
pl▁ an</w>
▁ag enda</w>
▁ab ility</w>
over y</w>
op h
a▁ ted</w>
at▁ ions</w>
▁arres ted</w>
ig ▁n
Gye o▁ng
▁design ed</w>
si o▁n</w>
en▁ d</w>
▁m ak
manag ▁
em pl
Se ou▁l</w>
▁play er</w>
y ph
end▁ ly</w>
▁doll ars</w>
▁7 0</w>
v a▁ri
ol ution</w>
on ing</w>
▁charac ter</w>
▁201 9</w>
ver se</w>
m ation</w>
c▁ t</w>
ch i</w>
▁per c
un i▁ty</w>
develop me▁nt</w>
er ous</w>
▁signific ant</w>
ti e▁s</w>
a▁l f</w>
▁den uclearization</w>
▁ur g
▁aff ili
▁sub scri
▁answ er</w>
▁ab road</w>
▁prov iding</w>
t▁ il</w>
e un
p ean</w>
olog ies</w>
cl a▁
▁s urr
▁disab led</w>
p▁ op</w>
▁Ta i
▁B o
be▁c au▁se</w>
▁wa iting</w>
w▁ an</w>
udg et</w>
re▁ s
att e▁n
kch ain</w>
▁g iving</w>
▁every one</w>
▁L im</w>
▁lim it</w>
▁for est</w>
u al
o▁ ld</w>
▁grad u
g ation</w>
L iber▁ty</w>
▁l og
▁Indus try</w>
iti▁ ng</w>
h▁ ead</w>
▁s h▁
▁fi x
▁det ailed</w>
▁confl ict</w>
▁Ex c
sy ch
ic ts</w>
C EO</w>
▁g ap</w>
comp any</w>
cl ear</w>
▁main tain</w>
▁cri ticism</w>
▁b it</w>
iz ▁
in g▁
en tr▁
e t▁h
atten tion</w>
▁s earch</w>
▁ac tually</w>
e▁ ts</w>
▁Un like</w>
▁Euro pe</w>
su it</w>
▁pri ze</w>
m an▁
j▁ u</w>
con diti
a▁ f
▁w ave</w>
▁func tion</w>
▁ar ticle</w>
ac c▁
N S</w>
▁sign ed</w>
il i▁ty</w>
▁T oday</w>
op er▁
ann er</w>
P l
t▁ w
0▁ 0</w>
ab y</w>
m▁ on
k ▁s</w>
it or</w>
com ing</w>
▁targ et</w>
▁phys ical</w>
ter n</w>
▁in struc
▁C entral</w>
s oo</w>
▁recogn ized</w>
▁househ old</w>
▁sc ope</w>
▁hea ds</w>
▁d ance</w>
▁R iver</w>
m ay</w>
apor e</w>
o▁n y</w>
▁presid ential</w>
▁l etter</w>
tron ic</w>
▁ow ners</w>
▁h ear</w>
▁dep ending</w>
w ards</w>
s▁ u
rece iv
p oin
ov▁ ern
h ear
g es</w>
▁sh ip</w>
s oci▁al</w>
▁t ou
▁me etings</w>
st at
or▁ y</w>
&a▁pos▁ ;m</w>
▁r an
▁princi ple</w>
▁intro duction</w>
ch ar
▁commer cial</w>
▁ar tists</w>
ow er
am p</w>
▁prepar ing</w>
▁Ch ang</w>
wh ic▁h</w>
n▁ um▁ber</w>
▁ex emp
▁critici zed</w>
uc▁ h</w>
sh ips</w>
bro ad
▁con vers
▁character istics</w>
str u▁c
ad ▁e</w>
U ▁n
▁prov ides</w>
▁f res
▁Th rough</w>
▁19 th</w>
eep ing</w>
a▁n cial</w>
Ch i▁na</w>
▁ad j
▁Y ang
▁B ud
o▁ w</w>
oo▁ l</w>
▁main ly</w>
▁C anad
▁A ustral
ong ▁
d e▁c
▁s elect</w>
▁prot ect</w>
ex pres
▁dis mis
▁Un der</w>
u▁ te</w>
i▁ um</w>
▁prac tice</w>
▁l onger</w>
▁for eign
▁every thing</w>
▁dr ink</w>
▁Kor ▁
▁sem iconduc
▁elec tric</w>
sc ape</w>
▁k illed</w>
un k</w>
al ized</w>
&▁a pos▁;</w>
s eo</w>
il es</w>
s▁ ee</w>
p▁ eople</w>
o▁ t</w>
▁s cience</w>
▁becom ing</w>
▁Fin ance</w>
ta▁ in</w>
t y▁
ent e▁r</w>
▁1 8th</w>
▁div ided</w>
eed s</w>
▁cl ean
r a▁te</w>
j e</w>
c aus
▁er a</w>
▁comm unic
th em
en▁ ed</w>
▁resid ent</w>
▁al though</w>
r▁ un</w>
c re▁
▁D aejeon</w>
reg ul
eco▁n omic</w>
b efo▁re</w>
▁f air</w>
▁cl ean</w>
do▁ wn</w>
U .
▁En forcement</w>
▁wee ks</w>
▁respon sibility</w>
oun ded</w>
ir ing</w>
▁rea ch</w>
af e▁ty</w>
J i</w>
A l
▁retur ned</w>
▁rati o</w>
▁meth ods</w>
▁Sup port</w>
▁stud ying</w>
▁l ic
▁a ward</w>
id o</w>
▁wat ching</w>
▁crea tion</w>
▁j urisdiction</w>
▁2 1</w>
v i▁ce</w>
g▁ i</w>
ad ium</w>
▁vac ation</w>
k n▁ow</w>
1 3</w>
▁dis app
re g▁
o▁ ff</w>
n▁ er</w>
▁tr ust
▁selec tion</w>
▁for med</w>
▁ en</w>
p▁ ed</w>
▁Y ear</w>
▁res ear
▁ch all
t o▁r</w>
our ism</w>
con v
y un</w>
b ea
2 1</w>
▁hist or
▁all ow
us ion</w>
r ect</w>
ev ent</w>
elf a▁re</w>
ecu tive</w>
▁pl anned</w>
▁8 0</w>
est ab
▁mov ing</w>
▁pl aying</w>
▁al most</w>
y oun▁g</w>
ou▁ r</w>
n▁ eed</w>
i on▁al</w>
ad d
▁im pres
▁cor rec
ab▁ or</w>
▁succ ess</w>
▁expec ts</w>
mo▁ st</w>
z ens</w>
▁J oseon</w>
▁Econom ic</w>
a▁ y
art en</w>
&a▁ p▁os
b est</w>
▁subsid ies</w>
▁T ur
lar ation</w>
ing ▁s</w>
▁proced ures</w>
h ou
▁s ens
▁per mission</w>
▁any thing</w>
▁n otice</w>
▁chil d
rough out</w>
og y</w>
c ur
Ch▁ oi</w>
▁a b▁
il▁ ity</w>
h ead
Prov inci▁al</w>
▁r ising</w>
u th</w>
; ▁t</w>
▁r ental</w>
er ry</w>
e ech</w>
an m
▁w ind</w>
▁improv ed</w>
▁Represent ative</w>
t▁h a▁t</w>
res p
on ds</w>
g un</w>
▁revis ion</w>
▁estim ated</w>
▁del ayed</w>
▁appoin tment</w>
▁ad op
comp a▁ny</w>
▁influ ence</w>
resid en▁ts</w>
or d▁er</w>
l if
7 ▁
▁sea ts</w>
▁c ro
ol f</w>
ick en</w>
ess ment</w>
F r
▁mov ies</w>
it ary</w>
ati cally</w>
as ty</w>
▁employ ee</w>
▁O ffic
▁main tenance</w>
r ing</w>
vi ously</w>
g a▁
ere fore</w>
20 0
▁shar ing</w>
▁announ cement</w>
▁D id</w>
▁11 th</w>
o▁ or</w>
es ter</w>
ch arg
Gye▁ong gi</w>
▁reg ions</w>
▁exp anding</w>
▁Con sid
ten s</w>
m▁ ak
i▁ ties</w>
▁t able</w>
▁arres t</w>
w eek</w>
um s</w>
r▁ ee</w>
in▁ k</w>
▁exerc ise</w>
educ ati▁on</w>
B us▁
▁restaur ants</w>
▁dram as</w>
s c▁h
l ight</w>
igh ting</w>
▁ma x
th l
osp it
c e▁
▁Ex per
t es</w>
h el▁
go▁ od</w>
d▁ is
▁6 th</w>
t▁ er
ro r</w>
o▁ wn</w>
gro▁ up</w>
▁bo x</w>
serv i▁ce</w>
▁r ange</w>
ac ked</w>
▁expec t</w>
s yst
s or
pl an</w>
ow▁ n</w>
li▁ fe</w>
en g</w>
▁acc ess</w>
us h</w>
▁wor d</w>
▁t ex
▁sch ol
e▁ es</w>
▁h op
▁fac tory</w>
m ea▁
al ▁s</w>
▁rem aining</w>
▁claim ed</w>
▁Th erefore</w>
▁M al
pro du▁c
fri end▁ly</w>
b ing</w>
ag ric
▁minis ter</w>
y ong</w>
re pres
me d▁
▁f os
f ull</w>
ex pen
▁tow ard</w>
▁ex act</w>
▁discus s</w>
▁H u
us band</w>
ter ▁s</w>
sit u
r ate</w>
H w
▁no thing</w>
▁H w
end ation</w>
▁meas ure</w>
▁fi elds</w>
it age</w>
en▁ ter</w>
a h
▁u ng</w>
ch ▁ed</w>
1 2
▁l in
▁em ail</w>
▁Euro pean</w>
pol ▁
C T</w>
▁run ning</w>
ell ow</w>
e tion</w>
at▁ io▁n</w>
▁K ak
▁&q▁u ot▁;</w>
w▁h en</w>
N▁ orth</w>
us es</w>
os s</w>
fl ect</w>
▁w ide</w>
▁I m
.▁ m.</w>
pro▁ v
a i▁n</w>
▁par t
▁l at
▁B ar
▁19 8
igh tly</w>
stud en▁ts</w>
incl▁ud ing</w>
C▁ EO</w>
▁recomm end</w>
▁mon thly</w>
p▁ rov
onom ous</w>
ang ▁
▁def ense</w>
▁coll ap
us i▁ng</w>
unic ip
u ti▁on</w>
str eng
hel p</w>
1 5
e▁ as</w>
▁investig ate</w>
re v▁
ou d</w>
▁w ants</w>
per son</w>
et es</w>
▁acc ep
▁br anch</w>
s on
▁dem onstr
▁Chung ch
t en</w>
▁wr ite</w>
so▁ me</w>
pre par
▁exp anded</w>
▁canc er</w>
▁Y e
ee ts</w>
c re
S. -
p on</w>
ip ped</w>
comp anies</w>
pro gr
▁sh ou
▁res c
▁do or</w>
pos iti▁on</w>
g ame</w>
▁ob jec
▁heal thy</w>
▁In dones
le▁ ss</w>
el ess</w>
c ent▁er</w>
be▁ c▁
ay ▁s</w>
as es</w>
▁Ch r
t o▁rs</w>
▁phot os</w>
▁h imself</w>
▁g ift</w>
▁contin ues</w>
▁lim its</w>
▁Consid ering</w>
c ar</w>
▁foc using</w>
an y
▁l ibrary</w>
por t▁
▁th inking</w>
▁pres ented</w>
▁counsel ing</w>
▁2 2</w>
p▁ h
eed ing</w>
d i▁s
▁cho ose</w>
t oms</w>
h ow</w>
▁brea k</w>
w ater</w>
wh▁ at</w>
hy ▁un</w>
issi on
ic ated</w>
er man</w>
Un iversi▁ty</w>
▁z one</w>
▁rap idly</w>
▁kn owledge</w>
▁Ph il
is su
dep end
ch it
▁t our</w>
▁pri or</w>
vis ory</w>
ur i▁ty</w>
ul ner
m il▁
h igh
▁rel ations</w>
b ig</w>
an e▁se</w>
▁sup porting</w>
▁l e
se▁ l
end ly</w>
con tr
▁pen sion</w>
▁ex ternal</w>
priv a▁te</w>
i▁ ght</w>
▁sup ported</w>
▁pic tures</w>
▁n ine</w>
▁mean ing</w>
▁end eav
▁2 3</w>
o▁ ur</w>
iz ati▁on</w>
a is
1 6</w>
▁st ocks</w>
▁maj ority</w>
▁foc used</w>
▁f ail
▁1 5th</w>
va▁ri ous</w>
p ar▁ty</w>
▁install ation</w>
▁f oundation</w>
M in
▁ex am</w>
ta x</w>
r ul
indus try</w>
▁success ful</w>
▁farm ers</w>
▁st ep
u als</w>
ro te</w>
mak i▁ng</w>
inc o▁me</w>
ar ou▁nd</w>
▁n ot
▁T able</w>
▁3 1</w>
▁spr ing</w>
▁consum er</w>
▁c h▁
▁M et
▁201 3</w>
eal ing</w>
c ul▁
bus▁ iness</w>
7 0</w>
su per
r ement</w>
i▁ st</w>
i▁ an</w>
in ated</w>
▁tr ust</w>
▁suspec ted</w>
▁fl ight</w>
with o▁ut</w>
th en</w>
em ▁s</w>
D em
▁accoun ts</w>
▁p etition</w>
▁d aughter</w>
▁H ee</w>
or d
f our</w>
▁un its</w>
▁cas h</w>
▁Air port</w>
b ly</w>
ar ious</w>
▁K i</w>
ep h
C enter</w>
▁8 th</w>
tici p▁
con duc
ab l▁e</w>
9 ▁
▁neg ative</w>
▁in conven
ter ing</w>
ed s</w>
▁ar r
▁coll ect</w>
▁J ust</w>
or ies</w>
▁p ack
▁mean ing
▁advant age</w>
th ree</w>
s e▁n
▁trust ee</w>
▁dis count</w>
ym b
r am</w>
ov▁ er
id e▁nt</w>
▁emphas ized</w>
h ae</w>
▁gr ade</w>
ha▁ d</w>
en ch</w>
▁u m</w>
▁sl eep</w>
▁O lymp
yptoc urr
▁sm art</w>
▁mark eting</w>
▁in form
▁ex ports</w>
▁concer n</w>
ew ork</w>
b ody</w>
M ay▁or</w>
▁sur gery</w>
▁adver tis
▁Y our</w>
el e▁c
▁f ishing</w>
▁Ch il
▁increa ses</w>
t ant</w>
pr▁ es
j ec▁ts</w>
emb▁ ly</w>
ad minis
▁pos t
▁gir l</w>
▁f al
p▁ ro▁
mo ti▁on</w>
▁met ers</w>
▁h ▁
t og
ac cor
▁chang ing</w>
▁Dep uty</w>
▁tick et</w>
ten tion</w>
▁s ongs</w>
e▁ d
▁qu ite</w>
▁plat form</w>
▁manag ed</w>
▁eff ective</w>
▁R ules</w>
c tion</w>
am ▁p
▁sett lement</w>
▁des pite</w>
▁3 00</w>
row▁ th</w>
c ou▁ld</w>
▁sol di
▁Pen insula</w>
▁12 th</w>
ot▁ al</w>
▁scre ening</w>
▁Bud dh
e▁ g
es t▁ed</w>
▁reven ue</w>
▁consum ption</w>
ea▁ se</w>
▁tw ice</w>
ti▁ ce</w>
p▁ er▁
o ad</w>
ho▁ me</w>
▁f a
i▁n k</w>
▁b rought</w>
▁att emp
▁adv anced</w>
f ive</w>
▁recor ded</w>
▁e ating</w>
in j
c ol
c a▁re</w>
C e▁n
▁pr elimin
m a</w>
▁c o</w>
▁B usiness</w>
re▁ e</w>
c u▁
D ong
ri es</w>
b illi▁on</w>
▁cl im
▁believ ed</w>
▁Pro motion</w>
th▁ en</w>
sp▁ec ial</w>
en tur
▁f ar
ir it</w>
g g
ep tion</w>
den ly</w>
a▁n k</w>
▁ordin ary</w>
▁N ot</w>
a ug
▁sever e</w>
▁per f
▁St ar
per s▁on</w>
▁in ▁
▁gen der</w>
w▁ oo</w>
▁conn ection</w>
▁P a
▁In t
s i▁ng</w>
s ee</w>
ov ement</w>
or der</w>
ech n▁
▁complet ely</w>
m i▁ll
m ar▁
is▁ ion</w>
▁re flect</w>
▁p aying</w>
▁1 7th</w>
▁&a p▁os;s</w>
o▁ uld</w>
j▁ ect</w>
bl ic</w>
▁ass ets</w>
mon y</w>
h es</w>
e up</w>
c ri▁
▁s e▁
▁2 1st</w>
j i▁n</w>
▁suffer ed</w>
▁n orthern</w>
▁m eal</w>
▁S en
▁M ountain</w>
▁5 00</w>
i▁ p
as ing</w>
▁arriv ed</w>
▁M ex
▁Gyeong sang</w>
a▁ tions</w>
sum m▁it</w>
in▁ ed</w>
ag s</w>
▁2 7</w>
i ew</w>
op ic</w>
l▁ ow</w>
In v
▁bir th</w>
▁ar ts</w>
ri age</w>
ic ul
ic o</w>
ffici ent</w>
▁endeav or</w>
▁H a</w>
to▁ ok</w>
m a▁n
S▁ t
▁serv ed</w>
▁revis ed</w>
▁publ ished</w>
▁E un</w>
s o▁n</w>
, 5
▁ob serv
▁fac tors</w>
h▁ im</w>
S u▁
▁Or ganiz
y r
p at
om p
con s▁
▁’ ’</w>
▁al tern
▁th roughout</w>
▁special ized</w>
▁E l
eo k
be▁ t
▁di agnos
▁develop ing</w>
▁F air</w>
r ying</w>
A c
▁ref und</w>
▁grea tly</w>
▁S ports</w>
est ock</w>
▁f alls</w>
prov ▁
c andid
ash ion</w>
T h▁
▁occ ur</w>
w oo</w>
Ch ang</w>
▁m ist
d ire▁c
▁del ay</w>
▁all ows</w>
tr a
res t</w>
▁there of</w>
or g
a▁ in
▁tax es</w>
▁requ ire</w>
▁improv ing</w>
▁pro duce</w>
▁f ru
in form▁
▁warr ant</w>
▁enterpr ises</w>
▁car eer</w>
▁F l
▁Ch risti
vi ews</w>
pr ac
ch ar▁ge</w>
▁spen d</w>
▁pro por
▁201 2</w>
di ff
2 4</w>
f are</w>
▁cont ains</w>
▁ o▁t;</w>
n e</w>
j u▁st</w>
i▁ a</w>
▁p iec
▁fir s▁t</w>
tr i▁es</w>
os an</w>
offic i▁al</w>
ad ed</w>
R ep
▁s occer</w>
h ee</w>
elec omm
▁m id</w>
▁fil ms</w>
▁ itan</w>
igh▁ ts</w>
Coun c▁il</w>
▁suffer ing</w>
▁rev ital
el▁ l</w>
ac ity</w>
M o▁on</w>
▁t ro
re ign</w>
m▁ ed</w>
ch i▁ng</w>
si▁ ve</w>
gre di
g res
▁m os
▁avo id</w>
▁sub way</w>
▁m ountain</w>
m o▁n
em erg
▁t rees</w>
▁bus y</w>
▁bea uty</w>
▁Em ployment</w>
▁victi m</w>
j▁ or</w>
h an</w>
▁w eight</w>
▁mod ern</w>
▁G w
ver si
l et</w>
h ar
▁sc reen</w>
▁disab ilities</w>
▁Un ion</w>
g▁ es</w>
b▁ r
▁comp uter</w>
o▁n t</w>
h ouseh
W or
▁dam aged</w>
▁cont est</w>
res pec
q ▁
i▁c s</w>
▁un able</w>
▁e p
▁M arket</w>
meas ures</w>
b▁ een</w>
▁prepar ation</w>
v ey</w>
p▁ eop▁le</w>
▁lec ture</w>
▁f ish</w>
n in▁g</w>
im chi</w>
ati o▁n
B r
▁new sp
▁Mot or</w>
▁B yung</w>
tit ude</w>
rup tion</w>
or▁ ld</w>
i ate</w>
a h</w>
▁sp ent</w>
▁signific antly</w>
▁effici ent</w>
▁decrea se</w>
▁2 5th</w>
b usiness</w>
8 ▁
▁leg isl
▁j oin</w>
▁elec tronic</w>
ff s</w>
▁t r▁
▁m ale</w>
▁2 7th</w>
f i▁n
K RW</w>
▁week end</w>
▁vol ume</w>
▁perform ed</w>
▁em p
▁an ti</w>
c▁ y</w>
ag ers</w>
1 7</w>
▁prof its</w>
ta ek</w>
j▁ ob</w>
fam i▁ly</w>
ch an▁ge</w>
b as▁
▁inc urred</w>
▁for ced</w>
e▁ w</w>
an o</w>
Ch airm▁an</w>
▁ser ve</w>
▁del eg
▁broad cast</w>
w ea
ur o</w>
m ain</w>
▁enter ing</w>
▁W omen</w>
▁U lsan</w>
y cl
tur ing</w>
ilit a▁ry</w>
ar▁ ds</w>
arm ac
▁Kor▁ ea</w>
eo l</w>
M E
▁1 4
n o
i a▁l</w>
a▁ de</w>
▁im possible</w>
pol iti
o▁r k</w>
be▁c ause</w>
anc ing</w>
den uclear
▁prelimin ary</w>
▁hos ted</w>
▁G im
ev e▁nt</w>
ag ▁ed</w>
▁Ir an</w>
su▁ l
p▁ ly</w>
▁r ose</w>
▁in gredi
i▁ z
ff er</w>
▁prof essor</w>
▁fix ed</w>
▁1 4th</w>
c ing</w>
▁H all
s ons</w>
com ▁e</w>
be▁ tw
▁sur pr
▁prom oting</w>
▁l i
▁kin ds</w>
▁chec ked</w>
wi▁th out</w>
u▁ s</w>
ear▁ ly</w>
ca▁ se</w>
▁e ye</w>
▁f illed</w>
▁dro p</w>
▁&apo▁s ;</w>
wh a</w>
tro l</w>
n ecess
▁lawmak ers</w>
▁appro priate</w>
m ir
im inal</w>
atis tics</w>
▁activ ity</w>
gen er▁al</w>
▁sp eak</w>
▁foreign ers</w>
produc ▁ts</w>
l evel</w>
e i▁gn</w>
▁sc ore</w>
▁ tion</w>
es sive</w>
▁subsid ize</w>
p ut</w>
ir▁ ec
es▁ t
▁N o.</w>
oy ang</w>
kno▁ w</w>
ag ▁es</w>
Jap ane▁se</w>
▁confir m</w>
▁c row
▁broadcas ting</w>
ith er</w>
▁ven ue</w>
say in▁g</w>
en om
b eh
1▁ st</w>
▁y oun
▁join ed</w>
▁N av
w er▁e</w>
des ign
▁sugg ested</w>
v▁ is
d a▁ys</w>
1 1
▁sing er</w>
▁se em</w>
▁cal cul
▁13 th</w>
t▁ ure</w>
ta x
st u▁d
oo ks</w>
em ory</w>
Pro▁ v
▁expec tations</w>
tur ed</w>
el ong</w>
▁ch ann
▁W ar</w>
s o
ar ks</w>
appl ic
am p▁
K▁ RW</w>
▁wr it
▁st anding</w>
comm ittee</w>
▁Q u
▁Com plex</w>
ty▁ pe</w>
l ines</w>
is ▁h
d▁ ong</w>
coun try</w>
▁recru itment</w>
pos es</w>
Artic▁ le</w>
▁res ervation</w>
▁f r▁
lea d▁er</w>
ist ance</w>
t▁h an</w>
G en
s▁h ould</w>
pol i▁cy</w>
▁enter tainment</w>
▁ch oice</w>
▁win ning</w>
▁my self</w>
▁9 th</w>
r un</w>
S ch
▁bloc kchain</w>
▁b all</w>
l o▁ng</w>
h▁ av
▁war m</w>
▁trans l
ra is
▁v ill
▁budg etary</w>
▁F ederation</w>
sib▁ le</w>
▁coun ty</w>
▁Ch eon
n ame</w>
h▁ ee</w>
f oc
b ec▁
C o▁m
▁respec tively</w>
▁d inner</w>
▁consid er</w>
▁a thl
l arg
ili ar</w>
G w
▁concer ned</w>
ter n▁
ch▁ er</w>
Se ung</w>
▁prac tic
▁in ev
▁finis hed</w>
tific ial</w>
th rough</w>
▁d ang
▁believ es</w>
▁Americ a</w>
m em▁
b▁ u
b ook</w>
▁do g</w>
▁D ay</w>
B ar
▁proc eed</w>
prof ess▁or</w>
▁ac tor</w>
▁s i</w>
▁m ix
▁m ean</w>
▁inten tion</w>
▁discus sion</w>
▁depos it</w>
u▁ l</w>
ro▁ om</w>
oo gle</w>
j eong</w>
i▁ od</w>
r u▁
ag o</w>
▁p re</w>
▁e d
▁rel ig
bo ard</w>
▁stor ies</w>
▁Des pite</w>
▁C o</w>
ove▁r n
iter ia</w>
ic ious</w>
▁d eep</w>
▁T ourism</w>
▁Environ ment</w>
s▁ ocial</w>
il ▁e</w>
f ree</w>
▁ear n
▁caus ing</w>
▁D el
ig n▁
h a</w>
fin a▁ncial</w>
▁3 0th</w>
ong ly</w>
▁Fac ebook</w>
s ing
med ium</w>
▁lo ts</w>
▁expl ain</w>
stitu▁ te</w>
ma▁ in</w>
▁s il
▁S ou
▁R ev
y et</w>
k m</w>
in t</w>
be ing</w>
v e▁r
et er</w>
d ly</w>
▁shar ed</w>
op in
ex ▁p
cooper ati▁on</w>
▁r ob
▁lear ned</w>
▁k ept</w>
us ▁e</w>
ig ning</w>
▁dev ices</w>
▁d ead
▁2 8</w>
um b
tr al</w>
▁h usband</w>
▁expen sive</w>
▁back ground</w>
wit h▁in</w>
vis it▁ed</w>
fir e</w>
et ers</w>
c ustom
c oh
▁w alk</w>
▁str ugg
▁innov ation</w>
p ow▁er</w>
ea s▁
comp a▁n
al ty</w>
▁st able</w>
▁rem ains</w>
n a▁m</w>
il m</w>
eg et
w on
o▁ od</w>
▁cl aim</w>
att le</w>
▁t rou
▁strateg y</w>
▁dis cipl
c u▁r
sch ed
V ▁
Ad ministr
▁underst anding</w>
▁happen ed</w>
▁hand le</w>
▁Se jong</w>
▁1 6
i▁ st
J e▁
Ch o</w>
▁nation wide</w>
im po▁r
ay er</w>
▁subpar agraphs</w>
▁ap artments</w>
▁V illage</w>
▁N a</w>
▁2 8th</w>
qual i▁ty</w>
p▁l an</w>
m y
i ors</w>
go ing</w>
▁wea k</w>
▁Br az
▁2 6</w>
C om▁
y ond</w>
om y</w>
im p
eor ological</w>
▁foll ows</w>
▁dep uty</w>
▁b i
▁Wh ite</w>
▁S ong
s▁ c
c el
al▁ l
R us
Ch in
▁ex clus
▁cor respon
▁P re
memb ers</w>
il▁ y</w>
▁f oot
▁con tribute</w>
▁proc essing</w>
yn asty</w>
ol v
f a▁c
ci enti
▁bri ef
▁In ter
il ian</w>
en ge</w>
w at
offici a▁ls</w>
▁tempor ary</w>
p e▁n
n at▁ional</w>
disc us
buil ding</w>
a▁ ir</w>
aem un</w>
▁ap prec
▁jud ge</w>
▁H ave</w>
th qu
▁m ulti</w>
▁di plom
pro▁ ve</w>
og s</w>
fo▁ ur</w>
b▁ l
an c▁es</w>
1 4</w>
▁ro ads</w>
▁pati ent</w>
▁Ar t</w>
n ight</w>
c ou▁n
▁w earing</w>
▁occ urs</w>
▁decrea sed</w>
▁ach ieve</w>
▁Sing apore</w>
▁&a pos▁;</w>
ard less</w>
▁w ear</w>
▁iss u
▁fe eling</w>
▁dec line</w>
▁dec ide</w>
ye o</w>
um n</w>
t own</w>
pol icy</w>
ou T
▁rec on
▁med icine</w>
▁c alls</w>
i▁ ss
d▁ en</w>
a▁l l
▁b ag</w>
▁P al
▁B ased</w>
r▁ eg
▁symp toms</w>
▁conduc ting</w>
▁B i
yph oon</w>
e z
▁prom oted</w>
te▁ st</w>
ea▁r s</w>
▁t en</w>
▁Ch ang
par t</w>
▁w el
▁l isten
▁acc ept</w>
oti onal</w>
i▁ me</w>
b ri
ast es</w>
P en
N ati▁onal</w>
▁w rote</w>
▁c ateg
s▁ho▁ uld</w>
st a▁n
▁lea ving</w>
▁Prosec utors</w>
▁L ife</w>
▁H uman</w>
o▁ d</w>
in derg
eval u
e tr
c▁ ome</w>
construc ti▁on</w>
c us
a▁f t▁er</w>
▁opport unities</w>
▁L ine</w>
ign ed</w>
▁anim als</w>
▁An aly
s▁t em</w>
gover▁n ment</w>
form s</w>
ap s</w>
M ed
▁ro oms</w>
▁Rus sian</w>
▁In st
uc h
m ul
d▁ uri▁ng</w>
▁th or
▁l iter
s▁ up
r▁ eal
p ast</w>
ic a</w>
g a▁me</w>
▁wor ried</w>
▁mis sing</w>
o▁ y
l ook</w>
&ap▁os▁; ll</w>
▁2 6th</w>
n y</w>
jec ▁t</w>
▁1 6th</w>
h wa</w>
ain▁ ed</w>
Y e
▁bro ther</w>
▁B ur
en g▁
a w▁
. 0</w>
▁w ind
▁pl ants</w>
▁difficul ty</w>
▁J eon</w>
inv est▁
i ences</w>
fo▁ od</w>
devel op▁
re p
r ent</w>
o▁s s</w>
fi▁ ve</w>
ff▁ ice</w>
d om</w>
c il
▁meaning ful</w>
w▁h i▁ch</w>
t▁ ur
▁s ource</w>
▁res tor
▁g old</w>
▁direc tors</w>
▁comp et
or th
R eg
tiv ity</w>
sy▁ st
▁W oo</w>
al s▁o</w>
▁techn ologies</w>
▁n ice</w>
▁g ar
▁comp r
▁bor n</w>
ar tens</w>
ol▁ l
offic ial</w>
le▁ ft</w>
l ar▁ge</w>
i▁ rd</w>
▁ind ex</w>
▁cr iminal</w>
▁coun ter
▁comm ission</w>
sti c</w>
con fir
▁l ived</w>
un d▁
pur su
g▁ un</w>
at e▁s</w>
▁sh or
▁F ire</w>
m ▁e</w>
der ship</w>
Metropol ▁itan</w>
▁shar ehol
inc r▁
▁con ver
▁ad mission</w>
pro mo▁
m ut
itt e▁e</w>
h a▁lf</w>
▁judg es</w>
fl o▁or</w>
▁s un
▁app earance</w>
J in</w>
▁represent atives</w>
▁cl ass
v e▁
i▁n ess</w>
r▁ ev
comm od
▁Fr ance</w>
▁2 4th</w>
pro▁ duc
bu i▁l
▁c over</w>
▁v ote</w>
▁off er</w>
▁M yung</w>
▁A I</w>
resid ▁
D o</w>
▁in frastructure</w>
per for▁m
eo s</w>
Gyeo▁ng gi</w>
▁v o
▁respon d</w>
▁de ep
▁d ay
ot o</w>
an ning</w>
ac qu
▁t o
g h▁
do▁ es</w>
▁compl etion</w>
und er▁
es ti▁
▁f oods</w>
▁academ ic</w>
we▁ en</w>
id ▁e</w>
▁dig ital</w>
ab ilities</w>
T ae</w>
Jap an</w>
▁dis eases</w>
tric ity</w>
o g</w>
meas ur▁es</w>
i▁s h</w>
a▁ id</w>
ar▁ k</w>
am b
▁st yle</w>
T echn
▁loo ked</w>
▁f ol
▁ch ea
ug s</w>
pp ed</w>
fin anci▁al</w>
e ti▁ng</w>
e e▁n</w>
devel o▁p
r▁ i</w>
it▁ h
&ap▁os;▁ ll</w>
▁n amed</w>
▁inj ured</w>
▁g ets</w>
▁cons erv
▁c at
▁Tai wan</w>
▁G erman</w>
t aining</w>
s ex
r on
l ic</w>
▁pus h</w>
▁Un til</w>
ur i</w>
s▁ chool</w>
ist en</w>
ch i▁ef</w>
▁up on</w>
▁tour ist</w>
▁cr yptocurr
▁competi tiveness</w>
▁W ould</w>
u ven
av es</w>
▁smartph one</w>
▁U. S.-
t▁h is</w>
▁gr and
▁Met eorological</w>
intro duc
e w▁
▁norm al</w>
stitu tional</w>
rou▁ p</w>
pp er</w>
pol i▁ce</w>
a es
A ff
t al▁
et▁ c.</w>
▁sh ort
▁qu anti
▁cooper ate</w>
▁ass essment</w>
ot es</w>
ma j▁or</w>
iti o▁n</w>
▁2 3rd</w>
c oo
Gover n▁or</w>
▁gr ounds</w>
w ar
n a▁
mp ;</w>
jec ted</w>
inc rea▁se</w>
in ally</w>
A gric
&a▁ mp;</w>
▁Y i</w>
o▁ p</w>
mon▁ th</w>
l ot</w>
id ays</w>
w▁ a▁s</w>
ri▁ ed</w>
ex es</w>
t e▁rs</w>
g e▁t</w>
e k
Min▁ is▁
1 4
e f▁f
▁appl ying</w>
l arge</w>
ic▁ ation</w>
f▁ ir
w ar</w>
pol i▁
d u▁r
G u
8 0</w>
t ains</w>
om▁ en</w>
▁reti rement</w>
▁extr a</w>
oc i▁
e▁ un</w>
entur y</w>
b it</w>
▁ex ec
▁Am id</w>
yp e</w>
c itiz
▁s u▁ch</w>
▁dr inking</w>
▁R oh</w>
st ate</w>
be fore</w>
▁s now</w>
▁requir es</w>
es us</w>
el ines</w>
auth or
▁par liam
▁pain ting</w>
▁1 ,000</w>
an▁ ds</w>
H an
devel ▁
w are</w>
re tur
ch i▁l
Bus▁ an</w>
▁res erv
▁offic es</w>
▁elec tions</w>
▁ab use</w>
▁1 .
s▁ec ond</w>
sen i▁or</w>
ev ▁er</w>
en der</w>
al es</w>
▁r ail
▁brea k
ul atory</w>
sup port</w>
et▁h er</w>
S ung</w>
▁S w
in f
evel s</w>
▁R ule</w>
▁P ort</w>
por t▁ed</w>
▁charac ters</w>
r▁ ef
n eung</w>
m i▁n</w>
ch arge</w>
A T</w>
▁design ation</w>
▁any one</w>
▁Ch urch</w>
w▁ ell</w>
re duc
h ab
▁w all</w>
▁st opped</w>
vi▁ ew</w>
oc k
ex hib
d re▁
▁offic ers</w>
S a▁m
▁se emed</w>
▁cr iteria</w>
▁E specially</w>
r an
l ear
hy u▁n</w>
f ication</w>
est ment</w>
▁som etimes</w>
▁dr ug</w>
▁caus es</w>
t able</w>
ic ro
en t▁ed</w>
be▁c aus▁e</w>
▁d ead</w>
c ultur▁al</w>
▁Y outh</w>
▁S ohn</w>
▁K y
id en▁t</w>
er ate</w>
atur day</w>
&a▁po▁s ;m</w>
▁2 2nd</w>
h ood</w>
ac▁ k</w>
▁mer ch
▁dev ice</w>
resid ents</w>
kno▁ wn</w>
en tion</w>
ed n
J u▁
▁s ides</w>
▁farm ing</w>
w r▁
unicip al</w>
hy un</w>
▁or ders</w>
▁B ri
▁9 0</w>
ti m▁
me eting</w>
▁acc ur
z a</w>
o▁ o</w>
▁oper ator</w>
▁anim al</w>
ex ecu
▁urg ent</w>
▁lun ch</w>
▁k il
pos▁ ;t</w>
Manag eme▁nt</w>
▁r ain
▁j ourn
▁cl early</w>
u ce</w>
s▁ m
▁re view
▁fea tures</w>
▁f an</w>
▁en ded</w>
▁Mat ters</w>
l in
c irc
be▁tw een</w>
&ap▁os▁ ;s</w>
▁fin ally</w>
par ticip▁
on s
▁interpre ted</w>
ou te</w>
in clu▁
▁tas k</w>
▁sec ured</w>
▁guarant ee</w>
▁aff ected</w>
h e▁r</w>
▁soldi ers</w>
▁sh ape</w>
▁inter esting</w>
▁clas si
▁At tention</w>
ar ti
all ey</w>
▁expres s</w>
ur s
n▁ o</w>
ec ti▁on</w>
▁i sn</w>
▁execu tives</w>
▁applic ants</w>
y▁ ing</w>
sec ond</w>
f un▁
ess▁ es</w>
▁v ia</w>
be▁t we▁en</w>
aw ay</w>
▁sc ale</w>
▁beg in</w>
▁b aby</w>
▁S ea</w>
t in
p ons</w>
o▁c k</w>
n orm
i▁ ld</w>
C it▁y</w>
▁syst ems</w>
t a▁l
si▁ an</w>
er o</w>
ati▁ ons</w>
▁sh op</w>
▁repor ter</w>
▁for ec
▁d ri
m id
a▁ pp
▁m oun
▁fig ure</w>
ro▁ ad</w>
c u▁l
M ay</w>
▁mean time</w>
w omen</w>
▁rul es</w>
▁form ulate</w>
▁complain ts</w>
▁aut onomous</w>
▁Sp eaker</w>
▁S ocial</w>
w▁ ork</w>
st art</w>
op port
m▁ arket</w>
la▁r gest</w>
g row▁th</w>
f ast</w>
2 3</w>
▁streng th</w>
▁independ ence</w>
▁dou ble</w>
▁Y u</w>
▁G oogle</w>
b ud
a▁n ge</w>
▁tick ets</w>
▁report ers</w>
▁civ ic</w>
▁1 7
w in</w>
oy al</w>
▁s eat</w>
▁ob tain</w>
t▁ es</w>
s▁ y
rec omm
f ea
er ▁ed</w>
at trac
S ang</w>
▁t ree</w>
▁experi enced</w>
▁Con f
t▁h em</w>
im m
ef ully</w>
▁th er
▁m eat</w>
▁l iqu
▁Canad a</w>
in fl
en ever</w>
ec onom
all eg
▁w it
▁st ated</w>
▁Gyeong sang
▁favor ite</w>
s oon</w>
N▁ ew</w>
▁volunt eer</w>
▁r ent</w>
▁Ac tor</w>
p y</w>
l▁ ea
ev e▁n</w>
b▁ al</w>
▁mul ti
▁b a▁
th us
rea ding</w>
m ilita▁ry</w>
enom en
▁sol ution</w>
▁P ri
r▁ el
r it
c e▁r
&▁apo▁s ;</w>
▁cam era</w>
ye o▁ng</w>
wor ki▁ng</w>
iv▁ il</w>
facil iti▁es</w>
c enter</w>
app ear
▁dis pl
▁camp aign</w>
v id
t ot▁al</w>
a▁ st</w>
▁r i</w>
▁ha ven</w>
▁cr imes</w>
vis▁ it</w>
t▁ ;</w>
pro m▁
o x</w>
is t▁
amp ion
S S</w>
s ch▁
expec ted</w>
1 6
▁th rea
▁Indi a</w>
il ing</w>
der ing</w>
be▁ st</w>
▁ren ew
▁rem ember</w>
▁Serv ices</w>
pe▁ ople</w>
entr▁ al</w>
cla▁ ss</w>
▁youn ger</w>
▁app ear</w>
▁H eung</w>
som e▁
iti me</w>
ic ide</w>
eas ▁e</w>
d ents</w>
▁m il
▁expen d
▁Austral ia</w>
w in
su▁ b
s eas</w>
pro ject</w>
m▁ ade</w>
c▁l ud
atten ti▁on</w>
N am
▁s ymb
▁eff ort</w>
rea l
p▁ ut</w>
in▁ es</w>
in nov
g ot</w>
g e
▁Sm all</w>
▁as king</w>
l y
con tr▁
▁shar es</w>
▁ch icken</w>
▁c ell</w>
▁N owon</w>
c eme▁nt</w>
D ay</w>
▁t ext</w>
▁m ag
▁/ /</w>
pers on
Ch oi</w>
▁tit le</w>
▁sam ple</w>
▁argu ed</w>
w▁ il▁l</w>
wo▁ o</w>
is cal</w>
in▁ a</w>
inform ati▁on</w>
he▁ e</w>
▁pl astic</w>
▁expl an
▁ab ol
law mak
d▁ y</w>
▁sub st
▁o ▁n</w>
u tr
th▁ rou▁gh</w>
ten ed</w>
say i▁ng</w>
ir es</w>
Hy un</w>
▁rep air</w>
▁B TS</w>
▁surr ounding</w>
▁elec ted</w>
▁ac tors</w>
▁S oo</w>
th a▁n</w>
i▁ th</w>
▁g ives</w>
▁for ces</w>
▁Rep ublic</w>
▁M ovement</w>
thea st</w>
foll owi▁ng</w>
1 ,
▁re ducing</w>
▁pl eas
P ubl▁ic</w>
▁sign s</w>
▁m ental</w>
▁b ut
▁Mal ay
ang ed</w>
▁pr ison</w>
▁mach ine</w>
▁f o▁r</w>
re▁ sid
k i</w>
i ans</w>
app y</w>
▁Hy e</w>
r ig▁ht</w>
l▁ ocal</w>
▁sud denly</w>
▁sub jects</w>
▁K o▁
par t
ul▁ ts</w>
o▁ und</w>
ne▁ ed</w>
E n▁
▁st one</w>
▁imm igr
▁conc ept</w>
o ong</w>
ho▁ w</w>
▁ref ug
▁l isten</w>
▁B u
stitu tion</w>
g en▁
Se▁ oul</w>
M in</w>
▁curr ency</w>
▁O ther</w>
▁F oll
d eb
Univer sit▁y</w>
▁t een
▁sen ding</w>
▁chec king</w>
▁ar tificial</w>
b it
▁suspen ded</w>
▁coun ties</w>
▁compr ised</w>
t▁h s</w>
as ion</w>
L i▁
▁con st
buil di▁ng</w>
7 ▁th</w>
▁semiconduc tor</w>
▁Mus eum</w>
re p▁
e▁ an</w>
am ic</w>
P▁ ar
G overnment</w>
▁sc en
▁bas eball</w>
A s</w>
▁cons ecutive</w>
▁bal ance</w>
r ad
a▁ tive</w>
▁wh e▁re</w>
▁func tions</w>
▁fres h</w>
▁design ate</w>
▁des cri
fam ily</w>
en▁ g
▁pro per</w>
▁inst all</w>
▁experi ences</w>
▁acc um
v ehic
u ts</w>
b i▁ll
Ass embly</w>
▁wat ched</w>
▁u pper</w>
▁cap acity</w>
▁Phil ipp
▁201 1</w>
sm all</w>
oper ati▁on</w>
ati z
▁s in▁ce</w>
▁re pres
▁B as
iz i▁ng</w>
f oll▁
ent ually</w>
tis h</w>
ret a▁ry</w>
pu▁ blic</w>
in ks</w>
ft e▁r</w>
as k</w>
▁st and</w>
▁Coun ty</w>
▁2 9</w>
st at▁
comp▁ an
ar di
▁th eater</w>
▁sou thern</w>
▁on es</w>
perform an▁ce</w>
investig ati▁on</w>
a▁l ly</w>
▁v ulner
▁u l
▁sl ow
▁int elligence</w>
▁grad ually</w>
▁Lea gue</w>
necess a▁ry</w>
en vir
▁notif ied</w>
h ard</w>
a▁ ti▁ons</w>
ar e▁as</w>
▁sp eech</w>
▁elec tricity</w>
▁del iver</w>
in eering</w>
ead quarters</w>
▁E ach</w>
p a</w>
g roup</w>
▁u ses</w>
▁gu ide</w>
▁c ore</w>
▁Th ose</w>
ti▁ cs</w>
th day</w>
im port
f▁or mer</w>
▁wor ker</w>
▁fir m</w>
▁alleg ations</w>
sur ▁
pr▁ iv
if th</w>
fac tion</w>
f ur
▁w a▁s</w>
▁pro b
▁dis play</w>
tic ally</w>
pos ▁ed</w>
par tic
i ance</w>
▁law suit</w>
▁integr ated</w>
pres s</w>
ne▁ ss</w>
▁i ce</w>
▁approv ed</w>
t▁ en</w>
il▁l ion</w>
ad or</w>
&apo▁s ;▁s</w>
▁pun ishment</w>
▁be yond</w>
t▁ op</w>
ou▁ t
ong ol
ed ding</w>
▁ex cluded</w>
▁L aw
work e▁rs</w>
me an
▁y ea▁r</w>
▁P omp
▁Exper ts</w>
c▁ on▁
▁t own</w>
▁respec t</w>
▁guid ance</w>
res ear
f▁ er
diff▁ er
▁viol ation</w>
▁f ashion</w>
▁U S
yong yang</w>
t echn▁
sit u▁
ay▁ ing</w>
▁exchang es</w>
▁al bum</w>
▁J esus</w>
▁In surance</w>
▁In formation</w>
▁H otel</w>
w at▁er</w>
p i▁ng</w>
on ally</w>
m as</w>
l ig
iti gation</w>
▁s quare</w>
▁c alling</w>
▁Super visory</w>
pa▁r t</w>
b a▁ck</w>
Educ ati▁on</w>
▁wal king</w>
▁dam ages</w>
▁Fr ench</w>
▁Ear lier</w>
▁2 9th</w>
w▁h ere</w>
p al</w>
i able</w>
a▁b out</w>
Y eong
A c▁t</w>
▁liv estock</w>
▁inv est</w>
▁exc essive</w>
▁On ly</w>
l eft</w>
indus t▁ry</w>
fi eld</w>
ca▁ me</w>
▁regis ter</w>
▁neigh bor
▁continu ously</w>
u ti
ill a</w>
2▁ nd</w>
▁passeng ers</w>
▁d e▁
▁I T</w>
l▁ aw</w>
it▁ ional</w>
▁f ish
pro d▁uc
og ue</w>
▁max imum</w>
▁el se</w>
j ud▁
h▁ ard</w>
ev e▁ry</w>
L ea
▁ingredi ents</w>
▁deb t</w>
▁cou ple</w>
me tics</w>
f▁ ac
▁mos tly</w>
▁men u</w>
▁kinderg artens</w>
▁con tr
produc ts</w>
p yeong</w>
gr y</w>
▁trad ing</w>
▁ship ping</w>
▁T wo</w>
r▁ es▁
og▁ y</w>
chil dren</w>
an s▁
In stitu▁te</w>
▁pres entation</w>
r▁ et
ph one</w>
exp▁ ec▁ted</w>
cl ose</w>
&ap▁os; ▁s</w>
▁T em
▁Mon day</w>
▁201 0</w>
sti t
c▁ al</w>
2 7</w>
▁t ▁h
▁S ch
▁H ospital</w>
ol ic</w>
iz e▁d</w>
f a▁m
▁n ames</w>
▁histor ical</w>
▁cryptocurr ency</w>
▁M iddle</w>
z be
▁fal se</w>
▁c ul
▁b oy
fi▁ nd</w>
ang ju</w>
▁Th anks</w>
w ee
ac ted</w>
Ass emb▁ly</w>
▁view ers</w>
▁draw n</w>
▁dep artments</w>
s eason</w>
e▁c k</w>
al l▁y</w>
p ass
el ec▁
▁dis tributed</w>
or e
de▁ v
▁enh ance</w>
im pl
K yung</w>
▁sent ence</w>
▁frequ ently</w>
▁discus sed</w>
▁I tal
k e▁
em o▁ny</w>
S p▁
▁law s</w>
sh▁ ow</w>
s ent
pl▁ ay</w>
comm itt▁ee</w>
ag re▁
▁war ning</w>
▁prosec utor</w>
▁prac tical</w>
▁e x</w>
▁cor rect</w>
coh ol</w>
ag ement</w>
▁subsid y</w>
▁l ines</w>
▁ad d</w>
▁accep ted</w>
se▁l f</w>
▁join tly</w>
▁conn ected</w>
▁Be fore</w>
dro gen</w>
ar▁ t
▁pre fer
▁deb ate</w>
▁ass ociation</w>
i▁s it</w>
if f</w>
as s▁
▁tal king</w>
ub s</w>
n ew
ma j
Tr ans
▁purch ased</w>
▁con cluded</w>
un t</w>
s ong</w>
el lec
con cer
▁s ister</w>
▁plac ed</w>
▁Star ting</w>
ver▁ y</w>
t▁ ee</w>
su▁p port</w>
sh ow</w>
is try</w>
T ▁h
▁reflec ted</w>
▁r ich</w>
▁col ors</w>
▁altern ative</w>
su▁ re</w>
a▁ ch</w>
serv ice</w>
▁con struc
l a▁nd</w>
▁transac tion</w>
▁th er▁e</w>
▁pot ential</w>
ou g▁h</w>
Ch eong
▁o r▁
▁establish ing</w>
▁3 5</w>
con n
▁se x</w>
or ation</w>
is s▁
ant i</w>
aj or</w>
▁independ ent</w>
▁5 G</w>
p▁ s</w>
per form▁
o▁ v
oc ▁al</w>
for t</w>
▁import ance</w>
▁E very
y▁ le</w>
ist an</w>
int▁ er
L e▁e</w>
▁t el
▁m ot
us eok</w>
tiv ▁e</w>
t ;</w>
m er
ei▁ r</w>
au d</w>
us▁ ic</w>
m i</w>
l aun
iv ision</w>
ateg y</w>
▁dem ocr
▁be hav
▁C oll
wor ks</w>
ok yo</w>
n a</w>
m▁ ore</w>
g▁ o</w>
f ou▁nd</w>
&▁apo▁s ;s</w>
▁sent enced</w>
▁g ather</w>
▁exc eed</w>
▁dead line</w>
includ ing</w>
as t▁er</w>
▁comm itted</w>
▁Fr iday</w>
su▁ m
ne▁ w</w>
con trac
▁resid ential</w>
▁ev ening</w>
wh e▁n</w>
thus i
th o▁se</w>
prov i▁de</w>
pro jec▁ts</w>
etropol it▁an</w>
em pl▁
an▁ ies</w>
d e▁d</w>
▁m ark</w>
▁judg ed</w>
▁dest ro
▁G oyang</w>
ut u▁re</w>
qu ir
b a▁ll</w>
3 0
▁ph enomen
▁m emory</w>
▁Organiz ation</w>
▁Foll owing</w>
▁D o
i et</w>
▁am end
pursu a▁nt</w>
inter ▁
comm unic
c ong
ap ers</w>
▁r ural</w>
▁out door</w>
▁individ uals</w>
▁entr ust</w>
▁Indones ia</w>
th i▁rd</w>
o▁m en</w>
Se o</w>
S p
▁c ▁
und am
tric ts</w>
l as▁t</w>
ac ▁e</w>
Min▁is▁ try</w>
▁Analy sts</w>
sum mit</w>
le▁ ad</w>
inter e▁st</w>
▁pl en
▁l evels</w>
▁cam p</w>
p eo▁ple</w>
ou p</w>
am ily</w>
D ae</w>
▁com posed</w>
▁at tract</w>
i ents</w>
estab li▁
aud i</w>
A ss▁
▁reg ardless</w>
▁l isted</w>
▁dist ance</w>
▁comm emor
y▁ eon</w>
e el
bl ▁e</w>
▁ar rive</w>
pos ing</w>
n u▁
distr i▁ct</w>
G▁ yeong
▁s eas
▁repor ting</w>
un t▁il</w>
proc ess</w>
l▁ ot</w>
is sue</w>
T C</w>
S tr
▁aw are</w>
lo b▁al</w>
he▁ re</w>
adv ant
▁b ic
un ately</w>
t▁ ax</w>
g i▁
E D</w>
▁run s</w>
▁ad ding</w>
w ol</w>
s ea
e▁n tial</w>
▁rem ain</w>
▁r an</w>
▁convers ation</w>
▁bro ken</w>
▁C ar
wor▁ k</w>
u▁ ce</w>
st a▁
o▁w s</w>
id den</w>
▁acc used</w>
a▁l so</w>
▁r um
▁pus hed</w>
t w▁
prov inci▁al</w>
fi▁ re</w>
en d▁ed</w>
b▁ an</w>
ain t
G un</w>
▁newsp aper</w>
▁fl ex
i o▁us</w>
b ok</w>
as▁ s
▁con v
o f▁
e▁ ven</w>
est▁ ic</w>
an am</w>
▁see ing</w>
▁reg ard</w>
▁applic ations</w>
▁f air
▁H eadquarters</w>
▁G ir
d ate</w>
Se ong
▁reg ulation</w>
▁exten ded</w>
▁en try</w>
▁disp ute</w>
▁certif ication</w>
x im
h▁ a▁s</w>
a▁ se</w>
▁syst em
▁s ave</w>
▁entr ustment</w>
▁J ud
indus ▁
O ffic
B l
▁ess ential</w>
s▁ pec
ea▁ ce</w>
▁with draw
▁re ply</w>
▁dr aw</w>
ro ad
r un
m ent▁al</w>
k ▁e</w>
c er▁
Y oon</w>
▁rap id</w>
▁r oute</w>
▁Kak ao</w>
▁En ergy</w>
s atis
in k
▁rece ives</w>
▁ass ault</w>
rec▁ e
o▁ t▁;</w>
l ive</w>
ig▁ h</w>
elec tion</w>
airper s▁on</w>
▁l ose</w>
▁enjoy ed</w>
▁effici ency</w>
▁c over
at ched</w>
air ▁
▁s yn
▁fl ow</w>
▁b u▁t</w>
▁C C
w▁ ere</w>
n a▁me</w>
h alf</w>
edn esday</w>
chit ec
▁fl o
▁finis h</w>
▁eff ec
offic ▁
▁mus eum</w>
▁en forcement</w>
▁aim ed</w>
▁On ce</w>
▁G eum
ur ▁e</w>
o▁ ther</w>
ospit als</w>
inc es</w>
f all</w>
P er
▁v eget
▁de ems</w>
▁X i</w>
▁G ames</w>
p en</w>
o f
it ting</w>
ail and</w>
▁th ous
ut ers</w>
▁trea ted</w>
▁e co</w>
▁d rea
▁S ub
p ati
l ate</w>
▁techn ical</w>
▁out standing</w>
e▁ p
a▁t a</w>
▁id eas</w>
re▁ as
or t▁h</w>
am m
▁adver ti
▁Mex ico</w>
develop ment</w>
a▁ ting</w>
▁str ongly</w>
▁l oved</w>
▁con ▁
us ual</w>
f▁ or▁
▁st ations</w>
▁rec overy</w>
▁discus sions</w>
▁B aek
▁A fr
t ingu
sp e▁c
itiz en</w>
e ver
re▁ al</w>
represent ati▁ve</w>
o▁ u</w>
dec id▁ed</w>
▁sup plem
▁canc el</w>
▁J oon</w>
u an</w>
f▁ it</w>
a▁ ve</w>
Y ong</w>
▁th anks</w>
▁suspen sion</w>
▁equ ipped</w>
▁co ast</w>
▁Ap ple</w>
sal ▁es</w>
id enti
e▁c t▁ed</w>
an d▁ed</w>
O ffice</w>
ME s</w>
▁tas ks</w>
▁c o▁n
▁ap p</w>
▁Kor eas</w>
wh y</w>
ro▁ up</w>
par ed</w>
on▁ d</w>
i▁ ded</w>
emb ers</w>
ea l▁th</w>
▁quanti ty</w>
▁ob tained</w>
▁inter ests</w>
▁bel ong
me▁ ans</w>
ep ren
ed er
V iet
Un iversity</w>
M ar▁
▁t ired</w>
▁suspec t</w>
▁stat utes</w>
▁lea dership</w>
▁doc tor</w>
ol l</w>
fac ▁
B usan</w>
▁wor ▁
▁pre t
p▁ ay</w>
me a▁ns</w>
iber ation</w>
f ic</w>
at ures</w>
W h
▁recomm endation</w>
▁f ▁
▁I l
w ise</w>
ent a▁ry</w>
c o▁r
ag▁ ainst</w>
ad ded</w>
Y oo</w>
K▁or e▁a</w>
▁m anner</w>
ar ity</w>
H an</w>
2 8</w>
▁resc ue</w>
▁lic ense</w>
o oting</w>
k▁ er</w>
▁tr ack</w>
▁Med ical</w>
▁Bri tish</w>
▁An other</w>
▁20 s</w>
receiv ▁ed</w>
qu ar
ib ility</w>
al o▁ng</w>
y o▁ng</w>
t og▁
manag▁ ement</w>
e▁r ▁e</w>
d▁ le</w>
at tr
as ts</w>
ac ▁h
U n▁
▁sp ot</w>
▁i sland</w>
▁compet ent</w>
▁bl ue</w>
res sed</w>
c▁ omm
▁shar p</w>
▁sal ary</w>
▁fir ms</w>
s al</w>
or ig
e▁ st▁
ea s▁ed</w>
▁subpar agraph</w>
▁attrac ting</w>
▁Chr ist
y a▁ng</w>
e▁x p
cons ult
▁s tic
▁hom es</w>
▁fl owers</w>
▁H er
C o▁
▁transac tions</w>
▁car rying</w>
▁Se ong</w>
▁K T</w>
▁Chil dren</w>
ta i▁n
s▁h a▁ll</w>
fun c
com▁ m
▁p sych
▁ev entually</w>
▁corpor ations</w>
▁P eace</w>
▁Hall yu</w>
sel ect▁ed</w>
in▁ al</w>
h ou▁se</w>
d▁ i
b eg▁
2 5
▁un i
▁cour ses</w>
▁bus es</w>
u▁n e</w>
perc e▁nt</w>
ex ec
G y▁
▁resol ve</w>
▁grad es</w>
u▁m p</w>
och o</w>
g▁ lobal</w>
fer en▁ce</w>
d ata</w>
▁pro spec
▁discipl inary</w>
t▁ eam</w>
tak ▁e</w>
t ec
m▁ s</w>
d om▁
be▁c▁ ause</w>
▁star s</w>
▁im posed</w>
▁applic ant</w>
▁Philipp ines</w>
ub▁ lic</w>
co▁m m
and al</w>
adem y</w>
Cor por
▁st ar</w>
s ol▁
ri er</w>
r em▁
pen s
fo▁ reign</w>
ci▁ l</w>
201 9</w>
▁un d▁er</w>
▁p ort</w>
t ar
okes man</w>
m att
f▁ orm
at ri
G overn
▁ma il</w>
▁Wh ich</w>
▁S aturday</w>
w a▁rd</w>
ad diti
▁dr unk</w>
▁W est</w>
res ear▁ch</w>
per i▁od</w>
id▁ ent</w>
fr on
an y▁
S▁ .</w>
C▁h o</w>
▁suspic ion</w>
▁s etting</w>
▁mar riage</w>
▁judg ment</w>
▁expend iture</w>
ul f
med ic▁al</w>
d▁r en</w>
w▁ in</w>
sh op</w>
om in
▁vulner able</w>
▁affili ated</w>
▁ac compan
▁Pomp eo</w>
m other</w>
for ei▁gn</w>
et in▁g</w>
2 00</w>
▁Y ouT
▁ ju</w>
n eed</w>
is ure</w>
as ters</w>
ac ts</w>
▁s af
▁mod els</w>
▁b ull
st a▁r
ot▁ her</w>
4 5</w>
▁stor age</w>
▁propor tion</w>
▁hel ps</w>
▁disclos ure</w>
▁arti cles</w>
it ch
▁car eful</w>
▁bott om</w>
▁S e</w>
tea▁ m</w>
st o▁ry</w>
ex per▁
ev e▁r</w>
Chung ch
▁trans ferred</w>
▁fin ding</w>
▁atten ding</w>
s oci
h w▁an</w>
e▁ ld</w>
employ ment</w>
s afe▁ty</w>
par tic▁
p ay</w>
l a▁te</w>
fr o▁nt</w>
▁confir mation</w>
▁S audi</w>
▁Pro ject</w>
▁A ud
w a▁y</w>
t▁ ern
row n</w>
i▁ tion</w>
M▁ ay</w>
▁rea dy</w>
▁plan e</w>
▁mar ried</w>
▁del icious</w>
t▁ im
ou ldn</w>
d an▁ce</w>
cr aft</w>
b i
▁t yphoon</w>
▁sl ightly</w>
▁prem ium</w>
▁ex tent</w>
▁200 9</w>
w a▁r
g▁ ood</w>
aw ei</w>
armac eu
▁concentr ation</w>
ing ton</w>
▁tr uth</w>
um▁ an</w>
t en▁
o▁n ly</w>
id e▁d</w>
h▁ ere</w>
er▁ gy</w>
I m
▁lawmak er</w>
▁ear thqu
▁Cheon an</w>
t▁w een</w>
pre▁ ss</w>
hel▁ d</w>
c ar▁
▁mix ed</w>
▁child care</w>
▁Pyeong taek</w>
▁K OS
u al▁ly</w>
sur y</w>
si x</w>
p un
▁vid eos</w>
▁poll ution</w>
▁com fortable</w>
▁ag ed</w>
▁B aek</w>
p▁ eopl▁e</w>
f ying</w>
▁val ues</w>
▁proced ure</w>
▁p utting</w>
▁f ight</w>
▁encour age</w>
grow th</w>
epren e
av el</w>
▁s inc
▁ran ked</w>
▁Sing er</w>
per iod</w>
e▁ ad</w>
ad y</w>
▁rul ed</w>
oh ang</w>
N a▁
▁pri ority</w>
▁m ayor</w>
▁fea ture</w>
l▁ i
investig ation</w>
ag g
T a
H ong</w>
▁fail ure</w>
stit utes</w>
reg ul▁ar</w>
I N
3 1</w>
▁announ ce</w>
ol den</w>
in▁ ue</w>
in te▁r
exper ien▁ce</w>
▁lat est</w>
▁brief ing</w>
▁Th ree</w>
t▁ ak
p op</w>
on able</w>
C l
▁over come</w>
▁kinderg arten</w>
▁R yu</w>
n▁ el</w>
f arm
19 ▁
▁w oul▁d</w>
▁Se ok</w>
▁In d
▁2 ,
tra▁ de</w>
i▁ sh
ec onomy</w>
▁w ages</w>
▁min ute</w>
▁comm ents</w>
v e▁ry</w>
shi▁ p</w>
g ang</w>
f eel</w>
chil dr▁en</w>
at e▁ly</w>
▁m ur
v i▁c
techn olo▁gy</w>
s epar
r ban</w>
our self</w>
m i▁t</w>
i▁ re</w>
i▁ nd</w>
is su▁
▁s eek</w>
n atur
b al
an aly
▁min im
▁dem anded</w>
▁c enter
▁19 7
ab led</w>
▁o kay</w>
▁o bl
▁ac commod
▁Mot ors</w>
▁En ter
v o
v i▁ng</w>
s▁ ia</w>
matt e▁rs</w>
In t
▁sit u
o▁u gh</w>
an der</w>
Je ju</w>
▁str ess</w>
▁Econom y</w>
w▁h at</w>
p ur▁
e▁c ted</w>
c▁ om▁
c ulture</w>
S pec
▁r ule</w>
▁natur ally</w>
▁happ en</w>
▁d ▁
▁c entury</w>
▁200 8</w>
oc ation</w>
Jap▁ an</w>
▁su itable</w>
▁rem ov
ti cles</w>
ograph y</w>
me▁ et</w>
hous i▁ng</w>
clus ion</w>
K y
2 6</w>
▁offic ially</w>
▁l itigation</w>
▁sh ot</w>
▁hol idays</w>
▁an x
▁ag ing</w>
▁Gang neung</w>
u tions</w>
ti ous</w>
g▁ o
es s▁ed</w>
▁b ed</w>
▁Rep .</w>
m u▁ch</w>
▁att ack</w>
▁app ears</w>
▁M y
ra▁ p
ell o</w>
e b</w>
a f▁f
▁sp irit</w>
▁mon it
▁m ob
▁gr ant</w>
▁ch em
▁M ongol
s onal</w>
P ri▁
L oc▁al</w>
Comm ittee</w>
▁don ation</w>
▁Sun day</w>
u▁ ed</w>
pr in
op ▁e</w>
eff ec
d id</w>
K ang</w>
Gyeong sang
▁wea k
▁b ▁y</w>
s un▁g</w>
p ot
i▁ se</w>
is▁ ts</w>
ch a▁r
an ak</w>
▁ab s
s ocial</w>
h old</w>
expres s▁ed</w>
e th
activ ▁
3▁ rd</w>
▁crea tive</w>
▁cons ulting</w>
▁C ong
os ▁e</w>
l ove</w>
ac coun
▁p ower
▁dis hes</w>
▁b ags</w>
c anc
▁M in
▁J oo</w>
▁Chungch eong</w>
o k▁
et te</w>
art ups</w>
S outh</w>
; ▁
▁c ooking</w>
▁bloc k</w>
▁Ko▁ rea</w>
m▁ ark
mak er</w>
it or
ic▁ le</w>
e ti▁
W or▁ld</w>
P yeong
▁hel ped</w>
▁complain t</w>
serv ▁
resp on▁
ic▁ y</w>
ent ally</w>
as an</w>
Ch▁ in
▁fig ures</w>
▁am id</w>
▁ag ree</w>
port ers</w>
d ea▁
▁t ea</w>
▁strength ening</w>
▁organiz e</w>
▁comp ly</w>
▁ch e
▁D ru
ust ain
ac h▁ed</w>
▁rem arks</w>
▁g un</w>
▁c l▁
t▁h ▁e</w>
ij ing</w>
N▁ ational</w>
▁predic t</w>
▁f oot</w>
▁T eam</w>
▁H ae</w>
z en</w>
unic ations</w>
g i▁ve</w>
d i▁n
ati v▁e</w>
ar r▁
Y ang</w>
▁main tained</w>
▁Tem ple</w>
▁Olymp ics</w>
y ed</w>
v ious</w>
ugg ish</w>
uc ks</w>
si on
j o</w>
bo▁ th</w>
atten d▁ed</w>
ai▁r m▁an</w>
S un</w>
1▁ 00</w>
▁sp ea
▁re ward</w>
▁institu te</w>
pr▁iv ate</w>
ordin ate</w>
e▁r ed</w>
av ing</w>
F ac
▁politi cs</w>
▁emerg ing</w>
▁bu ying</w>
▁attrac ted</w>
▁Bo ard</w>
u▁ es</w>
pl a▁ns</w>
on ce</w>
m▁ ake</w>
g▁ r
diff▁ ic▁
2 9</w>
▁h owever</w>
▁exper t</w>
s .</w>
pr▁ om
clud e</w>
Res ear▁ch</w>
C ou▁rt</w>
201 6</w>
▁perf ect</w>
▁pas sing</w>
▁exec ution</w>
▁contrac ts</w>
▁Y eon
z ▁ed</w>
t om
kn own</w>
h um
S T</w>
▁sp reading</w>
▁pro hib
▁achiev ed</w>
▁N ews</w>
▁K o</w>
c▁ rea
Pres▁ ident</w>
▁lec tures</w>
▁differ ences</w>
▁cos metics</w>
▁auth or</w>
uc tion</w>
s cor
e b▁
T r▁
P▁ op</w>
▁car ds</w>
▁C ivil</w>
▁1 0,000</w>
ari ffs</w>
ar eness</w>
ang ing</w>
ach ing</w>
▁emerg ed</w>
y in▁g</w>
promo▁ te</w>
nam ese</w>
i ers</w>
▁canc eled</w>
▁allow ances</w>
w▁h y</w>
s ized</w>
oc▁ r
iv i▁ng</w>
f air</w>
e t▁ed</w>
Gyeong g▁i</w>
▁m aster</w>
▁inconven ience</w>
▁ab▁ out</w>
t▁h ey</w>
i eld</w>
fo▁r mer</w>
activ iti▁es</w>
P r
▁w asn</w>
▁offer ed</w>
▁l i▁
▁di verse</w>
▁be er</w>
▁: :</w>
lis t</w>
e ducation</w>
d el▁
b▁ ed</w>
▁sec tors</w>
▁guid elines</w>
▁D ynasty</w>
w elfa▁re</w>
st▁ ud
re▁c e
l oo
f it</w>
enti ment</w>
an t▁s</w>
al ize</w>
▁phenomen on</w>
▁g olf</w>
▁conserv ative</w>
▁Sh im</w>
x es</w>
il ot</w>
foll owing</w>
at u▁re</w>
3 2</w>
▁st atistics</w>
▁real ize</w>
▁re b
▁dri vers</w>
▁c ool</w>
▁Agric ultural</w>
ol es
mi▁ ss
g y
al ent</w>
Sam su▁ng</w>
▁won der</w>
▁mus ical</w>
▁Ar ts</w>
sel ▁
proc e▁ss</w>
ch e▁
3 5</w>
▁he▁ ad</w>
z es</w>
us h
ro▁ le</w>
m▁ et</w>
li o▁n</w>
ind▁ us
b ack
at e▁
J u▁ng</w>
▁l ov
▁cl in
▁A ut
w▁h ile</w>
um ed</w>
s ee
qu esti
▁grow n</w>
s▁ ity</w>
o▁r m</w>
in e
▁amend ment</w>
▁Jeoll a</w>
v ill
o▁ ur
en▁ ds</w>
d▁ ec
0 .
▁R el
pr i▁ce</w>
o b▁
ed y</w>
c ultu▁re</w>
H o▁ng</w>
▁J un</w>
oc ked</w>
f av
bir th</w>
al i
9 0</w>
&▁a p▁os;s</w>
▁A ll
p eopl▁e</w>
c▁ ase</w>
▁re fer
▁perform ing</w>
▁benef it</w>
y▁ u</w>
on l▁y</w>
it es</w>
as ted</w>
as ses</w>
E conom
▁low est</w>
▁jud icial</w>
▁b ▁
▁Th ailand</w>
▁Braz il</w>
s ay</w>
perform ance</w>
il at
exc e▁
e ys</w>
com p▁l
a ight</w>
▁stud ies</w>
▁smo oth</w>
▁aw arded</w>
▁Han wha</w>
▁D oes</w>
stud ▁
gr▁ am</w>
at▁ ing</w>
y▁ o</w>
w age</w>
t▁ ers</w>
a▁ tio▁ns</w>
air ▁s</w>
S ing
▁th ank</w>
▁p eti
▁fin ance</w>
▁athl etes</w>
▁af ter
▁adv ice</w>
▁V en
pur ch
pl a▁n
k il
ir ation</w>
ig ▁n</w>
g▁ er</w>
ed om</w>
det erm
an▁ s
▁t ests</w>
▁obl ig
▁identi fied</w>
▁h urt</w>
tr ea
st y▁le</w>
p aid</w>
mir ae</w>
l ong
e▁l op
▁w o▁r
▁re organiz
z z
wor d</w>
on ial</w>
in o</w>
ho▁ on</w>
ea l▁ed</w>
c amp
F A</w>
▁kn ew</w>
▁for um</w>
▁conven ient</w>
tor ▁s</w>
op en</w>
az a</w>
T A</w>
Chin e▁se</w>
▁explan ation</w>
▁c overed</w>
on er</w>
aug ur
am ▁es</w>
▁ref ers</w>
▁im ported</w>
▁fr anch
▁cro ss
▁W estern</w>
un j
ti▁ cle</w>
ti le</w>
op ol
m ob
for ▁e</w>
a▁ ke</w>
av o
▁h ospitals</w>
▁em b
▁G lobal</w>
st ore</w>
or▁ ts</w>
▁sk y</w>
▁schol ar
▁pat h</w>
▁inv ited</w>
▁effici ently</w>
i▁n g
icul um</w>
et t▁er</w>
▁v i▁sit</w>
▁orig inally</w>
sti t▁
pr o▁m
ow e▁r</w>
ho▁ ur</w>
comp reh
bas ed</w>
b e▁rs</w>
▁ba▁ sed</w>
urs day</w>
rel ev
re ds</w>
pr ice</w>
▁o ▁
▁go als</w>
▁G iven</w>
u▁ sed</w>
i▁t tee</w>
f ar</w>
ess ors</w>
ar eas</w>
S m
F ound
▁recogn ition</w>
▁parliam entary</w>
▁n early</w>
▁ep is
▁ac ting</w>
mon ey</w>
l e
in▁ g
h▁ it</w>
er ea
eng th</w>
activ ities</w>
▁sur face</w>
▁claim s</w>
sign ific
j e▁c
▁us age</w>
▁hy drogen</w>
▁app eal</w>
tiv ▁
ther wise</w>
sub sid
od ies</w>
manag ement</w>
m at▁ch</w>
invest me▁nt</w>
comm un
▁s igning</w>
▁oper ators</w>
▁&ap▁os ;</w>
ig n▁ed</w>
hea l▁th</w>
e on▁g</w>
b y
am ework</w>
P▁ rov
▁vo ices</w>
▁unf air</w>
▁coll abor
▁H o</w>
w er</w>
iz ▁ation</w>
a it</w>
Aff ai▁rs</w>
1▁ 0</w>
▁supervis ion</w>
▁d rive</w>
l ab▁or</w>
i ums</w>
a▁n d
▁cont aining</w>
u▁ ps</w>
tr aini▁ng</w>
i▁ d</w>
ic ed</w>
i ously</w>
g ence</w>
K i</w>
▁p ▁
▁he▁ ld</w>
▁comb ined</w>
p h▁
D irec
▁m outh</w>
▁dis posal</w>
▁commer ci
▁al cohol</w>
▁Pa ju</w>
▁P yongyang</w>
sum er</w>
per ty</w>
me▁ d
j oi▁nt</w>
b on</w>
6 5</w>
201 7</w>
▁s un</w>
▁a id</w>
wor king</w>
om b</w>
ip e</w>
id ity</w>
i os
D ef
▁j ustice</w>
▁i gn
▁ex posed</w>
c a▁l
I ▁t</w>
▁l ux
▁fac tor</w>
▁con tributed</w>
▁b ills</w>
▁O kay</w>
th i▁ng</w>
ro▁ u
ner ship</w>
jo▁ bs</w>
in come</w>
administr ati▁on</w>
▁wor ry</w>
▁str ike</w>
▁smartph ones</w>
▁confl icts</w>
▁ad ults</w>
▁P as
prov ince</w>
increa s▁ed</w>
diff▁ic▁ ult</w>
ap o</w>
▁sl ow</w>
▁inev itable</w>
▁Pen sion</w>
▁E very</w>
re▁ ad</w>
p m</w>
e▁ al
ay in▁g</w>
▁g ain</w>
▁e sc
▁disp atched</w>
pol ice</w>
la▁ ted</w>
g ive</w>
ed eral</w>
cl aim
bass ador</w>
▁un cer
▁or▁ der</w>
▁innov ative</w>
▁b and</w>
▁Christi an</w>
under▁ st
str o▁ng</w>
o d▁
nam ent</w>
l ov
is ition</w>
f ail
et▁ y</w>
R S</w>
▁respon dents</w>
▁ar my</w>
▁T okyo</w>
ok i▁ng</w>
lik ▁e</w>
▁relig ious</w>
▁m ill
▁d ea
▁J o</w>
succ ess
ol▁ ds</w>
l i▁ng</w>
d▁ es
at in▁g</w>
app▁ ly</w>
▁w il▁l</w>
▁compl exes</w>
▁ass et</w>
▁2 5
v e▁n
op▁ en</w>
ib▁ le</w>
g▁ ue</w>
c▁ ar</w>
V ice</w>
N ational</w>
H ee</w>
▁m and
▁cooper ative</w>
▁20 20</w>
c a▁r
bor n</w>
▁pus hing</w>
▁dro pped</w>
▁3 1st</w>
spec ial
rec ent▁ly</w>
o▁ ve</w>
l abor</w>
ea vy</w>
ann i▁ng</w>
▁teen agers</w>
▁dis tricts</w>
▁10 0,000</w>
r ▁e</w>
m e▁n
ge▁n eral</w>
for ce</w>
ath e▁r</w>
▁no tic
▁Viet namese</w>
su gg
play ▁ed</w>
f▁ r
e e▁d</w>
b e▁r</w>
▁ch ose</w>
▁b ▁e</w>
▁F ilm</w>
st u▁
b enef
H igh</w>
▁su icide</w>
▁in form</w>
▁govern ed</w>
ta▁ e</w>
rec ogn
n etw
jus ▁t</w>
j obs</w>
is h▁ed</w>
ens us</w>
al ax
▁shar ply</w>
▁G or
▁Christ mas</w>
i e▁d</w>
g▁ row
M a▁r
4 ▁th</w>
▁A si
s▁ um
▁r out
▁dr ugs</w>
▁br ands</w>
▁Inv estment</w>
ill eg
ic ▁s</w>
▁m e▁
▁N ext</w>
rec e▁
ne▁ ar</w>
incl▁ud i▁ng</w>
bo▁ dy</w>
▁sud den</w>
▁s ear
tim es</w>
the▁ m</w>
▁t ariffs</w>
▁pre gn
▁det ected</w>
in s▁
▁requ ests</w>
re▁ ase</w>
ou▁r s</w>
or r▁y</w>
m is▁
Sup po▁rt</w>
▁ver sion</w>
▁car efully</w>
▁I CT</w>
h me▁nt</w>
a ised</w>
C up</w>
▁competi tive</w>
ym ore</w>
si l</w>
se▁ ok</w>
ou s▁
l ead
e ffici
adminis tr▁
▁pay ments</w>
▁f arm</w>
▁charg ed</w>
▁b an
▁J ang
ro l</w>
ong no</w>
ind ivid
E l
▁sw eet</w>
▁sup ports</w>
▁m ▁
zbe k
ol s</w>
es▁ ts</w>
com b
▁scor ed</w>
▁inv ested</w>
▁aw areness</w>
▁alleg ed</w>
▁H ere</w>
ou sing</w>
op e▁r
h on
▁wor se</w>
▁tal ent</w>
▁fl ower</w>
▁C ol
won do</w>
t o▁ry</w>
S ou
▁resear chers</w>
▁public ly</w>
▁pic k</w>
▁G eun</w>
t a</w>
ist ant</w>
im b
con stru▁c
I S</w>
▁st abil
▁f iscal</w>
▁apprec iate</w>
tw▁ o</w>
su▁ pp
poli▁ tical</w>
j eon</w>
e▁ me▁nt</w>
ch ang</w>
I T</w>
▁evalu ated</w>
▁chall enge</w>
▁ch ar
▁canc ell
▁L aw</w>
▁G o</w>
um i</w>
ti se</w>
p▁ol icy</w>
or d▁
k e▁d</w>
diffic u▁lt</w>
▁exten sion</w>
▁emp ty</w>
▁b onds</w>
▁ac ts</w>
▁H ar
y on▁g</w>
o il</w>
l▁ s</w>
im ming</w>
dom est▁ic</w>
at h</w>
▁exper im
▁cont ain
▁clos ely</w>
▁big ger</w>
wor▁ ld</w>
tu p</w>
gr am</w>
az on</w>
ash ington</w>
▁requir ements</w>
▁oper ations</w>
▁d ogs</w>
▁conf idence</w>
▁YouT ube</w>
▁R ights</w>
or ▁ed</w>
m ark</w>
i e▁n
20▁1 8</w>
▁th in▁k</w>
▁sem ester</w>
▁dec laration</w>
▁beg un</w>
▁ at▁ion</w>
m il
con sec
c and
as▁ te</w>
C ooper
▁f ifth</w>
stand i▁ng</w>
relev a▁nt</w>
par ag
l igh
is s</w>
ic i▁es</w>
g▁ u
f am▁
enc ing</w>
b▁ efo▁re</w>
▁wind ow</w>
▁ref er</w>
▁m eals</w>
pres i▁d
n et</w>
il s</w>
i ary</w>
bec o▁me</w>
app ed</w>
▁wh om</w>
▁un less</w>
▁r ide</w>
▁r aw</w>
▁fe els</w>
▁dec or
ee d▁ed</w>
A I</w>
▁listen ing</w>
▁H ak</w>
und reds</w>
re▁ me</w>
re f▁
g lob▁al</w>
bus i▁ness</w>
ar ian</w>
v ac
hy e</w>
ac▁ c
G o▁
▁wh enever</w>
▁m om</w>
▁far ms</w>
▁adverti sing</w>
▁Exc ept</w>
w it▁h
i▁ zed</w>
ig ar
c▁ r
b▁ as
a▁ tion▁s</w>
▁t opic</w>
▁initi al</w>
▁con tribution</w>
▁arti st</w>
thr▁ ough</w>
g u▁n</w>
ea▁ d</w>
d eg
a ud▁
▁monit oring</w>
▁hon or
▁cul tiv
▁comb ination</w>
t o
t ings</w>
enti a</w>
Sa▁m sung</w>
Ch▁in ese</w>
▁pen alty</w>
▁im ages</w>
▁g rew</w>
▁det ail</w>
▁com position</w>
▁clean ing</w>
ult an
u ting</w>
se▁r vice</w>
it▁ e</w>
em▁ ber</w>
ci en▁ce</w>
c an
▁ven ture</w>
▁sl uggish</w>
▁d ry</w>
▁at titude</w>
▁In depend
prov in▁ce</w>
p o
in ati▁on</w>
if ying</w>
f▁ ri
Sh in</w>
A ir
v ar▁
prof essi
o▁ ffice</w>
ou▁ ng</w>
m▁ ed
mil▁ itary</w>
ll ed</w>
i▁ st▁
f ee▁
ci t▁
b oth</w>
▁vic tory</w>
▁spec ified</w>
▁real ized</w>
sh ow▁ed</w>
m▁ en</w>
it e▁d</w>
ap prov
▁w o▁uld</w>
▁sim ply</w>
▁grea ter</w>
▁exam ine</w>
▁cor ruption</w>
▁Hu awei</w>
▁Comp any</w>
▁C ooper
pa▁ st</w>
ough ly</w>
ha▁ v▁e</w>
ev▁ el
appoin t▁ed</w>
▁ab ou▁t</w>
▁Ch useok</w>
▁5 2</w>
t▁ ions</w>
p oint</w>
on ▁ed</w>
d ang</w>
al ist</w>
air ed</w>
▁su it</w>
▁man ip
▁l ease</w>
▁f ear</w>
▁G reen</w>
w e▁nt</w>
ut▁ es</w>
t alk</w>
qu e</w>
at▁ ive</w>
am▁p ;</w>
Prov i▁nce</w>
O h</w>
▁p age</w>
▁offer ing</w>
▁communic ate</w>
▁S y
▁S NS</w>
▁M i</w>
▁D ivision</w>
▁Con struction</w>
ul ati▁on</w>
ol og▁y</w>
i▁ r</w>
at▁ or</w>
Je oll
3 00</w>
▁sh r
▁e ase</w>
▁diplom atic</w>
p .</w>
osp ital
m inal</w>
l▁ ing</w>
ic e▁s</w>
fi e▁ld</w>
en ▁s</w>
employ me▁nt</w>
bl ed</w>
O f▁f
A si▁an</w>
▁t esti
▁t elecomm
▁sp aces</w>
▁pret ty</w>
▁al loc
▁Gyeong nam</w>
▁0 .
h and
com fortable</w>
c rea▁
&▁a pos▁;s</w>
▁t ons</w>
▁e ither</w>
▁3 0s</w>
n ecessary</w>
c e▁d</w>
al▁ ity</w>
all en</w>
a th▁er</w>
J eong</w>
▁sec urities</w>
▁gu ess</w>
▁d ivid
m m</w>
j ae</w>
ici ary</w>
f ul▁
a▁c y</w>
&▁apos; t</w>
▁y ourself</w>
▁w ake</w>
▁th▁ ere</w>
▁sh oes</w>
▁r iver</w>
▁pr ime</w>
▁eas ier</w>
▁deg ree</w>
▁concentr ated</w>
re▁ qu
o thing</w>
no▁ w</w>
f a▁ns</w>
d a▁ta</w>
Com p
▁vill ages</w>
▁sm all
▁fu el</w>
▁ ic</w>
sa▁ ng</w>
ret u▁r
med ia</w>
liv i▁ng</w>
h eal
g e▁t
fo▁r m
ef s</w>
atiz ation</w>
M e▁
▁purch asing</w>
▁g ained</w>
▁ab and
▁ ati▁on</w>
r ai▁
is ti▁ng</w>
I C
▁respon ded</w>
▁d ark</w>
▁all owing</w>
ten ing</w>
po▁ se</w>
er ship</w>
curr e▁nt</w>
▁wh e▁n</w>
▁tro ops</w>
▁S MEs</w>
▁Hw as
▁Gr and</w>
w ood</w>
u ted</w>
si▁ ble</w>
ob by</w>
iz ▁e</w>
com es</w>
Y ong
▁bloc ked</w>
tur ▁es</w>
nu▁ clear</w>
mat er
h ot</w>
establis h▁ed</w>
b ad</w>
W on</w>
▁w▁ ith</w>
▁m ass</w>
▁expres sion</w>
▁c af
▁&a▁ pos;</w>
sh ▁e</w>
pre vi
enter pris
ch▁ ang
▁law yer</w>
▁dep ar
▁d ed
▁O per
s▁h ip</w>
i o▁n
fac ilities</w>
emb e▁r</w>
d▁ idn</w>
bo x</w>
ay i▁ng</w>
aut om
1 7
▁prom ised</w>
▁custom ized</w>
▁For est</w>
d es▁
En▁ g
▁manag ing</w>
▁fi ref
▁disc overed</w>
▁d rew</w>
▁d ong</w>
si▁ k</w>
int e▁n
ic it</w>
ho▁ ld</w>
cu▁r rent</w>
cr im
cer emo▁ny</w>
c e▁s</w>
b▁ ig</w>
Prov▁ ince</w>
Gye on▁g
▁v ess
▁s ad</w>
▁prov inces</w>
▁par ti
▁bor der</w>
▁An y</w>
we▁ ek</w>
uc le▁
pr▁ il</w>
pos▁ ;
ir ▁ed</w>
ch eo▁n</w>
ain t</w>
activ e▁ly</w>
T X</w>
P I</w>
K▁ or▁
▁spen ding</w>
▁lea ds</w>
▁h iring</w>
▁T rea
▁H ol
us ▁t</w>
un ior</w>
t▁ io▁n</w>
ti on▁al</w>
spec ▁
o▁ ver</w>
ho▁ pe</w>
ci a▁l</w>
▁su ffer</w>
▁multi ple</w>
▁extr eme</w>
▁cons ists</w>
w a▁ge</w>
os en</w>
le▁ ad
in et</w>
N ov
▁star ts</w>
▁g one</w>
▁fi erce</w>
▁exclus ive</w>
tak i▁ng</w>
star t▁ed</w>
e very
b▁ ack</w>
ac tion</w>
J▁ ap
G▁yeong gi</w>
▁sh ow
▁passeng er</w>
▁c o▁m
▁b re
▁L ike</w>
u to</w>
serv ic▁es</w>
h am</w>
b▁ le</w>
Kor ea▁n</w>
▁eng aged</w>
▁Pol icy</w>
w a▁ys</w>
tor ies</w>
ri ers</w>
re ti
o▁ ffic
isten ce</w>
int▁ ern
d▁ em
co▁ st</w>
b us</w>
a▁n ts</w>
ad es</w>
ac tive</w>
Un ive▁r
M W</w>
▁mist ake</w>
▁e g
▁e cos
▁c afe</w>
▁autom atically</w>
▁C itizens</w>
v▁ ey</w>
t▁ ic</w>
st age</w>
r▁eal ly</w>
particip at▁ed</w>
op positi▁on</w>
m▁ in
in▁ ess</w>
▁y ellow</w>
▁trav eling</w>
▁intro ducing</w>
s ett
rec ru
m om
estiv als</w>
dr aw</w>
a▁ ss
ap y</w>
D iv
▁pack age</w>
▁ann ually</w>
▁ac tions</w>
so▁ on</w>
r a</w>
p▁ ol▁
c ol▁
▁sp ons
▁rem ove</w>
▁hum an
g u▁
evelop me▁nt</w>
a ff▁
▁st eel</w>
▁sec uring</w>
▁Sec urities</w>
t▁ e▁d</w>
pp ing</w>
e▁ ri
es ▁e</w>
D e▁
C ente▁r</w>
▁b all
te▁ e</w>
st a▁te</w>
ri f
rel ation
reg is
fi▁ l
e▁r ing</w>
T▁ r
Or ganiz
N am</w>
J une</w>
Gen er▁al</w>
B l▁
▁st ability</w>
▁fe el
▁Mus ic</w>
▁L ooking</w>
we▁ l
ti s</w>
it ations</w>
at o▁ry</w>
ar e▁a</w>
▁s oci
▁ill eg
▁earthqu ake</w>
▁decl ared</w>
▁Wh o</w>
▁M embers</w>
▁1 50</w>
▁ ted</w>
tur n</w>
rou g▁h</w>
me th
l ic
iti on▁al</w>
d on</w>
cl ass</w>
▁situ ations</w>
▁s u▁
▁reas onable</w>
▁los ses</w>
▁c atch</w>
▁Agric ulture</w>
wh eth▁er</w>
te▁ nd</w>
st▁ it
re▁ ss</w>
res ol
g ov▁ern
ea▁ s</w>
co▁mp any</w>
con d</w>
▁un like</w>
r ights</w>
e▁ am</w>
ed ing</w>
M y</w>
▁recogn ize</w>
▁lea gue</w>
▁br ain</w>
▁Str eet</w>
to▁ o</w>
st ablis
r ap▁
▁th▁ e▁re</w>
u▁n der</w>
s▁ ub
oo thly</w>
o tions</w>
j oy</w>
if ts</w>
ec on▁
co▁n t
O per
20▁ 0
▁sh ooting</w>
▁f undam
▁W o
▁3 2</w>
z ▁
v▁ al</w>
se o▁k</w>
par ▁ed</w>
d ir▁ec
S un
▁suspic ions</w>
▁ d</w>
w ant</w>
pa▁ id</w>
h▁ igh
en c▁y</w>
Intern ation▁al</w>
▁e th
▁V arious</w>
▁Par ticip
▁Nav er</w>
wit ter</w>
s ince</w>
ot▁ ed</w>
f ind</w>
R e▁
N .</w>
▁pre viously</w>
▁p ort
▁ow ned</w>
▁collap se</w>
▁S ang
ver al</w>
5 00</w>
▁h ike</w>
▁en thusi
▁ad just</w>
▁Tur key</w>
▁Cheong ju</w>
▁C ap
th▁ a▁t</w>
p i▁c
herein a▁ft▁er</w>
er able</w>
enter ▁ed</w>
ad ministration</w>
ach iev
E un</w>
▁f ill</w>
▁c ode</w>
ough ts</w>
l os
ion a▁l</w>
il▁ ls</w>
a▁n n
au ce</w>
▁tal ked</w>
▁fre ely</w>
▁c ross</w>
▁R oad</w>
▁An san</w>
▁Ab ove</w>
t▁ic le</w>
res taur
particip a▁te</w>
▁invest ments</w>
▁inc en
▁exemp tion</w>
▁Malay sia</w>
▁D an
sus pec
rel ated</w>
m at▁
it ch</w>
dis tribu
d er▁
c▁h eon</w>
al▁ ls</w>
▁p ilot</w>
▁fam iliar</w>
▁f aster</w>
▁dem ands</w>
▁Be ijing</w>
s ome
he▁ l▁d</w>
form er</w>
essi ons</w>
1▁ 9
. .</w>
▁trans par
▁pur poses</w>
▁o therwise</w>
▁chall eng
▁c up</w>
▁Ta x</w>
▁200 7</w>
w eb
s▁ erv
p▁ eo▁ple</w>
n eigh
mak ▁e</w>
m et</w>
kn owl
f ather</w>
Gwang ▁ju</w>
E X</w>
▁v acc
▁s eal</w>
▁Ch a</w>
st op</w>
s ing▁
ific ations</w>
ic op
ic a▁l</w>
g n</w>
b ors</w>
▁v oting</w>
▁rel ation</w>
▁l ess
▁bo at</w>
▁P ower</w>
▁P ohang</w>
▁M ad
▁H ello</w>
k er▁s</w>
id▁ eo</w>
e▁r t</w>
de▁ f
con fl
c at
b ooks</w>
S o▁
OS CO</w>
▁sh ut
▁s p▁
▁fos ter</w>
▁earn est</w>
▁bor row
you▁ r</w>
m▁ er</w>
es tr
coun tries</w>
▁m unicipal</w>
▁lea ves</w>
▁k imchi</w>
▁intern et</w>
▁im ag
▁curr iculum</w>
▁Seong nam</w>
▁F ree</w>
res p▁
f re
d ou
alax y</w>
▁w i▁th</w>
▁satis faction</w>
u ff
sib ili▁ty</w>
se▁ as</w>
s ou
r at
q▁ u▁
oc c▁
f ans</w>
ci ent</w>
M on
▁u plo
▁mis s</w>
▁los ing</w>
▁hand ling</w>
▁continu ous</w>
produc ti▁on</w>
me et</w>
is ional</w>
im pro▁ve</w>
b▁e ing</w>
▁per man
▁fac ts</w>
▁down town</w>
▁M r
or▁ ry</w>
og rap
h oo▁n</w>
emerg en▁cy</w>
an im
U▁n ited</w>
J ang</w>
▁wid ely</w>
▁re place</w>
▁inv oice</w>
▁Y un</w>
s l▁
pr▁ oc
j a</w>
e▁ ll</w>
doc um
d a▁
▁un usual</w>
▁tim ▁e</w>
▁sh ops</w>
▁fru it</w>
▁behav ior</w>
▁Yong in</w>
st a▁ge</w>
pos ite</w>
el em
diffic ul
ar a</w>
t▁h ere</w>
t ow
o▁r d▁ing</w>
lik e▁ly</w>
ener y</w>
S ta▁
▁wor st</w>
▁s ources</w>
▁enterpr ise</w>
▁W ashington</w>
gu id
b udget</w>
, 7
▁s entiment</w>
▁num bers</w>
▁merch ants</w>
▁g r▁
▁b attle</w>
▁M an
sh▁ all</w>
sh ould</w>
r▁ em
num ber</w>
l▁ evel</w>
ir▁ ae</w>
inclu▁ ding</w>
f a▁ce</w>
em p▁l
ell a</w>
elec ti▁on</w>
bl oc
agre eme▁nt</w>
C▁ ity</w>
▁stud ied</w>
▁str aight</w>
▁mil k</w>
▁continu ing</w>
▁am oun
s▁ ix</w>
re▁ ss
op eni▁ng</w>
m ess
im medi
gener ati▁on</w>
et▁ ing</w>
ed▁ ge</w>
Pa▁r ty</w>
2 8
▁tow ards</w>
▁A be</w>
rim ination</w>
mus ic</w>
ea c
ad ver
C o</w>
, ▁
▁sing ers</w>
▁m el
▁hand ed</w>
▁c red
▁D i
▁A s
pl ied</w>
os un</w>
os u</w>
bass y</w>
a▁r ed</w>
B us
20 th</w>
▁replac ed</w>
▁cl ou
ul ted</w>
s eok</w>
il d
fin▁ al</w>
ex ▁t</w>
en h
ea▁ sed</w>
de p▁
busin ess▁es</w>
a▁ k
Pr▁ ov
P resi▁d
▁usu al</w>
▁retur ning</w>
▁r are</w>
▁def in
▁Ar ticles</w>
re▁l ated</w>
o king</w>
m▁ ov
c ur▁
ay be</w>
2 6
▁fa ith</w>
▁exc av
▁W ednesday</w>
▁C ri
uch eon</w>
s▁ ch
s man</w>
r an</w>
g ers</w>
fil m</w>
f e▁r
f em
a th▁
▁tur ning</w>
▁pr im
▁disc rimination</w>
▁Z one</w>
▁S ystem</w>
▁B oth</w>
▁3 4</w>
y a</w>
tr eat
s▁ ta▁
sy▁st em</w>
p .m.</w>
m▁ en▁t</w>
igh ters</w>
ber g</w>
ath y</w>
E ▁n
&▁ap▁os ;</w>
▁sec ret</w>
▁re fr
▁mut ual</w>
▁lin ked</w>
▁happ iness</w>
▁classi fied</w>
▁H ang
▁C rea
is si▁on</w>
J u▁ne</w>
J uly</w>
▁plen ary</w>
▁ag ent</w>
y one</w>
s a▁n</w>
rel▁ ated</w>
min im
iti v
ead ily</w>
con feren▁ce</w>
al▁ ue</w>
C o▁un
,0 0▁0</w>
▁w edding</w>
▁tou ch</w>
▁g e
▁expl os
▁cr ack
▁a r▁
▁W on
r▁ ate</w>
om b
j o▁ng</w>
ind ic
T ra▁
&a▁po▁s ;</w>
▁dismis sed</w>
▁day care</w>
▁Chang won</w>
u esday</w>
s▁ i</w>
rec or
prov id
o▁ un▁
h a▁rd</w>
accor di▁ng</w>
M Z</w>
Coun cil</w>
▁sou p</w>
▁sing ing</w>
▁piec es</w>
▁dang erous</w>
s e▁d</w>
por ti▁ng</w>
m yeon</w>
it ual</w>
c iv▁il</w>
b ank</w>
aw n</w>
V s</w>
▁y e▁ar</w>
▁l e▁
▁fac ing</w>
▁f ails</w>
▁N ex
▁G o
s▁h all</w>
l e▁d</w>
i▁l ity</w>
ech eon</w>
Un it▁ed</w>
S▁ outh</w>
▁s pl
▁netw or
▁fri endly</w>
▁adop ted</w>
▁Pro t
wi▁ n
p▁ol ice</w>
c ard</w>
bud g▁et</w>
abil i▁ty</w>
M us
. 5
▁s cienti
▁n ecess
▁ha v▁e</w>
▁exc eeded</w>
▁M ean
▁B el
ti▁ n▁g</w>
ter ▁ed</w>
tal▁ ks</w>
st e▁
pr ais
mor ning</w>
inv olv
h aus
duc ts</w>
aff ai▁rs</w>
S AT</w>
▁u k</w>
▁dou b
▁6 5</w>
re▁ la▁ted</w>
prev e▁nt</w>
f ind
▁doll ar</w>
▁bu yers</w>
y▁ ears</w>
y ear▁s</w>
qu ality</w>
eter ans</w>
ed▁ ly</w>
e the▁r</w>
comp et▁
ch il▁
am ong</w>
D A
▁ex ▁
▁Gang seo</w>
reg ion▁al</w>
reg ion</w>
o▁r d</w>
off▁ icial</w>
m id</w>
l▁i k▁
k inderg
ed ged</w>
dr a▁
c m</w>
▁power ful</w>
▁p op</w>
▁or dinance</w>
▁no ise</w>
▁in str
▁h ot
▁belong ing</w>
▁T imes</w>
▁I ts</w>
plo y▁
is▁ m</w>
e▁s s▁
exp a▁n
arb age</w>
ar ound</w>
Pro moti▁on</w>
, 6
▁K ia</w>
▁Inst ead</w>
prosec ▁u
or se</w>
o thers</w>
gover n▁or</w>
e ung
D i▁
3 3</w>
▁s ex
▁f ing
▁det eri
▁J ung
th erm
me e▁
in▁ d</w>
i ol
e▁c tion</w>
el er
c iv
a▁s k</w>
▁win s</w>
▁pain tings</w>
▁cop y</w>
▁S om
▁G re
▁&▁ quot;</w>
tr ie▁s</w>
tim▁ es</w>
r u▁n
probl em</w>
in▁ v
c▁ er
S e▁r
&a▁pos▁ ;</w>
▁n erv
▁cons ent</w>
v en▁
mon ths</w>
me an▁s</w>
Jap▁ anese</w>
▁r ally</w>
▁inj ury</w>
▁har d
▁bo y</w>
▁bir thday</w>
▁Shin han</w>
th▁ ing</w>
ot a</w>
i▁n gs</w>
he▁ al
h ealth</w>
gu ar
S C</w>
En ter
, 8
▁sp icy</w>
tic ultural</w>
syst e▁m</w>
o▁r ts</w>
o▁ ok</w>
ind epend
il i▁es</w>
c▁om p
co▁m p▁
con▁ t
bec om
3▁ 0</w>
▁pre fer</w>
▁investig ated</w>
▁fav or</w>
▁d er
▁analy ze</w>
▁C r
under st
t▁ ies</w>
s anc
re x
ific ati▁on</w>
i e▁nce</w>
e▁x p▁
b o▁r
ar row</w>
am ou▁nt</w>
al ogue</w>
al l▁ed</w>
E uro
&a▁pos▁ ;▁s</w>
▁wor s
▁disapp eared</w>
▁c itizen</w>
▁Indus tries</w>
pr▁ oc▁
k e▁rs</w>
ec ▁t</w>
3 7</w>
▁win ner</w>
▁in quir
▁ap olog
▁In nov
oo▁ ls</w>
h▁ alf</w>
ent um</w>
cer tific
J us
, 4
▁wat er
▁resol ved</w>
▁rec over</w>
▁flex ible</w>
▁f ounded</w>
▁dis h</w>
▁Kor e▁a</w>
t▁h ree</w>
tric ▁t</w>
st a▁rt</w>
p u▁r
om▁ y</w>
fac il▁
e▁ ls</w>
employ e▁es</w>
ation a▁l</w>
ass ment</w>
agre ement</w>
▁success fully</w>
▁re jected</w>
▁negoti ation</w>
▁ma p</w>
▁land scape</w>
▁g ate</w>
▁frequ ent</w>
▁eng ine</w>
▁diagnos is</w>
▁chann el</w>
▁B en
stud ents</w>
sc re
s un</w>
qu a▁r
k▁ ey</w>
ish es</w>
con si▁
cl as
an▁ n
Da e▁
B ur
▁replac ement</w>
▁prosec utors</w>
▁pro pos
▁memor ies</w>
▁inter ior</w>
▁Mean while</w>
▁F amily</w>
s▁ ystem</w>
med▁ ia</w>
ic ate</w>
ay ▁ed</w>
▁val u
▁issu ance</w>
▁4 5</w>
u ition</w>
is io▁n</w>
h it</w>
f▁am ily</w>
esti v▁al</w>
coun t▁ry</w>
at▁ ion▁s</w>
▁pr o▁
▁legisl ation</w>
▁gl ass</w>
▁H on
po▁ p
oy s</w>
ish eries</w>
iber ati▁on</w>
f oun
ea▁ m</w>
eat edly</w>
cas ▁es</w>
art a</w>
Y ang
A N</w>
▁ter min
▁p riv
▁h arm
▁gar den</w>
▁c y
▁F ur
t me▁nt</w>
f▁or m</w>
D evel
▁j um
▁invol ving</w>
▁c ir
ti▁ ci
ri c</w>
pr▁ ob
for ceme▁nt</w>
ech an
charac ter
ay ers</w>
ad v▁
, 9
▁prog res
▁m all</w>
▁le isure</w>
▁hel ping</w>
▁feel ings</w>
▁a▁ nd</w>
▁accompan ied</w>
▁Br idge</w>
▁Am azon</w>
ur e▁s</w>
t▁ h▁
m illion</w>
k▁ et</w>
i▁ ons</w>
indus tri▁al</w>
▁v oc
▁un ve
▁rel ief</w>
▁hum ans</w>
▁dis advant
▁S oon</w>
▁K um
▁D r
u▁ nd</w>
te▁ m
t omorrow</w>
sal es</w>
pro f▁it</w>
g yp
f▁er red</w>
c▁h ange</w>
▁s it</w>
▁h eight</w>
▁bic ycle</w>
▁Res idents</w>
▁Gyeong buk</w>
pl aces</w>
ond ary</w>
broad cas
ar▁ tment</w>
2 9
▁identi ty</w>
▁cl ient</w>
▁center ed</w>
▁br ight</w>
pro jects</w>
form ed</w>
en▁ ing</w>
employ ▁ed</w>
dre▁ n</w>
ardi an</w>
administr ati▁ve</w>
▁inspec t</w>
▁Ac tress</w>
s▁ ized</w>
m us▁ic</w>
m ant
e▁ conom
contin u
arg o</w>
al▁ ready</w>
a w▁ay</w>
▁restor ation</w>
▁r ating</w>
▁f estivals</w>
▁disclos ed</w>
ur ement</w>
r▁ ough</w>
armaceu tical</w>
ac tly</w>
▁sh ipment</w>
▁h undreds</w>
▁dis charg
▁acqu isition</w>
▁19 6
oti c</w>
m ov▁
l e▁s</w>
if▁ ic</w>
h▁ ye</w>
consid ▁
b▁ est</w>
▁tr ends</w>
▁so ft</w>
▁n utr
▁exten d</w>
▁con clusion</w>
▁cl ubs</w>
tic▁ al</w>
s▁tr ong</w>
re po▁rt</w>
mea▁ sur
iv▁ er
iti cal</w>
hi▁ gh
f er▁
er age</w>
ec o</w>
▁sem in
▁Buddh ist</w>
tr u▁c
s ociety</w>
s afety</w>
i▁ gh</w>
f utu▁re</w>
bu il▁
Sch o▁ol</w>
H ye</w>
▁l et
▁coll ecting</w>
▁aw ards</w>
▁Stud ents</w>
yo▁ ur</w>
p▁ ri
p oi▁nt</w>
loc at▁ed</w>
l ets</w>
hw a▁n</w>
el ih
b▁ e▁
a▁n s
Direc t▁or</w>
▁suppl ied</w>
▁memor ial</w>
▁employ ed</w>
▁Ac ademy</w>
v eh
t ae</w>
os is</w>
on▁ es</w>
olo▁ g
mo d▁
ll ing</w>
in sur
il ding</w>
hea▁ d</w>
B usin
▁sharehol ders</w>
▁m al
▁k ing</w>
▁dis close</w>
▁Con cer
ul ating</w>
u p▁
ou ido</w>
o ir</w>
me▁d ical</w>
ing ing</w>
e▁ ir</w>
e ig▁ht</w>
bus▁ in
Pri▁ me</w>
▁prof essors</w>
▁Sp ain</w>
ul ▁ed</w>
en n
ell er</w>
▁selec ting</w>
▁reg ulatory</w>
▁favor able</w>
o▁r th</w>
lo▁ ok</w>
coun ter
4 8</w>
12 th</w>
1 8th</w>
0 00</w>
▁ecos ystem</w>
▁a spec
p▁ o▁s
presid enti▁al</w>
p at▁
m yeo▁n</w>
lo▁ ve</w>
en e▁ss</w>
d aemun</w>
c ourt</w>
c ost</w>
bu y</w>
ann ou▁n
U. S▁.</w>
▁t i▁me</w>
▁sm oke</w>
▁por tion</w>
▁mas sive</w>
▁categ ory</w>
▁c ake</w>
▁U rban</w>
y▁ oung</w>
su fficient</w>
h op▁e</w>
dep artme▁nt</w>
ai▁ r</w>
C ou▁n
▁pl ays</w>
▁c ited</w>
▁G un
wo▁r ld</w>
res ul▁ts</w>
r i▁s
l▁ ik
l og
ic▁ an</w>
G w▁
1 0th</w>
▁th▁ er▁e</w>
▁see king</w>
▁qu ick</w>
▁3 3</w>
ye on▁g</w>
un▁ ity</w>
trans port
per s▁
l and
k et
gre▁ at</w>
S h▁
P ar▁k</w>
▁under ground</w>
▁tea ching</w>
▁st adium</w>
▁s ac
▁pleas ant</w>
▁W ill</w>
▁R ather</w>
▁Gw anak</w>
▁Coll ege</w>
t▁ om
sc▁h ool</w>
rea▁ dy</w>
f i▁ne</w>
c a▁ll</w>
b al</w>
▁lif elong</w>
▁j uven
▁custom s</w>
▁crea m</w>
▁aut umn</w>
▁aim s</w>
▁R ural</w>
t▁r ict</w>
on▁ ce</w>
m ad▁e</w>
empl o▁y
educ ▁ation</w>
a▁c c
anm ar</w>
an n▁
Ju▁ ly</w>
C entr▁al</w>
▁gr anted</w>
▁M ike</w>
▁E U</w>
▁4 00</w>
rel atio▁ns</w>
n ings</w>
e▁n g
es ides</w>
ea h</w>
al ists</w>
K a▁ng</w>
D el
▁v it
▁t ar
▁p ork</w>
▁forec ast</w>
▁T own</w>
▁ ent</w>
un g▁
rul i▁ng</w>
or n</w>
on a</w>
m▁ e
l ey</w>
j udg
i▁c es</w>
inv es▁
for▁ m</w>
fac ▁t</w>
Gy▁ eong
▁sol ar</w>
▁pos itions</w>
▁part ner</w>
▁h ous
w▁ ar</w>
pop ul▁ar</w>
o▁w ing</w>
in ations</w>
il os
ij eong
h▁ n
c ean</w>
bl ing</w>
b ro▁
C oun▁
▁win ners</w>
▁un ification</w>
▁r oyal</w>
▁N or
umb ent</w>
pres s
mi▁ll ion</w>
l friend</w>
ew oo</w>
ec te▁d</w>
ch es
b▁ uk</w>
S A</w>
H a</w>
D is▁
0 ,0▁00</w>
&a▁po▁s ;▁t</w>
▁sol ved</w>
▁refug ees</w>
▁i ▁t</w>
▁hon or</w>
▁exp iration</w>
u▁s try</w>
un ion</w>
ul▁ tural</w>
sti▁ ll</w>
is h▁
intern at▁ional</w>
ener ation</w>
an▁ other</w>
In tern▁
A sia</w>
▁th us</w>
▁inten si
▁contro versi
▁comp on
▁Se wol</w>
▁N ew
r▁ ul
r o▁ss</w>
par liam
il it▁y</w>
ign ment</w>
gover n▁
f os
an▁ ch</w>
ac ting</w>
D a▁
▁vi ews</w>
▁mand atory</w>
▁im pose</w>
▁id ol</w>
▁g arbage</w>
▁St and
th in▁g</w>
sup▁ port</w>
i ant</w>
dom▁ estic</w>
dis c▁
a▁m p
M i▁n
11 th</w>
▁p our
▁im port</w>
▁gather ing</w>
▁fin es</w>
▁aff ect</w>
▁St ore</w>
▁B ig</w>
wo▁r king</w>
l in▁e</w>
econom ic</w>
as k▁ed</w>
201 5</w>
▁temper atures</w>
▁reg ime</w>
▁f allen</w>
▁comm unities</w>
▁clos ing</w>
▁clim ate</w>
▁air craft</w>
s▁ ti
re port▁ed</w>
m ulti</w>
is▁ t
inspec ti▁on</w>
g oo▁d</w>
ang h
C C</w>
B r▁
▁tem ple</w>
▁bl ind</w>
▁ad ult</w>
s o▁l
r ise</w>
m▁ an
d ▁e</w>
c▁h a▁r
W oo</w>
Ch▁ ina</w>
▁smo king</w>
▁princi pal</w>
▁dest ination</w>
▁ad ap
▁Pas tor</w>
▁P ur
o▁ l</w>
n▁ ess</w>
m anufac
hi▁ m</w>
brea k</w>
b el▁
av il
ach es</w>
S oo</w>
P▁ar ty</w>
19 th</w>
▁wea pons</w>
▁step s</w>
▁ro of</w>
▁ph ones</w>
▁fr aud</w>
▁c o▁
▁appro ach</w>
▁S ol
▁J eong
t▁ le</w>
pl us</w>
e▁n t▁
dis t
ain ts</w>
a e▁
Kor▁ ean</w>
Gover n▁ment</w>
▁el imin
▁begin s</w>
▁N orthern</w>
▁N ong
w om▁en</w>
ti▁ al</w>
s e▁nt</w>
ous ness</w>
our▁ t</w>
i w
amp▁ ;</w>
En viron
Bar eun
▁re in
▁politi ci
▁manag ers</w>
▁con tribu
r▁ ep
resear ch▁er</w>
pr ises</w>
equ ip
cri tici
ash ing</w>
an c▁ed</w>
Mar ch</w>
B u▁
wh▁ ere</w>
over se▁as</w>
i▁n v
ho▁ l
ag er</w>
▁w aves</w>
▁pat ent</w>
▁p eak</w>
▁larg er</w>
situ ati▁on</w>
pl▁ ex</w>
pl at
organiz atio▁ns</w>
j▁ oy</w>
i▁n cial</w>
en ior</w>
a▁ st
ate▁ gy</w>
J in
Artic▁ l▁e</w>
&▁apo▁s ;t</w>
▁t uition</w>
▁sub ordinate</w>
▁sol id</w>
▁s a▁id</w>
▁rem ained</w>
▁des ire</w>
▁S ociety</w>
▁In spec
v ic▁e</w>
ter ▁n
si o▁ns</w>
re▁ st</w>
h ig▁h</w>
c ust
a▁ fte▁r</w>
H all</w>
C ourt</w>
▁viol ations</w>
▁th oughts</w>
▁in her
▁N ot
▁Ital y</w>
▁Asi ana</w>
repres ent▁
per ly</w>
h▁av ▁e</w>
g el
con▁ ti▁n
candid a▁te</w>
a u</w>
H eal▁th</w>
A pril</w>
▁un comfortable</w>
▁trou ble</w>
▁suppl ies</w>
▁sec re
▁rem oved</w>
▁dis asters</w>
▁Ar my</w>
wor kers</w>
wh▁ ic▁h</w>
ver n
tem per
re q▁u
ma▁ t
exper i▁
com▁ pl
an el</w>
Am er
▁util ize</w>
▁restric tions</w>
▁r i▁ght</w>
▁boo k
▁advertis ement</w>
s▁ er▁
sec reta▁ry</w>
poin t▁ed</w>
p re</w>
ma▁ y</w>
h ou▁
ee▁ ds</w>
driv i▁ng</w>
ap ed</w>
▁strength ened</w>
▁er ror</w>
▁Inv estig
▁Con trol</w>
w ing</w>
ro oms</w>
ov .</w>
iv▁ en</w>
h▁ el
g ▁e</w>
e in</w>
b i▁
as hed</w>
Je▁ ju</w>
G r
▁volunt ary</w>
▁st eadily</w>
▁minis try</w>
▁foot ball</w>
s m▁
ph ot
k age</w>
▁z ones</w>
▁fir es</w>
▁Ir an
urr y</w>
s▁h oul▁d</w>
pro moti▁on</w>
pro gr▁am</w>
oth e▁r</w>
bec a▁me</w>
arm ing</w>
S h▁in</w>
R ev
▁gu ard</w>
▁c ou▁ld</w>
▁b id
▁app oint</w>
ow n▁ed</w>
ot▁ el</w>
h▁ a▁d</w>
gan ic</w>
e▁n ti
ac h▁
▁trans port</w>
▁st aying</w>
▁rep eatedly</w>
▁parti ally</w>
▁her itage</w>
▁gu ests</w>
▁cancell ation</w>
▁bat tery</w>
▁ar chitec
▁Gir ls</w>
yo▁ ung</w>
un i
p .▁m.</w>
m ir▁ae</w>
iv ▁ed</w>
issi ons</w>
conc entr
con du▁c
ati s</w>
as ting</w>
ac ti▁ve</w>
S ept
Fin anci▁al</w>
C on▁
▁exper tise</w>
▁comp ar
▁allow ance</w>
▁Yong san</w>
▁P OSCO</w>
▁K wang</w>
▁A uth
w a▁nt</w>
ultur ▁e</w>
sub ▁
re port
g▁ ot</w>
e▁ men▁t</w>
elec t▁ed</w>
▁mar ine</w>
▁fun eral</w>
▁fl ag</w>
▁deb ut</w>
▁C h▁
▁&q▁u o▁t;</w>
t▁ ae</w>
fir s▁t</w>
a▁in st</w>
N E
9 2</w>
▁u n▁
▁sup posed</w>
▁st ates</w>
sit uation</w>
se▁ cond</w>
s ea</w>
ro▁u gh</w>
if i▁ed</w>
f ig
es▁ ted</w>
C ultur▁al</w>
▁f ake</w>
▁C el
s▁ afety</w>
over s</w>
intern ation▁al</w>
ind ep
g ir
er g▁
ch on</w>
beg▁ an</w>
▁ver ification</w>
▁ur ged</w>
▁ran king</w>
▁in stitutes</w>
▁fil ming</w>
▁deliber ate</w>
▁C er
▁201 ▁
zbek istan</w>
sex u▁al</w>
pon ent</w>
f inis
ampion ship</w>
ak ▁
ac le</w>
W elfa▁re</w>
N ort▁h</w>
A s▁
3 4</w>
▁surpr ised</w>
▁st ea
▁l ength</w>
▁aud iences</w>
▁M e
u h
th▁ ere</w>
s▁ un</w>
st ory</w>
n ews</w>
m ove</w>
l on▁g</w>
int▁ er▁
cur r▁
a▁ rou▁nd</w>
@▁ -▁@</w>
▁sw imming</w>
▁r ace</w>
▁identi fy</w>
▁fur n
▁ded icated</w>
▁an ticip
▁CC TV</w>
t ech</w>
su▁pp o▁rt</w>
n e▁d</w>
dep u▁ty</w>
b es</w>
C o▁n
&ap▁os▁ ;</w>
▁sm ile</w>
▁s auce</w>
▁advertis ements</w>
▁S ur
w▁ ard</w>
wh a▁t</w>
respec tively</w>
pr ing</w>
pl an
p oor</w>
erea ved</w>
de▁c i▁ded</w>
ch o</w>
S ong
3 8</w>
▁w ine</w>
▁sinc er
▁don ated</w>
▁d r▁
▁con fron
star ti▁ng</w>
pe▁r son</w>
partic▁ ip▁
oc▁r atic</w>
mon t▁h</w>
it ely</w>
c ou
a▁ ms</w>
att ached</w>
J a▁ng</w>
Gang won</w>
Associ ati▁on</w>
▁r ▁
▁pers pec
▁atten dance</w>
▁accur ate</w>
▁Al ong</w>
ucle▁ ar</w>
s uc▁h</w>
oo den</w>
l ar▁
il t</w>
P▁ l
Pro sec
▁s outh</w>
tor al</w>
si us</w>
re t▁
or ful</w>
go▁ al</w>
find i▁ng</w>
e▁n se</w>
ent age</w>
c k</w>
&a▁pos; d</w>
▁u l</w>
▁str eets</w>
▁serv ants</w>
▁satis fied</w>
▁epis ode</w>
▁am b
▁U.S.- China</w>
▁Independ ence</w>
w▁ it▁h</w>
s▁ l
sec uri▁ty</w>
o y▁
o pl▁e</w>
l▁ ine</w>
l er</w>
i▁l l▁
fu▁ ll</w>
disc u▁
▁tea ch</w>
▁sti p
▁piec e</w>
▁kil om
▁g aining</w>
▁ex tingu
▁ev ac
▁ab und
▁M ajor</w>
▁Ar ab
with standing</w>
wh el
u▁ tion</w>
r al</w>
quart e▁rs</w>
larg e▁st</w>
k▁ ers</w>
f ine</w>
eleb ri
b▁e fore</w>
af ternoon</w>
▁br idge</w>
▁bo ost</w>
▁Pl anning</w>
v e▁r</w>
un ivers
politi c▁al</w>
n u▁m
m▁ ar▁
m y▁eon</w>
itt ees</w>
er k</w>
em phas
ed g▁ed</w>
e u▁n</w>
d▁ own</w>
1 5th</w>
▁vis its</w>
▁st ance</w>
▁rec ip
▁prev enting</w>
▁m agn
▁f it</w>
▁K oo</w>
s▁ oon</w>
os h
fi▁r st</w>
c▁ oun
compan ie▁s</w>
S ong</w>
P▁ ark</w>
2▁ 0</w>
▁reg arded</w>
▁partic ularly</w>
▁m ood</w>
▁j us
▁f ulf
▁e scape</w>
▁Th ursday</w>
▁S in
▁R eal</w>
▁1 .5</w>
t▁r y▁ing</w>
t▁ iv
ti g
p it
l ater</w>
ign ation</w>
ig g
er in▁g</w>
eong nam</w>
ch em
an▁ k</w>
F o▁
A p
▁n ote</w>
▁m o▁n
▁m ission</w>
urr ence</w>
ul p
sa▁ y</w>
in▁ cial</w>
h app
duc es</w>
compa▁n ies</w>
Sec uri▁ty</w>
C o
▁proc essed</w>
▁k ids</w>
▁k eeping</w>
▁gr and</w>
▁expen se</w>
▁ear th</w>
▁e c
▁an gry</w>
▁L un
▁G ar
t ook</w>
sh ort</w>
pr ise</w>
o▁ u▁t</w>
m e▁d</w>
c a▁n
P yong
P al
4 9</w>
1 .
▁tax pay
▁ass igned</w>
▁S uch</w>
s▁ ur
is▁ on</w>
d ae</w>
▁writ er</w>
▁calcul ated</w>
▁c ultur
▁arr anged</w>
▁Y eah</w>
▁Sen ior</w>
▁L t
▁G alaxy</w>
▁Dis aster</w>
rece i▁ve</w>
j u▁ng</w>
j oin
i▁ als</w>
af▁ ter</w>
▁recor ding</w>
▁exhib itions</w>
▁dr aft</w>
▁cons ensus</w>
▁co ordin
▁a l▁
▁S orry</w>
▁C ustom
sus p▁
sp ace</w>
pr▁oc▁ ess</w>
pos t</w>
e d▁uc
c ap▁
att en▁
an ish</w>
ak a</w>
▁hol ds</w>
▁c at</w>
▁M or
▁J ohn</w>
wi▁ fe</w>
o▁ ri
ic k▁
f requ
ea▁ t</w>
atio▁n al</w>
an▁ ks</w>
am ber</w>
S o</w>
D evelopme▁nt</w>
▁rec ycl
▁mess ages</w>
▁l ink</w>
▁inform ed</w>
▁c ells</w>
▁a te</w>
▁R ob
▁Hwas eong</w>
▁A ward</w>
ov e▁r</w>
ood les</w>
i▁ tie▁s</w>
il ty</w>
h um▁an</w>
eun mirae</w>
ch ai▁rm▁an</w>
▁tempor arily</w>
▁st ood</w>
▁sh ips</w>
▁person ality</w>
▁expl ains</w>
▁Par is</w>
t▁ ive</w>
th ere
si▁ ty</w>
os s
l▁ ife</w>
itch en</w>
h ours</w>
fu▁ l</w>
c ame</w>
a▁t es</w>
aff airs</w>
S E
Bl▁ ue</w>
▁sm oothly</w>
▁res ulting</w>
▁p al
▁l ab
▁cir cles</w>
▁Mar itime</w>
sp a▁ce</w>
se ver
ra▁p h</w>
m anufactur
ft ware</w>
fr▁ i
e▁nt ary</w>
et own</w>
&▁ a▁
▁saf ely</w>
▁k een</w>
▁inc umbent</w>
▁h ur
▁anx iety</w>
▁T witter</w>
▁P o
▁I s
um ber</w>
s▁ e
ri▁ se</w>
lea di▁ng</w>
k▁ now</w>
invest▁ ig
ex chang
ellec tual</w>
ea ting</w>
b en
Y o▁on</w>
S▁e o▁ul</w>
▁st ayed</w>
▁s ai▁d</w>
▁mob il
▁3 6</w>
u▁ ry</w>
previ o▁us</w>
on ment</w>
inc▁ re▁ase</w>
f ol
f ish
a▁ir m▁an</w>
▁volunt eers</w>
▁s inc▁e</w>
▁prom ise</w>
▁M od
z h
minis t▁er</w>
ien t▁ed</w>
et▁ ter</w>
ay ment</w>
at▁ her</w>
▁tim ing</w>
▁cal c
und▁ ai</w>
s▁ ol
rou d</w>
n ation</w>
l ea▁r
expec t
d uring</w>
cont in▁ue</w>
citiz e▁ns</w>
c all</w>
a▁m a</w>
ati cs</w>
P r▁es
In cheon</w>
Comm▁ ittee</w>
▁scholar ship</w>
▁par agraphs</w>
▁li ked</w>
▁cor ner</w>
▁M ich
▁Every one</w>
wee k
e▁ x</w>
envir o▁n
and is</w>
S ▁h
▁s ick</w>
▁lux ury</w>
▁cl oud</w>
▁accum ulated</w>
▁O b
vis it</w>
tu▁ al</w>
t l▁y</w>
p▁ ar▁
pr eme</w>
l▁ ittle</w>
iv▁ ing</w>
ik es</w>
ic i▁al</w>
grad u
d et▁
c ou▁rt</w>
appear ▁ed</w>
ad ays</w>
a ver
H▁ an</w>
2 1st</w>
▁gener ated</w>
▁f ro
▁enjoy ing</w>
▁ tr
oc r▁
eti zens</w>
elec tr▁
coun tri▁es</w>
comm uni▁ty</w>
art ers</w>
F eder
▁sc andal</w>
▁revital ize</w>
▁chann els</w>
▁3 0
u g▁
s een</w>
l▁ et</w>
ir t</w>
f▁ in
d in▁
cl▁ os
caus ▁ed</w>
B O</w>
▁pl▁ ace</w>
▁h idden</w>
▁gu est</w>
▁fl av
▁M ilitary</w>
▁H eavy</w>
▁E gyp
techn ology</w>
ou g▁ht</w>
or ient▁ed</w>
lik ely</w>
in c▁lud
ill▁ ion</w>
fr ont</w>
ew er</w>
der ▁s</w>
c▁ ar
conduc t▁ed</w>
con serv
ch▁ ool</w>
▁to il
▁log istics</w>
▁gener ations</w>
▁dis appoin
▁Bar eunmirae</w>
ver▁ sy</w>
ur ches</w>
ma▁r ket</w>
h wan</w>
h ib▁
g ather
f ew</w>
es pec
c en▁
a▁ rea</w>
▁succ eeded</w>
▁implem enting</w>
▁comm od
▁My anmar</w>
▁J u</w>
u t▁ion</w>
pos sib▁
pol icies</w>
p ain
ed estr
d one</w>
att ach▁ed</w>
Sup re▁me</w>
▁ref used</w>
▁l ibr
▁W ater</w>
▁B ae</w>
s▁ orr▁y</w>
rev eal▁ed</w>
res erv
por▁ t
p ool</w>
organiz ati▁on</w>
f▁ uture</w>
ea ble</w>
c▁ ent</w>
S i</w>
Mar▁ ch</w>
▁volunt arily</w>
▁l ea▁
▁inspec tions</w>
▁bea ch</w>
▁b ereaved</w>
▁Offic ials</w>
▁H ead</w>
▁Ex change</w>
▁El ementary</w>
trad ition▁al</w>
s o▁m
q▁ ue</w>
pos▁ ition</w>
lec ted</w>
l t</w>
k g</w>
g ent
en ses</w>
con ti▁n
avo id
,5 00</w>
▁im ports</w>
▁extr em
▁agric ulture</w>
w arr
vers ity</w>
ti▁ l</w>
sur ▁e</w>
o▁l ogy</w>
ook min</w>
ond on</w>
mat ch</w>
e t▁s</w>
▁w est</w>
▁mag az
▁inten ded</w>
▁deep ly</w>
▁clos er</w>
▁Gor yeo</w>
w el
th ird</w>
infl u
go al</w>
as c
▁trea t</w>
▁ris en</w>
▁fea sibility</w>
▁M er
pos▁ it▁ion</w>
ow adays</w>
op i▁n
iss▁ ue</w>
f u▁n
e▁ ars</w>
dr y</w>
as sed</w>
al one</w>
ad j
ab l▁ed</w>
▁sam ples</w>
▁produc ing</w>
▁perc entage</w>
▁over l
▁n arrow</w>
▁l e▁v
▁illeg ally</w>
▁civ ilian</w>
▁H ousing</w>
o▁ te</w>
man ip
issu es</w>
in formation</w>
eas ing</w>
chil d</w>
ay a</w>
ag on</w>
▁str ange</w>
▁S al
▁Dru g</w>
w▁ i▁ll</w>
fe▁ el</w>
d ig
comm unity</w>
c itizens</w>
a eg
A hn</w>
▁slow down</w>
▁S u</w>
▁F isheries</w>
th rou▁
r▁ d</w>
me▁ di
m its</w>
il eg
em er▁
A ug
&apos; ▁
▁veget ables</w>
▁up coming</w>
▁sett led</w>
▁res t
▁prov ision</w>
▁op posed</w>
▁ob ser
▁Pre viously</w>
serv ices</w>
ro le</w>
m et
la▁ w</w>
f il▁
e▁ ong</w>
Univer ▁
▁withdraw al</w>
▁thor oughly</w>
▁tex t
▁s ix
▁displ ayed</w>
▁di e</w>
▁Sw ed
ur▁ ch</w>
os eong</w>
im al</w>
cul▁ tural</w>
at o</w>
J eon
C D</w>
A ut
2 7th</w>
▁offic io</w>
▁main taining</w>
▁demonstr ation</w>
▁collap sed</w>
▁certif ied</w>
▁boy friend</w>
▁J oint</w>
sus p
s i▁n
re▁ t
id er</w>
go i▁ng</w>
ach eon</w>
5 2</w>
▁tour nament</w>
▁r oo
▁perman ent</w>
▁mar ks</w>
▁hel p
▁cons ult</w>
▁a uto</w>
▁Jeoll anam</w>
tu s</w>
s▁ exual</w>
r▁ ed
r y
pl▁ y</w>
ol▁ ogy</w>
l es▁s</w>
h u▁
f▁ ro▁m</w>
eti n</w>
environ me▁nt</w>
du▁r ing</w>
diff▁er ent</w>
d est
a▁ mo▁
az ing</w>
ar res
ag a▁in</w>
S on</w>
7 5</w>
▁separ ated</w>
▁rout es</w>
▁mis s
▁a c▁
▁V ol
▁Sou theast</w>
▁M ok
▁3 ,000</w>
ult▁ ural</w>
q▁u▁ ot;</w>
o▁ pe</w>
j ung</w>
if ic▁
e▁ ff
design at▁ed</w>
▁s or▁ry</w>
▁ch osen</w>
tog eth▁er</w>
on ic</w>
ill ing
g l▁
d own
al k
A pr▁il</w>
▁w ild</w>
▁w alls</w>
▁s qu
▁low ered</w>
▁form ation</w>
▁C andid
v id▁eo</w>
s oc▁
pro▁ bl
om ing</w>
inn ov▁
gr and
e▁n tly</w>
ev en
et c.</w>
comp▁an ie▁s</w>
c au
S e</w>
A▁ ss
1 4th</w>
▁sec ondary</w>
▁recru it</w>
▁mul ticultural</w>
▁fe et</w>
▁b ar</w>
▁ab norm
▁G ood</w>
rel eas▁ed</w>
p▁ art</w>
n or
gr at
ch ief</w>
ab inet</w>
a ise</w>
▁min or</w>
▁b io</w>
▁ass oci
▁Law maker</w>
▁F SS</w>
ow▁ s</w>
li▁ ve</w>
g yo</w>
exp a▁nd</w>
exc ell
enti ally</w>
di▁ sc
ag e▁s</w>
a he▁ad</w>
▁vis ion</w>
▁lim itations</w>
▁f erry</w>
▁entr eprene
▁acqu aint
▁Gyeongsang nam</w>
▁A g
s per
reg ar
o▁ b
oc king</w>
f ish</w>
en a</w>
differ e▁nt</w>
d ingly</w>
J▁ ae</w>
H ead
▁n oted</w>
▁b ond</w>
sus pic
ran ki▁ng</w>
li▁ sh</w>
h y</w>
dec▁ is▁ion</w>
d ust</w>
ar i</w>
▁‘ ‘</w>
▁ser iously</w>
▁happen s</w>
▁beh alf</w>
▁adj ustment</w>
▁ad mitted</w>
▁Il bo</w>
▁2 ,000</w>
u d</w>
s k▁
r▁ s</w>
m▁ od
m ind</w>
e▁n cy</w>
de ung
Agric ultur▁al</w>
▁sm ell</w>
▁review ing</w>
▁ph ase</w>
▁off ers</w>
▁l ed
▁fac tories</w>
▁b ear</w>
▁Innov ation</w>
ven ti▁on</w>
um ul
t▁ri al</w>
rex it</w>
f a▁r
e▁n d
e ived</w>
ak arta</w>
Serv i▁ce</w>
H ou▁se</w>
Gang nam</w>
▁sit ting</w>
▁ex haus
▁co ol
o▁ to</w>
inc▁ rea
govern m▁ent</w>
er▁ y</w>
Ar t</w>
▁some what</w>
▁s ustain
▁rep eated</w>
▁evalu ate</w>
▁B ang</w>
w ed</w>
u▁s h</w>
t▁ al
si▁ m
m u▁st</w>
la▁ w
inform▁ ation</w>
em a</w>
az ak
ag ram</w>
N o.</w>
▁m erg
▁brea d</w>
▁b ow
▁U zbekistan</w>
▁Sh ow</w>
▁N et
▁Air lines</w>
ul g
t▁ on</w>
tern s</w>
rais ▁ed</w>
ordin ary</w>
k ish</w>
eep s</w>
af te▁r</w>
▁fre edom</w>
▁B ucheon</w>
▁2 8
wor ds</w>
on ight</w>
l ad
gu es</w>
fun▁ ds</w>
f u▁r
e▁ lec
der ▁ed</w>
b▁ o
ap▁ p
▁scen es</w>
▁harm ful</w>
▁c ust
▁c argo</w>
▁Y eon</w>
▁V alley</w>
▁S ure</w>
▁Her itage</w>
▁D em
▁4 0s</w>
uc k
ex isti▁ng</w>
environ ment</w>
aff ili
ac ific</w>
D P</w>
Ch il
▁targ ets</w>
▁sc enery</w>
▁re views</w>
▁g ri
▁correspon dent</w>
▁bur eau</w>
u el
tr ue</w>
s▁ ince</w>
s ent</w>
over ▁
m▁ uch</w>
m i▁ng</w>
int egr
ey ed</w>
c ou▁
ag▁ ain▁st</w>
O s</w>
3 6</w>
▁w astes</w>
▁so il</w>
▁s ew
▁oper ates</w>
▁m ass
▁enti ty</w>
▁St adium</w>
▁Do osan</w>
t▁ ment</w>
o▁ use</w>
oo▁ ks</w>
m ent▁s</w>
ful▁ ly</w>
fr▁ o▁m</w>
es▁ tiv
e h▁
au gh</w>
C ▁up</w>
A g
▁s oo</w>
▁g am
▁drea ms</w>
▁analy zing</w>
▁abs ence</w>
▁Gwang jin</w>
▁2 .
un▁ ch</w>
pa▁ y
p oll
co in</w>
a▁r ty</w>
aul ted</w>
G eun</w>
▁v otes</w>
▁st om
▁sen iors</w>
▁pos s
▁investig ations</w>
▁f ab
▁ab sol
▁Wor kers</w>
▁Com pared</w>
un ds</w>
u til
th ei▁r</w>
t unately</w>
sup pl
su ffer
sa▁ ying</w>
pe▁ opl▁e</w>
om estic</w>
l in</w>
j ak</w>
id ential</w>
ar i▁
S ep
, 3
▁rain y</w>
▁crack down</w>
▁I l</w>
w▁ or▁
por t▁s</w>
o▁ le</w>
ov el</w>
or gan
ig er
etro po▁l
el▁ d</w>
e very</w>
ca▁ p
a▁l ity</w>
Y▁ oo</w>
Gwang ju</w>
Dep u▁ty</w>
; ll</w>
&▁apos; ▁s</w>
▁res erve</w>
▁out come</w>
▁a im</w>
▁Jeon ju</w>
▁I D</w>
e▁ ther</w>
ev e▁r
d a▁te</w>
contr a▁ct</w>
ch ▁es</w>
ac ▁t</w>
a ur
&▁a pos▁;t</w>
▁subscri ption</w>
▁let ters</w>
▁ass istance</w>
▁Ch un
w▁ ith
t al</w>
s▁ ayin▁g</w>
pr▁ og
pos▁ si▁ble</w>
eas y</w>
al i▁ty</w>
3 9</w>
▁tur ns</w>
▁sp okesman</w>
▁ris ks</w>
▁restric ted</w>
▁n orth</w>
▁mat ches</w>
▁indic ators</w>
▁fir ▁
▁const antly</w>
▁boo ked</w>
▁P ost</w>
ti▁ c
spec ial</w>
mon▁ ey</w>
hos t▁ed</w>
eas e▁d</w>
ap▁ ed</w>
J un▁g</w>
▁pas sion</w>
▁hel icop
rou▁ ps</w>
pro▁ c
ot ten
n ation
is ▁t</w>
i z</w>
i an
Tr u▁mp</w>
S um
▁n o▁t</w>
▁mo is
▁academ y</w>
▁Co ast</w>
therm ore</w>
ous▁ ly</w>
od es</w>
j oin▁
j ang</w>
he▁ on</w>
enterpris ▁es</w>
co▁ ll
ad d▁ed</w>
W omen</w>
N G</w>
F C</w>
Com▁ m
▁var i
▁the ory</w>
▁t ears</w>
▁strugg ling</w>
▁G uro</w>
z one</w>
w ee▁
tiv ▁es</w>
re po▁r
per▁ sonal</w>
oc ated</w>
l ead</w>
in ate</w>
gover n▁ment</w>
g rea
e▁x pec
an a▁l
ai▁r man</w>
ab uk</w>
K▁or ea▁n</w>
▁rail way</w>
▁le▁v el</w>
▁kilom eters</w>
▁character ized</w>
▁Han oi</w>
▁C ath
w o▁men</w>
sid ▁e</w>
se qu
pro mis
iv alent</w>
if ▁e</w>
cas es</w>
Con struc
▁rev olution</w>
▁re f▁erred</w>
▁dis position</w>
▁answ ered</w>
▁P resid
▁Not withstanding</w>
s▁ ide</w>
ol es</w>
g reat</w>
er▁ ing</w>
af t▁
▁mon etary</w>
▁m ir
▁comp ete</w>
▁an ti
▁M ac
▁5 0s</w>
▁3 8</w>
se▁ en</w>
pol itan</w>
min u▁te</w>
ess i▁on</w>
dh ood</w>
cons ci
al ism</w>
20 0▁
▁th e▁ir</w>
▁resid ence</w>
▁o d
▁institu tional</w>
▁dist ingu
▁disp utes</w>
s eas
ministr ative</w>
e▁ er</w>
b▁ ers</w>
ain e▁d</w>
W▁ or
S K</w>
O R
M e
In d▁
G r▁
& am▁p;</w>
▁tr ain
▁th ea
▁sens itive</w>
▁s ik</w>
▁prot est</w>
▁pr o</w>
▁l ights</w>
▁impres sive</w>
▁honor ary</w>
▁gradu ate</w>
▁ex ist</w>
▁e ast</w>
▁d eal
produc t</w>
l angu
k n▁
i▁ cial</w>
gr i</w>
e▁ te</w>
direc t▁ly</w>
c▁h a▁nge</w>
c▁h an▁ge</w>
compl▁ ex</w>
▁rea c
▁ind oor</w>
▁be ef</w>
▁b an</w>
▁answ ers</w>
▁Se ocho</w>
▁F our</w>
▁Eng land</w>
▁Afr ica</w>
wi▁ de</w>
su ff
r▁ et▁
per▁ ty</w>
ol▁ ve</w>
del iver
com par▁ed</w>
at▁ i▁on</w>
S NS</w>
Ch e
B u
▁un t▁il</w>
▁subscri bers</w>
▁st ages</w>
▁fun ding</w>
▁fol k</w>
▁ex cluding</w>
▁Ch un</w>
▁Bl ack</w>
t▁ ake</w>
h ea▁r
a▁mo▁ unt</w>
G ov▁ern
Busin e▁ss</w>
13 th</w>
▁th▁ ink</w>
▁res ▁
▁pres ervation</w>
▁pres ence</w>
▁occ as
▁loc als</w>
▁in sufficient</w>
vol unt
ur b▁an</w>
s▁ ai▁d</w>
pos sib▁le</w>
m e▁nts</w>
e ul</w>
dis app
diff▁ ic
av ▁e</w>
angh ai</w>
all ig
5 5</w>
▁s ug
▁j oy</w>
▁em otional</w>
▁certific ates</w>
▁c a▁n</w>
w▁ it
ver s▁
v ent</w>
u▁ g
sec tor</w>
el l▁
R es▁
▁d i▁
▁T h▁
▁K E
tem por
pas sed</w>
maj or</w>
m o▁r
in struc
hist ory</w>
a c</w>
H y▁
▁gener ally</w>
▁f ever</w>
▁cons ist
▁Con stitutional</w>
▁Aud it</w>
▁A f
us hed</w>
tr i▁ll
su▁ it</w>
st ing</w>
pr o</w>
iti▁ ve</w>
in iti
foll ows</w>
ex▁ c
el▁ l
elebri ties</w>
eff or▁ts</w>
char g▁es</w>
Th▁ at</w>
S o▁ng</w>
O▁ ffice</w>
F r▁
4 2</w>
▁r ock</w>
▁N e
▁Int elligence</w>
ri▁s k</w>
il▁ lio▁n</w>
ig h▁er</w>
g i
e y▁
c▁ ity</w>
bas▁ ic</w>
N e▁w</w>
▁scor es</w>
▁l ong
▁b odies</w>
▁Un ification</w>
▁S um
▁&apo▁s ;▁s</w>
orth e▁rn</w>
mo▁ ve</w>
m or▁
ilit ation</w>
h our</w>
g▁ ro▁
e▁ um</w>
ep age</w>
co▁n t▁
c iti▁es</w>
b ang</w>
S por▁ts</w>
▁neighbor hood</w>
▁liter ature</w>
▁for ms</w>
▁fa ith
▁f oun
▁C are</w>
vi o▁l
res sion</w>
n at▁
m▁ at
mor ni▁ng</w>
l▁ ook</w>
lo▁ st</w>
er▁ ation</w>
ch a▁ng
ba▁ se</w>
ab▁ out</w>
Y ear</w>
S▁ eo</w>
I l
A ▁n
▁kn ows</w>
▁franch ise</w>
▁aband oned</w>
▁I sl
▁Conf uc
▁C J</w>
r ank
pr em
osp it▁al</w>
ol ate</w>
cl o▁se</w>
Su▁ preme</w>
2 6th</w>
▁revis e</w>
▁res truc
▁ins isted</w>
▁har mony</w>
▁consid erable</w>
▁coll ective</w>
▁b ath
▁abund ant</w>
▁Sm art</w>
wor▁ ks</w>
st▁ op</w>
s ively</w>
s e▁s</w>
igh ter</w>
ens ▁e</w>
de▁v el
L im</w>
Hw a▁ng</w>
H e</w>
▁small er</w>
▁sim ultan
▁r om
▁memb ership</w>
▁hea ting</w>
▁cl erk</w>
▁Reg ional</w>
▁M ir
ow▁ ing</w>
it ability</w>
in te▁
in ning</w>
ff▁ ic</w>
ent l▁y</w>
chang ed</w>
▁win ds</w>
▁prob ably</w>
▁f ighting</w>
▁S o
▁H ong
▁Ar t▁icle</w>
u▁ k</w>
t▁ ional</w>
tr▁ ict</w>
s por▁ts</w>
p ir
in qu
estab l▁
du▁ ce</w>
anc e▁s</w>
Al t▁h
4 3</w>
▁tar iff</w>
▁prefer ential</w>
▁inst alling</w>
▁fr▁ om</w>
▁effec tively</w>
▁cont ain</w>
▁achiev ements</w>
▁K ookmin</w>
t▁ oo</w>
te▁ ll</w>
sh ip
os c
or▁ es</w>
m aking</w>
ex chan▁ge</w>
c▁ha▁r ge</w>
b re▁
1 s▁t</w>
▁uncer tain
▁serv ing</w>
▁h ate</w>
▁dem entia</w>
y wood</w>
inter n▁
ex ten
end ship</w>
enc our
eep er</w>
all i▁ng</w>
V i▁ce</w>
C▁h ina</w>
▁strateg ic</w>
▁m ission
▁di alogue</w>
▁Th ai</w>
▁H ome</w>
▁@ ▁
▁5 ,000</w>
var▁ ious</w>
ul▁ d</w>
ron ic</w>
or ▁e</w>
n ig▁ht</w>
mon t▁hs</w>
in ev
fi▁l m</w>
du▁r in▁g</w>
ad▁ v
act▁ iv
ac ter
A I
▁subsid iary</w>
▁f ail</w>
▁controversi al</w>
▁analy sts</w>
▁T uesday</w>
▁Iran ian</w>
▁E ui</w>
st▁ ar
re port</w>
om e▁n</w>
m▁ ental</w>
ici ans</w>
con▁ti▁n ue</w>
at▁ io▁ns</w>
Tra▁ de</w>
S ub
Bareun mir▁ae</w>
▁thous ands</w>
▁nur sing</w>
▁counter measures</w>
▁U N</w>
r▁ o
r e▁d</w>
pers o▁ns</w>
p ti▁on</w>
m enti
in tr▁
e▁ ge</w>
dec lar
curr ent▁ly</w>
bo▁ ok</w>
G ro▁up</w>
▁thor ough</w>
▁har assment</w>
▁Pri ze</w>
▁Jud ge</w>
▁Del iberation</w>
▁Cri tics</w>
▁Cel sius</w>
▁@▁ -@</w>
w ould</w>
u▁ le</w>
s▁h ou▁ld</w>
su▁ n</w>
re vis
pl anni▁ng</w>
par k</w>
os ing</w>
m eas▁
in▁ t▁o</w>
empl▁ oy
2 8th</w>
2 3rd</w>
▁ph r
▁h ired</w>
▁fac ed</w>
▁Rep ubl
▁Med ium</w>
tr ea▁
s▁ ing</w>
pre dic
i▁r st</w>
ig▁h ts</w>
erg ency</w>
com i▁ng</w>
cil or</w>
Pro f
B yung</w>
▁qual ification</w>
▁mur der</w>
▁di et</w>
ual ties</w>
ol d
n as
in▁ cluding</w>
ear n
draw i▁ng</w>
do▁ or</w>
deung po</w>
d iv▁
ad em▁
1 1▁
▁un expected</w>
▁calc ulation</w>
▁c ycle</w>
▁b eat</w>
s el</w>
re te</w>
p▁l ace</w>
por ter</w>
j▁ ae</w>
d eath</w>
a ul</w>
Tr ump</w>
O ct
B a▁nk</w>
▁t▁ he</w>
▁str onger</w>
▁prec ious</w>
▁mis sed</w>
▁inten sive</w>
▁cl othing</w>
tr ip</w>
sh ap▁ed</w>
on▁ y</w>
ic als</w>
en▁ ti
en ty</w>
en er▁gy</w>
b▁ us</w>
an▁ cial</w>
am un</w>
ai▁ l
acc o▁rd▁ing</w>
U l
Su per
H a▁n
C ultu▁re</w>
▁ter r
▁r oll
▁notif ication</w>
▁Gim po</w>
▁ try</w>
val ue</w>
uc tu
sus pen
sc ale</w>
offic ials</w>
occ up
mit ting</w>
memb er▁s</w>
jec tion</w>
ific ally</w>
h ol▁
g▁ an
er as</w>
d ay▁s</w>
cre a▁te</w>
b er▁s</w>
S am▁
▁t op
▁sub committee</w>
▁stat ements</w>
▁manufactur ers</w>
▁car bon</w>
▁attrac tions</w>
▁Comm unity</w>
▁20 ▁
v ate</w>
st ep</w>
r▁ec ent</w>
j▁ ust</w>
con f▁
ches tra</w>
ch e
ch ar▁
Ph one</w>
3 0th</w>
▁w estern</w>
▁tr uck</w>
▁g ifts</w>
▁ear ned</w>
▁doc tors</w>
▁b on
▁3 7</w>
▁2 6
v el</w>
ur ▁al</w>
s▁ ik</w>
sel ▁f</w>
pres cri
lig ence</w>
iz▁ at▁ion</w>
develop▁ ed</w>
cor p▁or
c a▁rs</w>
DA Q</w>
B e
20▁1 9</w>
▁m oon</w>
▁ex actly</w>
▁ab sor
te▁ ch</w>
su ant</w>
se▁ e</w>
r ail
i ated</w>
er▁ ce</w>
b ase</w>
Sam sung</w>
S ec▁
R e
G▁ u</w>
G an▁g
2 5th</w>
2 4th</w>
▁fundam ental</w>
t▁ri es</w>
r▁ is
e▁ ff▁
en c▁ed</w>
b or</w>
ang ible</w>
M▁ ar
In stitu
G a▁ng
▁wit n
▁prem iums</w>
▁cou l▁d</w>
▁com ment</w>
▁Re uters</w>
▁B MW</w>
s in▁g</w>
re plac
pl a▁
or es</w>
n▁ ame</w>
elih ood</w>
ea ch
direc tor</w>
b▁ec ome</w>
▁review ed</w>
▁prom p
▁op posite</w>
▁m icro
▁help ful</w>
▁cur ious</w>
▁Un ions</w>
▁Th e▁re</w>
▁R ed</w>
▁H er</w>
▁Fur thermore</w>
vi ol▁
vi e▁
th i▁n
r▁ athe▁r</w>
proc ed
pop ul▁
om er
off i▁ci
lawmak ▁er</w>
hib ition</w>
e▁n ▁
ee ing</w>
S chool</w>
Hy und▁ai</w>
C▁ enter</w>
Ch u▁ng</w>
▁practic es</w>
▁crow ded</w>
▁ac tress</w>
▁P C</w>
s old</w>
qu arter</w>
pay me▁nt</w>
i▁ onal</w>
i us</w>
househ ol▁ds</w>
f e
ew or
e ously</w>
ag eous</w>
P▁ ol
▁wh▁ o</w>
▁w ooden</w>
▁gre en
▁fr▁ ont</w>
▁fac es</w>
▁cont ained</w>
▁chea p</w>
▁brea king</w>
▁adj usted</w>
▁G reat</w>
s▁ ing
si▁ a</w>
sit es</w>
sib ilities</w>
retu▁r n</w>
p▁ port</w>
parag ra▁ph</w>
our c▁es</w>
org an▁
oo▁ ds</w>
o ti▁
ih eung</w>
e▁ at</w>
con tribu
b▁ ur
ai▁n s</w>
P l▁
▁work place</w>
▁semin ar</w>
▁h ospital
▁ass aulted</w>
▁Sp anish</w>
▁M oo</w>
▁Lun ar</w>
▁Indi an</w>
▁Han a</w>
▁Co ach</w>
y l
t m▁ent</w>
ra th▁er</w>
p▁os ▁
p oin▁
n ex▁t</w>
in ery</w>
c▁ au▁
ch all
be t▁ween</w>
atte▁n t▁ion</w>
ai▁ ly</w>
af tern
P resident</w>
▁util izing</w>
▁spec t
▁incen tives</w>
▁gir lfriend</w>
▁every day</w>
▁estim ate</w>
x i</w>
u ous</w>
n ia</w>
m▁ us
ma▁ il</w>
iv ▁er</w>
illeg ▁al</w>
gh▁ t</w>
er▁ n
diff e▁r
can n▁ot</w>
all et</w>
U▁ .S.</w>
▁se ts</w>
▁rec ession</w>
▁n oodles</w>
▁n e
▁m o▁
▁expec tation</w>
▁equ ivalent</w>
▁cultur es</w>
▁Chung nam</w>
w ak</w>
sur v▁ey</w>
st able</w>
sea s▁on</w>
r igh▁ts</w>
oot ball</w>
ma▁ d▁e</w>
ga▁ ve</w>
expl ain▁ed</w>
ell i▁ng</w>
econ o▁my</w>
du ty</w>
dep art
contro ver▁sy</w>
an ches</w>
Indus tri▁al</w>
I A</w>
Ass ociation</w>
5 3</w>
4 6</w>
▁war ned</w>
▁supplem entary</w>
▁sharehol der</w>
▁par ks</w>
▁k itchen</w>
▁ir reg
▁cri tical</w>
▁accommod ation</w>
▁Prot ection</w>
▁Cor p.</w>
w▁h er▁e</w>
w ri
th ou▁gh</w>
t ype</w>
l ives</w>
is t▁er</w>
eng er</w>
W h▁
R▁ W</w>
I sl
Ass e▁m
4 4</w>
&qu ▁o▁t;</w>
▁s c▁
▁rum ors</w>
▁p roud</w>
▁mut atis</w>
▁contr ary</w>
▁c utting</w>
▁Gyeongsang buk</w>
▁Comm erce</w>
un c
s▁ ts</w>
rea son
organiz ▁ed</w>
h aps</w>
el ine</w>
dis clos
c old</w>
ag ency</w>
L G</w>
Gover ▁n
0 5</w>
▁pres erv
▁perspec tive</w>
▁doc um
▁ar ▁e</w>
▁R en
▁I sn</w>
streng th
rev ital
re p▁or
per cent</w>
pa▁ ss
m ust</w>
il ▁ed</w>
emb l▁y</w>
diff i▁c
cr imin
Jus ti▁ce</w>
H a▁ll</w>
▁util ization</w>
▁s ounds</w>
▁prom ising</w>
▁moun tains</w>
▁acqu ired</w>
ur ies</w>
sh al▁l</w>
r▁ u
ove▁r seas</w>
ne w▁
e▁r a</w>
c▁ ess</w>
b illion</w>
av ed</w>
a os</w>
▁typ ical</w>
▁l ot
▁k illing</w>
▁gir ls</w>
▁fir▁ st</w>
▁destro yed</w>
▁con grat
tr av▁
tic ▁e</w>
s▁m all</w>
s ev▁en</w>
pol ici▁es</w>
mid d▁le</w>
ic ▁ed</w>
en si▁ve</w>
dem a▁nd</w>
c ili
▁strateg ies</w>
▁re ference</w>
▁p ow
▁con g
▁child birth</w>
▁Str ategy</w>
▁B ible</w>
▁200 6</w>
v ▁es</w>
u▁ t
st ep
od aemun</w>
ir s</w>
h▁ wa</w>
h yeon</w>
g▁ roup</w>
en▁ tial</w>
em▁ bly</w>
dam a▁ge</w>
bur s
az ▁
ad d▁
Dep artme▁nt</w>
Co▁m m
▁post pon
▁mut andis</w>
▁mar tial</w>
▁instruc tors</w>
▁construc ted</w>
▁compl icated</w>
▁an cient</w>
▁achiev ement</w>
▁R ight</w>
▁Mongol ia</w>
▁M c
▁11 9</w>
truc tion</w>
s pon
or▁ ted</w>
loc k</w>
ijeong bu</w>
e▁ et</w>
dis p
J oon</w>
J a▁p
G roup</w>
Def en▁se</w>
▁work shop</w>
▁unve iled</w>
▁m i</w>
▁Wo ori</w>
▁M an</w>
▁G un</w>
w ear</w>
un iver
resid enti▁al</w>
pr▁ ep
ing dom</w>
ic▁ ts</w>
em y</w>
e z</w>
contr▁ ol</w>
com▁p a▁red</w>
cer tif
a▁l k</w>
avil ion</w>
at o▁rs</w>
a eb
▁week ends</w>
▁st artups</w>
▁cap abilities</w>
w al
u▁r es</w>
ul ▁t</w>
si k</w>
me▁ et▁ing</w>
c ent
c anc▁
al ▁e</w>
agric ultur▁al</w>
act▁ ively</w>
Wor ld</w>
O K</w>
K▁or▁ ea</w>
▁th o▁se</w>
▁sh el
▁differ enti
▁but ton</w>
▁accoun ted</w>
p▁er son</w>
po▁ in
ploy ed</w>
ow ns</w>
or i▁ty</w>
me▁ eting</w>
fam ili▁es</w>
eph one</w>
ener gy</w>
coun c▁il</w>
ch i▁ld</w>
anm unj
ak en</w>
201 4</w>
▁i s▁
▁fl u
▁U K</w>
▁L ove</w>
w ent</w>
w el▁l</w>
spe▁ ed</w>
o ons</w>
gr ade</w>
ex c▁
eo▁ l</w>
ch a▁n</w>
1 7th</w>
1 6th</w>
▁tit led</w>
▁sol ving</w>
▁reflec ting</w>
▁ear n</w>
▁ch urches</w>
▁celebr ate</w>
▁T ea
▁Jeon nam</w>
▁&a▁ pos;s</w>
v al▁ue</w>
si tion</w>
prov id▁ed</w>
it ain</w>
ie▁ f</w>
ci t▁y</w>
c oll▁
bl▁ em</w>
and i▁ng</w>
an tial</w>
T his</w>
Ch airpers▁on</w>
▁stud io</w>
▁sav ings</w>
▁hop ed</w>
▁fru its</w>
▁ex it</w>
wh o▁se</w>
s▁ k
s il
ph ys
f▁ er</w>
fl oor</w>
et ti▁ng</w>
dem onstr
coun ts</w>
St a▁te</w>
Intern at▁ional</w>
2 9th</w>
▁system atic</w>
▁propos als</w>
▁mov es</w>
▁man power</w>
▁den ied</w>
▁com fort</w>
▁ar gue</w>
▁T aek
▁N o
▁H ist
v i▁s
s o▁ng</w>
pp oin
m etropolit▁an</w>
ios ity</w>
i el
f u
ac▁ h</w>
S oon</w>
B ank</w>
▁rem in
▁l ▁
▁ir on</w>
▁fos tering</w>
▁co al</w>
▁U n</w>
▁Som etimes</w>
▁M BC</w>
▁Ch osun</w>
▁C N
you▁ th</w>
s▁ ung</w>
f ound
f ar▁
comm er
W ▁h
Sec ur
H i▁gh</w>
Ch ung</w>
▁qu ar
▁lik es</w>
▁c ute</w>
▁Th eir</w>
▁Dec laration</w>
sec tion</w>
s ter</w>
op eration</w>
op en▁ed</w>
off ee</w>
mis si▁on</w>
i▁ n▁
ir ty</w>
fr aid</w>
e▁nt al</w>
e ing</w>
con▁ cer
ativ ▁es</w>
Un i▁
P a▁
In t▁ern
9 5</w>
▁prom otional</w>
▁har v
▁gradu ates</w>
▁fri ed</w>
▁equ ity</w>
▁c ook</w>
▁Olymp ic</w>
▁Ac ts</w>
s▁t ud
produ▁c t</w>
mod▁ el</w>
iver s</w>
ey es</w>
competi ti▁on</w>
ch e▁ck</w>
b▁l em</w>
a▁ round</w>
appl i▁ed</w>
B ud
▁sh▁ all</w>
▁semiconduc tors</w>
▁pen insula</w>
▁over whel
▁el ements</w>
▁dis mant
▁Th ough</w>
▁ it</w>
um es</w>
t arg
so▁ ld</w>
s anc▁
p▁ re
pr ices</w>
p ass</w>
manag e▁ment</w>
j un▁g</w>
for ced</w>
eg ae</w>
d▁ ep
c er</w>
bit r
a▁l es</w>
a▁ir man</w>
a▁ ti▁
aes ong</w>
C oll
4 7</w>
▁su fficient</w>
▁per su
▁orig in</w>
▁ch at</w>
▁W ith
▁Br anch</w>
s▁ ay</w>
st an</w>
ref e▁r
r a▁n
k e▁t</w>
if▁ ic
gener al</w>
d u▁st</w>
cl ▁e</w>
ch o
c us▁
Spec i▁al</w>
Eng lish</w>
9 8</w>
▁t un
▁ship ped</w>
▁led ger</w>
▁Song pa</w>
▁Da ewoo</w>
to▁ ur
to▁ ld</w>
r▁ an</w>
re▁ en</w>
rec on
l▁ ast</w>
import a▁nt</w>
form ati▁on</w>
facil i▁ty</w>
end ant</w>
ef▁f o▁rts</w>
co▁ un▁
ak ed</w>
T our
S er▁
M i</w>
▁reflec ts</w>
▁charg ing</w>
▁b r▁
▁S us
▁P res
▁Mar ine</w>
▁M apo</w>
▁H a
▁C ard</w>
▁1 20</w>
s ud
rup ted</w>
requ ir
pr▁ov ide</w>
oo ked</w>
on a▁l</w>
d▁ am
▁w illing</w>
▁u ▁
▁spec ies</w>
▁perc eption</w>
▁o x
▁mark ed</w>
▁ma them
▁correc tion</w>
▁advis ory</w>
▁M etropolit▁an</w>
▁&qu ▁o▁t;</w>
v in▁g</w>
un ch</w>
mi▁ll i▁on</w>
m ly</w>
il i▁
es el</w>
ec▁ tion</w>
d rew</w>
c▁ are</w>
c am
ag r
M y
▁shor tly</w>
▁pre ven
▁n ovel</w>
▁mat h</w>
▁mak eup</w>
▁h ire</w>
▁eng ineering</w>
▁c igar
▁b oss</w>
▁L ondon</w>
▁Gyeong ju</w>
▁G umi</w>
▁Ad ministrative</w>
▁2 3
sti▁ tu
st o▁re</w>
s ign▁
s ical</w>
pl ic
ous ▁e</w>
ot▁ te</w>
ic le</w>
i ano</w>
e▁n sive</w>
augur ation</w>
▁t end</w>
▁observ ed</w>
▁h an
▁Presid ential</w>
▁Hy o</w>
r on</w>
itt▁ en</w>
inter pre
indus▁ trial</w>
con di▁
cit▁ iz
N o▁rth</w>
G A</w>
5 G</w>
▁pr ay</w>
▁num erous</w>
▁k eeps</w>
▁ex istence</w>
▁c o▁uld</w>
▁ass embly</w>
▁arti stic</w>
▁an ger</w>
▁Comm and</w>
tr illi▁on</w>
s ay▁ing</w>
pro j▁
os ted</w>
in su▁r
g▁row th</w>
ea▁ st</w>
cr isis</w>
ang ▁e</w>
ai▁ ls</w>
M▁ inis
M yung</w>
▁sac rif
▁rest ore</w>
▁leg s</w>
▁d ealing</w>
▁conf usion</w>
▁I m</w>
▁20 ,000</w>
with out</w>
treat me▁nt</w>
m▁ p
m▁ ost</w>
mark ets</w>
in spe▁c
hist o▁ry</w>
ett e▁r</w>
L and</w>
▁sug ar</w>
▁sl eeping</w>
▁m on▁
▁acc es
▁Tur kish</w>
▁L ater</w>
▁Is ra
▁5 5</w>
ur▁ ing</w>
tr ade</w>
t ments</w>
spec i
r▁ ec▁
ph o▁to</w>
p sych
ou ts</w>
la w▁
itt▁ le</w>
iqu es</w>
il▁l egal</w>
ilos oph
h▁ t</w>
ev en▁ts</w>
en s▁
eff e▁ct</w>
appro priate</w>
add it▁ional</w>
Y eon
▁pur sue</w>
▁m ine</w>
▁m igr
▁libr aries</w>
▁dem anding</w>
▁att or
▁Sup er</w>
▁D av
▁Candid ate</w>
v ▁ed</w>
suspec t▁ed</w>
pr▁ ot
j oy
in i▁ng</w>
h▁ ealth</w>
h ou▁rs</w>
fl edg▁ed</w>
f ic
ere in
a ze</w>
▁viol ating</w>
▁un ions</w>
▁s i▁nce</w>
▁reg ret</w>
▁o ff▁
▁6 00</w>
ul ates</w>
reg i▁on</w>
r ice</w>
par ki▁ng</w>
m ent
m ay▁or</w>
loc ▁
i▁ er</w>
introduc ▁ed</w>
est ors</w>
c▁ aus
c ro
bec o▁m
b a▁nd</w>
K o▁r
H ae</w>
▁w ▁h
▁furn iture</w>
▁for get</w>
▁fl oo
▁extr a
▁break fast</w>
▁Mr .
ur g
th▁ eir</w>
ref lec
po▁ s▁
p resident</w>
op port▁
ne▁ ws</w>
m oun
iz ure</w>
ev en▁t</w>
er ial</w>
ef▁ t</w>
ac▁ ts</w>
Sp▁ ec
C l▁
▁st ake</w>
▁sol utions</w>
▁rob ot</w>
▁qu iet</w>
▁norm ally</w>
▁h ole</w>
▁coll ea
▁bo xes</w>
▁W all</w>
▁U. N.</w>
▁Sh anghai</w>
▁S im
▁Jin ju</w>
s▁y s▁tem</w>
rel eased</w>
r es</w>
o ked</w>
lo om
fi el
devel▁ op</w>
cooper ation</w>
confir m▁ed</w>
con d▁uc
ch air
ab b
P S</w>
F▁ or
D aej
▁viol ated</w>
▁so ftware</w>
▁six th</w>
▁resear cher</w>
▁remov al</w>
▁op tim
▁i l</w>
▁g all
▁exc eeding</w>
▁deleg ated</w>
▁def icit</w>
▁S elf</w>
un▁ g
t▁ ors</w>
tr ust</w>
stor es</w>
si t▁e</w>
prec ed
ott en</w>
offic ▁e</w>
m un</w>
ett es</w>
c or▁
ab▁ il▁ity</w>
Y a▁ng</w>
R o▁
Pres▁ iden▁t</w>
O n
▁pat tern</w>
▁el ev
▁eas ing</w>
▁diagnos ed</w>
▁contain er</w>
▁circ le</w>
▁ac compl
▁KOS PI</w>
▁Inspec tion</w>
▁F ederal</w>
un gri</w>
tr▁ ies</w>
ti m</w>
per i
l▁ aw
j▁ oo</w>
iz za</w>
iz a▁tion</w>
iv ▁es</w>
if ier</w>
e▁n e</w>
ent▁ r
d▁ er
dec rea
bl es</w>
app ing</w>
G od</w>
Ch in▁a</w>
Ass oci▁
5 ,000</w>
▁un known</w>
▁trea sury</w>
▁reg ularly</w>
▁join ing</w>
▁gu ilty</w>
▁earn ings</w>
▁don ations</w>
▁deleg ation</w>
▁c elebrities</w>
▁a g▁
▁For um</w>
▁Elec tion</w>
▁D r.</w>
t▁w ee▁n</w>
ti n</w>
pers ons</w>
or i▁g
investig▁ ation</w>
h ment</w>
fl o
fem a▁le</w>
fa▁m ily</w>
e▁ al</w>
do▁ esn</w>
c▁ o
bu▁ s
additi on▁al</w>
Pol i▁cy</w>
E ducation</w>
Ce▁n ter</w>
▁succ eed</w>
▁short age</w>
▁mon itor</w>
▁med al</w>
▁dis charge</w>
▁bal anced</w>
▁Gang dong</w>
▁F TC</w>
▁D ream</w>
▁2 7
▁ ti▁on</w>
tak ▁en</w>
s▁ tr▁
publ i▁c</w>
pr▁ es▁
pas s▁ed</w>
on o▁my</w>
negoti atio▁ns</w>
i▁c k</w>
im pl▁
em ploy▁
a▁p p▁
au th▁
O S</w>
M an
2 7
▁un employment</w>
▁th ick</w>
▁ten sion</w>
▁pass port</w>
▁hand led</w>
▁dr inks</w>
▁des per
▁d ress</w>
▁col onial</w>
ul▁ ture</w>
ti ms</w>
s▁ is</w>
serv ▁ed</w>
ro se</w>
reg a▁r
or able</w>
ke▁ ep</w>
i▁n to</w>
comm ission
1 2▁
▁in n
▁Ye osu</w>
▁C SAT</w>
▁Buddh a</w>
w▁ a</w>
sec▁ urity</w>
po▁l icy</w>
oper ati▁ng</w>
m on</w>
lis ▁
i▁t al</w>
f und</w>
e▁n ing</w>
dec ision</w>
con nec
Oper ati▁on</w>
Comm▁ it▁tee</w>
A n▁
A D</w>
▁st y
▁pl ate</w>
▁mom entum</w>
▁go▁ in▁g</w>
▁cas ualties</w>
▁S aem
▁Reg ulations</w>
▁3 9</w>
w id
s ea▁
long ed</w>
ex erc
di▁ n▁g</w>
d e▁rs</w>
H er
▁pro ve</w>
▁busin ess
▁ac knowl
▁L ake</w>
▁3 D</w>
ul n
pre▁ s
pos s▁
pa▁r ty</w>
par t▁y</w>
minim ▁um</w>
em en▁ts</w>
b an
anc er</w>
P o
L ib▁
▁vir tual</w>
▁spea king</w>
▁sh ock</w>
▁m arg
▁immigr ants</w>
▁c and
▁c able</w>
▁Hy ung</w>
▁Comp etition</w>
▁20 22</w>
s af
p▁ar ty</w>
m▁ on▁
lif ▁e</w>
int▁er▁ est</w>
h uman</w>
h i</w>
d ivid
cl ub</w>
bui▁l t</w>
G overnor</w>
▁t or
▁sustain able</w>
▁sugg est</w>
▁revital ization</w>
▁rel ▁
▁j u
▁conn ect</w>
▁Bur eau</w>
▁Bel g
tr av
sup p▁ly</w>
road cas
n ati▁onal</w>
fi▁ ed</w>
evalu ati▁on</w>
accor dan▁ce</w>
Sept emb▁er</w>
S elf</w>
Ar ticle</w>
9 9</w>
▁tal ented</w>
▁t ot
▁suspen d</w>
▁rel ocation</w>
▁rel ax
▁prim ary</w>
▁minis tries</w>
▁gu ys</w>
▁br anches</w>
▁V is
▁S e▁
un ded</w>
tion ally</w>
st yle</w>
p▁l ease</w>
p▁er s▁on</w>
ow e▁d</w>
ou ths</w>
i efs</w>
exper ▁ts</w>
expen s▁es</w>
execu ti▁ve</w>
eti me</w>
d▁ el
de f▁
d em▁
ak ▁e</w>
S c▁h
R ec
M A</w>
Ch ang
2 n▁d</w>
▁m echan
▁competi tions</w>
▁J ob</w>
▁Enter tainment</w>
yr ics</w>
xim ately</w>
u t▁e</w>
ri d</w>
rais i▁ng</w>
pen ed</w>
oper at▁ed</w>
frastruc tu▁re</w>
d eok</w>
▁ver ify</w>
▁hom epage</w>
▁eng age</w>
▁col orful</w>
▁c iting</w>
▁advis ed</w>
▁Th eater</w>
▁Environ mental</w>
wo▁ ok</w>
vis iti▁ng</w>
th ▁s</w>
shar i▁ng</w>
r▁ oom</w>
ot▁ e</w>
o b▁er</w>
mat h</w>
esti▁ g
es p
d ir▁
c▁ ame</w>
announ c▁
anc ement</w>
Y e▁
St ati▁on</w>
▁wh i▁le</w>
▁th i▁nk</w>
▁s essions</w>
▁recon struction</w>
▁r iding</w>
▁pregn ant</w>
▁phot ograph
▁objec tion</w>
▁l iber
▁h asn</w>
▁gr at
▁g ▁
▁G en
▁For ce</w>
se▁ nd</w>
res ults</w>
institu tio▁ns</w>
gr▁ ow
f▁ ter</w>
cont▁ in
avoid able</w>
am i</w>
▁transl ation</w>
▁par ▁
▁p edestr
▁op ponent</w>
▁impres sion</w>
▁f at</w>
▁extra ordinary</w>
▁design s</w>
▁b e▁
▁autom obile</w>
▁Ar gent
po▁r ts</w>
our▁ th</w>
ou t▁
min utes</w>
m uc▁h</w>
g▁ ive</w>
expl ained</w>
es th
end ers</w>
ar▁ d
A cc
&a▁p▁os ;▁s</w>
▁valu able</w>
▁re hab
▁m ent
▁larg ely</w>
▁kn owing</w>
▁Per iod</w>
▁O k
▁J ongno</w>
wh er▁e</w>
str ong</w>
sec urity</w>
l▁ ess</w>
ld wide</w>
in tro▁
e▁ ed</w>
e ff▁
an oth▁er</w>
ac ti▁ng</w>
S oci▁al</w>
M▁ in▁
Jap a▁n
2 2nd</w>
▁with draw</w>
▁pos ts</w>
▁pos ting</w>
▁politici ans</w>
▁off line</w>
▁neigh bors</w>
▁legisl ative</w>
▁hop es</w>
▁en ters</w>
▁attemp ted</w>
▁L eg
▁Am bassador</w>
▁200 5</w>
w ri▁
u▁n de▁r</w>
tr ans▁
ta in▁
sing le</w>
se e▁ms</w>
qu es▁
olog ic▁al</w>
m▁ aking</w>
m▁ .</w>
mat ters</w>
l at
increa se</w>
conv en▁
cons ul
ch airpers▁on</w>
bri ef
am ing</w>
al rea▁dy</w>
P▁ ro
P op</w>
Dae▁ gu</w>
▁tri als</w>
▁exchang ed</w>
▁H oll
ul a▁r</w>
tr ical</w>
t yp
ro o▁m</w>
r i▁ce</w>
professi on▁al</w>
m▁ obile</w>
ho▁ l▁d</w>
gover▁n me▁nt</w>
e▁ar ch</w>
ea▁ l
ch ec
amp s</w>
ag ue</w>
T O</w>
K T</w>
C u▁l
▁wea pon</w>
▁t ight</w>
▁sav ed</w>
▁immedi ate</w>
▁dec eased</w>
▁correspon ding</w>
▁c rew</w>
▁Ye ouido</w>
▁B o</w>
ti▁v al</w>
n ic</w>
m emor
l ev
illing ness</w>
g rou▁nd</w>
fl u
el▁ fare</w>
des i▁gn</w>
b udg
ass oci
Or dinance</w>
En forceme▁nt</w>
A ▁h
▁u tive</w>
▁op tion</w>
▁extrem ely</w>
▁coun ter</w>
▁4 8</w>
und ang</w>
un i▁
s▁ al
pre▁ vious</w>
n ucle▁ar</w>
h ap▁
ewor thy</w>
differ ent</w>
d im
bu▁ d
at▁ t
aftern o▁on</w>
▁vess els</w>
▁restruc turing</w>
▁identi fication</w>
▁form al</w>
▁dist inc
▁dea ths</w>
▁ar en</w>
▁an c
▁W ell</w>
▁Per sons</w>
▁Particip ants</w>
▁D aily</w>
▁5 0,000</w>
v al</w>
progr am</w>
n i</w>
loom berg</w>
loo ki▁ng</w>
es is</w>
e ye</w>
d▁ it</w>
contin u▁ed</w>
O c▁
J a▁e</w>
G im
▁war eh
▁w ouldn</w>
▁t end
▁rev eal</w>
▁o ve▁r</w>
▁f are</w>
▁en ds</w>
▁d ur
▁W inter</w>
▁T ell</w>
w ar▁d</w>
sti ll</w>
pre h
per f
o▁w er</w>
of▁ f</w>
mark e▁t</w>
impo▁r tant</w>
g ok</w>
f un</w>
b at
a▁b ou▁t</w>
at ings</w>
N a</w>
▁the i▁r</w>
▁t ough</w>
▁fin alized</w>
▁conc rete</w>
re▁ su▁l
o▁ i</w>
n ational</w>
l t;</w>
ket ball</w>
h oon</w>
h and</w>
eri a▁ls</w>
bi▁ll i▁on</w>
a▁ us▁e</w>
aw a</w>
a .▁m.</w>
M ark
▁sign al</w>
▁per i
▁h orse</w>
▁grad uation</w>
▁em otions</w>
▁Sch ol
▁20 0,000</w>
ur ▁ed</w>
tif ication</w>
s un
s ep
red u▁ce</w>
op pi▁ng</w>
l▁ik▁ ely</w>
e▁v ent</w>
cl ock</w>
ag i▁ng</w>
ac ti▁v
S y
Ko▁ re
J os
▁wel come</w>
▁r ises</w>
▁cont acted</w>
▁b anned</w>
▁ag gres
▁Rev olution</w>
▁P or
▁M yeong</w>
▁3 0,000</w>
ym nas
resid ent▁s</w>
over ing</w>
l ig▁ht</w>
i▁d ent</w>
ir able</w>
ins eng</w>
in fl▁
im a</w>
fr i▁
e▁n dly</w>
ez uel
excell e▁nt</w>
ex pl▁
di▁ ed</w>
critici z▁ed</w>
al ities</w>
S ▁u
Econom ▁ic</w>
&apos; m</w>
▁stom ach</w>
▁r ains</w>
▁des k</w>
▁Swed en</w>
▁H eo</w>
y cles</w>
t ude</w>
spe▁ cial</w>
som ▁e</w>
r▁ ole</w>
res ▁p
pl ant</w>
o ing</w>
h igh▁er</w>
g ove▁rn
exp e▁ct▁ed</w>
dr ama</w>
con tro▁
a▁ n▁
ar ▁t</w>
ac▁ k
S cien▁ce</w>
D▁ ae</w>
D on
▁minim ize</w>
▁e n▁
▁dang er</w>
▁S illa</w>
▁Lea der</w>
▁Kum ho</w>
s ports</w>
pur po▁se</w>
om bs</w>
m▁ar▁ ket</w>
jec t▁s</w>
ex i▁st
ec tions</w>
a▁r k</w>
ac ti▁on</w>
. 8
▁vis ible</w>
▁p anel</w>
▁ordin ances</w>
▁ob st
▁gr ound
▁cou ples</w>
▁b en
▁argu ment</w>
▁Cl ub</w>
▁B rexit</w>
sh a▁re</w>
re▁g ular</w>
on ers</w>
og an</w>
fa▁ ir</w>
ee th</w>
con vers
com▁p any</w>
b ery</w>
O P</w>
Lea g▁ue</w>
Je o▁ng</w>
▁mill ions</w>
▁issu ing</w>
▁f ewer</w>
▁S quare</w>
▁M aybe</w>
▁G ye
vill a▁ge</w>
press way</w>
partic i▁p
ob ong</w>
n ear</w>
it ably</w>
im u▁m</w>
en▁ ess</w>
develo▁p m▁ent</w>
chil d
c ut</w>
c a▁rd</w>
an▁ ces</w>
Min i▁s
Li▁ ber
A ▁u
▁w ou▁ld</w>
▁un clear</w>
▁sub contrac
▁sp ir
▁peti tions</w>
▁par ent</w>
▁neighbor ing</w>
▁in ner</w>
▁equ ality</w>
▁B it
v arious</w>
s afe</w>
m i▁s
implem ent
g rou▁ps</w>
fam iliar</w>
dr i▁
a▁ ff
St ates</w>
▁tri ps</w>
▁requ esting</w>
▁g as
▁fin als</w>
▁fac ilit
▁dep ends</w>
▁conf ident</w>
▁U l
t ou▁r
su▁r es</w>
sub je▁ct</w>
r▁ ight</w>
qu ar▁
p▁l eas▁e</w>
p ack
oc ket</w>
is ms</w>
c elebr
b▁ um</w>
O ne</w>
Na▁ tional</w>
J anu
I P</w>
E stablis
▁uni form</w>
▁th e▁y</w>
▁stor ed</w>
▁stat ue</w>
▁res ignation</w>
▁nerv ous</w>
▁loc ations</w>
▁bo oth</w>
▁ban king</w>
▁b ill
▁M E
▁G M</w>
▁Exc use</w>
y m</w>
w est</w>
th or
on▁ ic</w>
j oo▁n</w>
issu▁ es</w>
consec u
circ umst
Or din▁
Gy▁eong gi</w>
Dem oc▁ratic</w>
D es
Amer ic▁an</w>
▁tel ephone</w>
▁pass age</w>
▁man ual</w>
▁grow s</w>
▁flo ors</w>
▁cons ol
▁attrac tion</w>
view ers</w>
ut ation</w>
ugg age</w>
s tic
s oo▁n</w>
r ors</w>
h▁ an</w>
c▁ le</w>
ar i▁ng</w>
J oo</w>
H ouse</w>
Bl ue</w>
201 3</w>
▁un avoidable</w>
▁p apers</w>
▁di versi
▁democr acy</w>
▁consult ations</w>
▁ch ronic</w>
▁c oin
▁attrac tive</w>
▁K BS</w>
▁Des ign</w>
th▁ a▁n</w>
str ateg
requ ▁
pa▁ ss</w>
op▁ ment</w>
h▁ yun</w>
est a▁te</w>
ea st</w>
ap yeong</w>
6 3</w>
4 1</w>
▁mo thers</w>
▁law yers</w>
▁d e</w>
▁const ant</w>
▁com ▁
▁ch ances</w>
▁b o▁
▁ass istant</w>
▁Sh ould</w>
▁Prosec utor</w>
▁C o.</w>
▁C amp
▁Arab ia</w>
ye▁ ars</w>
u▁n ity</w>
tr an▁s
the▁ se</w>
ri ous</w>
od a</w>
in t▁o</w>
i ances</w>
e▁as y</w>
en▁ tly</w>
d ur
a▁r i▁
ap art
S eptember</w>
Con f
. m▁.</w>
▁n eck</w>
▁fr ustr
▁S il
▁Represent atives</w>
w▁ een</w>
vid eo</w>
tr i▁
s av
prais al</w>
otten ham</w>
org a▁n
om ▁e</w>
le▁ ading</w>
i▁st▁ ry</w>
i o
be▁ fore</w>
an ymore</w>
ali for
Ch i▁ef</w>
5 8</w>
▁t ools</w>
▁st ands</w>
▁s and
▁lea ked</w>
▁interpre tation</w>
▁i Phone</w>
▁dismis sal</w>
▁U ijeongbu</w>
▁H appy</w>
▁Comp anies</w>
win ni▁ng</w>
w in▁
t▁ ant</w>
ti o▁n
sh o▁rt</w>
s o▁ns</w>
poin ts</w>
lo ad</w>
l ands</w>
in▁ come</w>
id arity</w>
gh ts</w>
ge▁t ting</w>
e▁conom ic</w>
establis hme▁nt</w>
consid er
b ar
a▁m ong</w>
at ell
an t▁
R oh</w>
M ov
Li▁ber ty</w>
&ap▁os;▁ re</w>
▁tr an
▁sugg ests</w>
▁sol o</w>
▁slow ly</w>
▁sett le</w>
▁pas ses</w>
▁mov ements</w>
▁exam ples</w>
▁equ al</w>
▁d or
tw ave</w>
t ex
s▁y st▁em</w>
sp re▁ad</w>
n e▁c
h▁ ope</w>
f av▁
elec tions</w>
a▁c tive</w>
applic ati▁on</w>
R A</w>
F o▁od</w>
▁un likely</w>
▁pas tor</w>
▁not eworthy</w>
▁im pris
▁d um
▁character istic</w>
▁bu yer</w>
▁bid ding</w>
▁J am
▁Eng ineering</w>
▁4 2</w>
s▁ ite</w>
p rivate</w>
ow ners</w>
os t
om▁ an</w>
oc olate</w>
m▁ eans</w>
me▁m b▁ers</w>
med i▁
m yeong</w>
k▁ i</w>
inc re▁
h a▁r
et o</w>
cus t▁om
a▁l ways</w>
F or▁
Comm issi▁on</w>
Ad minis
▁sc ulp
▁purch ases</w>
▁fil es</w>
▁exc eeds</w>
▁con gl
▁W at
▁Res ources</w>
▁Ch ae</w>
▁B ol
ut e▁s</w>
ul ty</w>
u is
t▁h er</w>
p op▁
m▁ i</w>
k▁ ind</w>
e ze</w>
c▁ ut</w>
ch airper
ab il▁
5 0
▁urg ently</w>
▁subsid ized</w>
▁rep ayment</w>
▁mot or</w>
▁confron tation</w>
▁collabor ation</w>
▁chea per</w>
▁attemp t</w>
▁amoun ts</w>
▁al on▁g</w>
▁U pon</w>
u ff</w>
s▁ im
op▁ er
m▁ ents</w>
mob i▁le</w>
j o▁on</w>
il▁l i▁on</w>
c▁ annot</w>
cap it▁al</w>
c and▁
a▁ir s</w>
Techn olo▁gy</w>
O C</w>
A ugust</w>
5 ▁th</w>
▁w ashing</w>
▁sex ually</w>
▁en v
▁&apos; t</w>
w▁ an▁t</w>
w ife</w>
ta▁ ge</w>
si▁ ze</w>
ser▁ vice</w>
ro ads</w>
rec e▁nt</w>
pl▁ ay
ou▁ s
m ember</w>
it o▁rs</w>
high e▁st</w>
f a▁ct</w>
d▁ uring</w>
der▁ ly</w>
azak h
aver a▁ge</w>
ang yo</w>
ai▁ gn</w>
L ED</w>
Inv est
▁rehab ilitation</w>
▁ra ises</w>
▁met al</w>
▁inter views</w>
▁experi encing</w>
▁bur ned</w>
▁b id</w>
▁acc ept
▁B loomberg</w>
▁An gel
wh▁ eth▁er</w>
um a</w>
transport ati▁on</w>
th▁ od</w>
sh or
re fl
prosec uti▁on</w>
or▁ ity</w>
op p
op ment</w>
m ag
li▁ st</w>
inv es▁t
ins egae</w>
increa si▁ng</w>
Se ok</w>
▁t astes</w>
▁decrea sing</w>
▁c ast</w>
▁O s
▁Han jin</w>
▁20 00</w>
pro mo
pos i▁
our▁ se</w>
o on
k a</w>
ic ▁t</w>
f eel
en▁ ded</w>
comp▁ any</w>
am en</w>
E con
▁psych ological</w>
▁mach ines</w>
▁guarant eed</w>
▁c art
▁apolog ize</w>
▁any where</w>
▁E un
▁ atio▁n</w>
tic▁ le</w>
the▁ me</w>
m▁ any</w>
lo▁ c
is▁h ed</w>
is▁ is</w>
ic tion</w>
govern men▁t</w>
en▁ ted</w>
elec om</w>
ear ning</w>
aud▁ it</w>
ar▁ ts</w>
al▁ f</w>
a i
L ot▁te</w>
Intern▁ et</w>
In stitute</w>
D em▁
Ch airman</w>
9 7</w>
&▁ap▁os ;t</w>
▁st ro
▁renew able</w>
▁pro longed</w>
▁pat terns</w>
▁p ig
▁max im
▁int ellectual</w>
▁h n
▁ar bitr
▁a fraid</w>
▁M anch
v▁ al
und ae</w>
tic ularly</w>
s▁ elf</w>
sch oo▁ls</w>
pro▁ ject</w>
k▁ n
ir▁ st</w>
g t;</w>
du▁ ced</w>
b▁ ro
broad ca▁
a▁ r▁
at▁ h
ap artme▁nt</w>
▁v ot
▁telecomm unication</w>
▁k m</w>
▁gen re</w>
▁F ive</w>
▁4 3</w>
we▁l fare</w>
us ive</w>
str eam</w>
ow ned</w>
of▁f ice</w>
l▁ ead</w>
is t▁s</w>
ir e▁ct</w>
investig▁ atio▁n</w>
e▁n ed</w>
ess e▁s</w>
econ▁ omic</w>
d▁ ays</w>
ar row
ai▁r ma▁n</w>
Administr ati▁on</w>
▁sup porters</w>
▁st ating</w>
▁respon ses</w>
▁inf ants</w>
▁claim ing</w>
v▁ ice</w>
ve▁ h
ul ▁es</w>
s▁ ome</w>
stat▁ us</w>
sl etter</w>
pos t
o T</w>
iev ed</w>
h igh▁
fun ds</w>
comp etition</w>
ch▁ an</w>
aw ing</w>
acc ident</w>
Offic ▁e</w>
5 7</w>
▁res ource</w>
▁mid st</w>
▁hom etown</w>
▁f eared</w>
▁crea tes</w>
▁att ach</w>
▁Sec ond</w>
▁L ibrary</w>
is▁ h</w>
gr a▁
g an</w>
f oo▁d</w>
coun sel
comp▁an i▁es</w>
an tic</w>
Sh in
G eum
F u▁nd</w>
&a pos▁;
▁w illingness</w>
▁st ops</w>
▁or dering</w>
▁l od
▁firef ighters</w>
▁disp atch</w>
▁conn ecting</w>
▁T ake</w>
▁Pl an</w>
▁Jeon buk</w>
w▁ ould</w>
ve h▁
u it</w>
s o▁n
osp el</w>
ok do</w>
me▁m bers</w>
meas ure</w>
l ow▁er</w>
it ter</w>
hav i▁ng</w>
fail ▁ed</w>
cand i▁d
bec ome</w>
ap es</w>
Y u</w>
En▁g lish</w>
▁tal ents</w>
▁s ells</w>
▁n etizens</w>
▁med iation</w>
▁laun ching</w>
▁dec isions</w>
▁P rem
▁N ak
▁M un
▁For tunately</w>
▁Auth ority</w>
▁&▁ a
us e▁d</w>
t▁ en
ta i▁n</w>
p▁ol▁ icy</w>
m em
fam o▁us</w>
eval u▁
di e</w>
as tically</w>
am ent</w>
H o</w>
▁y o▁u</w>
▁vir tually</w>
▁thous and</w>
▁sub mission</w>
▁neg ligence</w>
▁dis tribute</w>
▁depar ture</w>
▁Con s
▁Ass et</w>
▁2 4
z o</w>
vi e▁w</w>
s am▁e</w>
p▁ ur
m▁on th</w>
et ely</w>
di a</w>
b rea▁
am in</w>
ai▁n ing</w>
ag en▁cy</w>
ab o▁r</w>
S▁e ou▁l</w>
N A</w>
A▁h n</w>
▁u ally</w>
▁ph armaceutical</w>
▁eg gs</w>
▁b ank
▁atten d
▁Conf ederation</w>
▁Br itain</w>
v ices</w>
tra ff▁ic</w>
tic es</w>
j a▁e</w>
insur an▁ce</w>
if elong</w>
em ▁ed</w>
ec tors</w>
de▁ m
bo a▁rd</w>
a▁t t
ar ch
Q u
Pol i▁ce</w>
In ter
D ec▁
▁w eb</w>
▁schol ars</w>
▁prohib ited</w>
▁per mit</w>
▁Jin ping</w>
w▁ ays</w>
un▁ der</w>
s ingly</w>
s ens
r id
p iec
lea▁ st</w>
is ▁e</w>
gr a▁de</w>
gen e▁r
f act</w>
e▁ k</w>
even th</w>
ch eck</w>
H ak</w>
B a▁
5 1</w>
▁tr a
▁t aught</w>
▁serv er</w>
▁s an
▁res ume</w>
▁reorganiz ation</w>
▁rad io</w>
▁r atings</w>
▁decor ated</w>
▁Tr aining</w>
▁Tai w
▁Taek wondo</w>
▁F C</w>
w elfare</w>
o▁p ment</w>
or c
on▁ gs</w>
m yung</w>
it a▁l</w>
ic▁ ial</w>
er ge</w>
e uk
b▁e▁ come</w>
b▁ u▁t</w>
b▁ ased</w>
be▁ li
b oy
ant a</w>
D S</w>
▁strugg le</w>
▁s par
▁p ip
▁n ations</w>
▁instruc tor</w>
▁hea ted</w>
▁fl uctu
▁cal m</w>
▁Y e</w>
▁D oo</w>
tu▁r n</w>
sc ene</w>
progr a▁ms</w>
pos ure</w>
or ders</w>
m ate</w>
l ost</w>
fee▁ l</w>
er ty</w>
comp an▁y</w>
com pens
au▁ lt</w>
ast al</w>
am e▁s</w>
ai▁ l</w>
W a</w>
Presi▁d ent</w>
J o▁ng</w>
C C
A▁r ti▁cle</w>
A g▁
1 0▁
▁exemp ted</w>
▁dis pos
▁br inging</w>
▁ar ch
▁affili ates</w>
▁Par ticularly</w>
str en▁g
r an▁ge</w>
prom ise</w>
prof it</w>
probl ems</w>
om m▁
ob ▁s</w>
itiv ely</w>
inst all
i a
h ope</w>
h ak</w>
g iv▁en</w>
g a</w>
b▁ et▁ter</w>
S afe▁ty</w>
Indus t▁ry</w>
0 8</w>
▁pen ding</w>
▁inv esting</w>
▁in auguration</w>
▁grand mother</w>
▁f i▁rst</w>
▁cam eras</w>
▁P acific</w>
▁An yang</w>
▁&apo▁s ;t</w>
yst e▁m</w>
ye e▁s</w>
sa▁ f
mea▁ su▁res</w>
ie▁ ve</w>
hear t</w>
g lobal</w>
ea▁ sy</w>
Prov ide▁d</w>
Min i▁st▁ry</w>
I s</w>
▁trad ition</w>
▁spons ored</w>
▁pre d
▁expres sing</w>
▁eng in
▁day time</w>
▁Stand ards</w>
▁E as
▁3 00,000</w>
ti▁ ms</w>
t el
so▁ cial</w>
play e▁rs</w>
par ents</w>
ot▁ h
n ▁s</w>
m ye▁on</w>
fo▁ ll
fort unately</w>
du ▁e</w>
dam age</w>
c▁ r▁ea
ac t▁or</w>
a ju</w>
Su w▁on</w>
B A</w>
▁writ ers</w>
▁w rap
▁th r
▁s ought</w>
▁juven ile</w>
▁compens ate</w>
▁Ven ezuel
▁Pri or</w>
▁D et
w alk</w>
t▁h y</w>
s▁c ale</w>
s k</w>
prin ci
pe▁ ri
ocr▁ atic</w>
m ine</w>
join▁ ed</w>
it ude</w>
e▁n ▁t</w>
esti ons</w>
d oll
ap▁ er</w>
ann ers</w>
S ol
M oo▁n</w>
M al
L ab▁or</w>
; d</w>
&ap▁os; t</w>
▁re wards</w>
▁qu arters</w>
▁or ganic</w>
▁magaz ine</w>
▁bur d
▁Se o▁ul</w>
▁O p
▁N A
y angju</w>
wh▁ et▁her</w>
us ▁es</w>
t e
son nel</w>
perfor▁m a▁nce</w>
j u▁
j oint</w>
ial ▁s</w>
g as</w>
fu▁ nd</w>
f ee</w>
des ign</w>
d ang
con stitu
c ot
ar ts</w>
ar riv
ack et</w>
ac ing</w>
L ife</w>
G ove▁rn
▁th a▁n</w>
▁res ulted</w>
▁refug ee</w>
▁minis ters</w>
▁l isting</w>
▁for g
▁evac u
▁chem ical</w>
▁ch eering</w>
▁D oc
▁4 1</w>
rup t</w>
pr o▁t
person n▁el</w>
p etr
p eace</w>
ou▁ ght</w>
n e▁rs</w>
loc ated</w>
h▁ igh</w>
em ployees</w>
elec tr
ch u▁l</w>
b▁ udget</w>
ar ely</w>
▁sh eet</w>
▁res istance</w>
▁rea ching</w>
▁ob ject</w>
▁m yst
▁l ending</w>
▁l angu
▁h ub</w>
▁fr ame</w>
▁discharg ed</w>
▁compl ained</w>
▁ar ms</w>
▁a d▁
▁S a
▁Ch e
t▁ ro
regar di▁ng</w>
p▁ res
par t▁
m ain▁
is ti▁cs</w>
f▁ ore</w>
f ers</w>
con d
cl e▁ar</w>
ch e▁rs</w>
cau g▁ht</w>
&a▁ po▁s▁
▁wh▁ ere</w>
▁us eful</w>
▁t ab
▁subst ances</w>
▁pr ide</w>
▁inten se</w>
▁har der</w>
▁ch ain</w>
▁c au
▁Taiw anese</w>
▁T w
▁Con sumer</w>
▁C redit</w>
u a▁l</w>
prov i▁ncial</w>
m an▁y</w>
m ail</w>
k ind</w>
i▁ sion</w>
ic ted</w>
gu k</w>
er i▁es</w>
d ow▁n</w>
d a
corpor a▁te</w>
b ong</w>
a▁mp ;</w>
and a</w>
▁wors ening</w>
▁vis a</w>
▁networ ks</w>
▁n ob
▁finis hing</w>
▁decl ined</w>
▁Rev iew</w>
▁K imchi</w>
▁Int egr
tion ary</w>
t otal</w>
sy s▁tem</w>
pro jec▁t</w>
o▁u th</w>
n eeded</w>
i▁ ew</w>
ill er</w>
id en▁ts</w>
form ing</w>
comp▁ anies</w>
ch▁ eon</w>
al tern
P o▁l
Da egu</w>
▁w e▁ll</w>
▁i m▁
▁fair ness</w>
▁det ention</w>
▁cons ci
▁J ourn
▁Fr amework</w>
w at▁
sh a▁r
pr▁o duct</w>
pr ic▁ed</w>
p y▁o</w>
og▁ n
n▁ umber</w>
fe▁ ll</w>
etropo▁l itan</w>
ea c▁h</w>
d e▁r
ch▁ ange</w>
a▁ ds</w>
allig raph
& q▁u▁ot;</w>
▁tax ation</w>
▁stea dy</w>
▁se izure</w>
▁ret ail</w>
▁r igh▁t</w>
▁flav or</w>
▁US D</w>
▁Sh ip
▁O ver</w>
▁M emor
▁B ang
veh ic▁le</w>
u▁r ity</w>
un s</w>
um▁ p</w>
tin ue</w>
t t
t om▁
stud e▁nt</w>
partic▁ip▁ ate</w>
lear ni▁ng</w>
langu a▁ge</w>
je▁c ts</w>
i▁ ence</w>
improv eme▁nt</w>
i an▁ce</w>
gover▁n m▁ent</w>
f igh
ee▁ p</w>
c▁ an▁
commission ▁ed</w>
ail ing</w>
O ctober</w>
▁supervis e</w>
▁str ict</w>
▁r ow</w>
▁mas k</w>
▁inj uries</w>
▁inev itably</w>
▁h a▁s</w>
▁autom atic</w>
▁T est</w>
▁KOS DAQ</w>
▁Ind eed</w>
▁B er
wr itt▁en</w>
us▁ ing</w>
sur v
sh▁ ot</w>
r at▁e</w>
ow in▁g</w>
och ang</w>
ma▁r k</w>
l eep</w>
i king</w>
i enc▁e</w>
fl ow</w>
ec▁ te▁d</w>
e ve</w>
communic ati▁on</w>
c ould</w>
bus in▁
ar▁ ound</w>
ad mi▁n
a el</w>
I D</w>
Associ atio▁n</w>
▁y ea▁rs</w>
▁t esting</w>
▁manip ulation</w>
▁m eets</w>
▁clin ical</w>
▁ch e▁ck</w>
▁boo ths</w>
▁T ri
▁Pre vention</w>
▁&a▁ pos;
with in</w>
se▁ veral</w>
rup ti▁on</w>
ris k</w>
presid e▁ntial</w>
o▁ ff▁ice</w>
op▁ in
d▁ ev
acc ep
8 8</w>
& amp▁;</w>
▁sup er</w>
▁r oles</w>
▁ph ilosoph
▁n eve▁r</w>
▁bur ied</w>
▁b oom</w>
▁T or
▁Se ungri</w>
▁L ord</w>
▁G ov.</w>
▁Cong ress</w>
▁Bi o
w a▁n</w>
ust me▁nt</w>
t▁h er▁e</w>
sum ▁
sta▁ ff</w>
on li▁ne</w>
o ffer
mat eria▁ls</w>
l iving</w>
l a▁ck</w>
k eep</w>
er▁ at▁ion</w>
ea c▁e</w>
e ffic
dro p</w>
d on▁
d ed
car ri▁ed</w>
aft▁ e▁r</w>
ad o</w>
acc ou▁n
ab ou▁t</w>
T alk</w>
E co▁n
Comm itte▁e</w>
A E</w>
9 4</w>
▁mor t
▁immigr ation</w>
▁ed ge</w>
▁acc eler
▁Offic er</w>
▁ ement</w>
ut▁ ure</w>
t▁ ow
ph oto</w>
on to</w>
o th▁
i▁ c▁h</w>
em atic</w>
ee▁ ch</w>
dis crimin
c▁ enter</w>
con tract</w>
ch ▁ul</w>
at us</w>
▁trav el
▁sh ift</w>
▁invest or</w>
▁en coun
▁consult ative</w>
▁bull etin</w>
▁M O
▁Ex pressway</w>
x y</w>
sid er</w>
sched ul▁ed</w>
re vi▁ew</w>
pr ac▁
p us
on ze</w>
n eg▁
iz z
it cher</w>
id ation</w>
ic▁ at▁ion</w>
fri e▁ndly</w>
en tic
eas ures</w>
corp▁or ate</w>
cont ent</w>
adv ance</w>
P re▁sid
Am eric
▁t e▁r
▁shou lder</w>
▁prot ecting</w>
▁proc esses</w>
▁n am</w>
▁l uggage</w>
▁in fr
▁gu ardian</w>
▁driv en</w>
▁discus sing</w>
▁T our</w>
▁K wak</w>
▁D MZ</w>
y▁ er</w>
th i▁nk</w>
retur n▁ed</w>
reg ul▁
p▁ re▁
ou l
mis sions</w>
inc▁ rea▁se</w>
h▁ erein
exi▁st ing</w>
d▁ ro
dr am
di▁ d</w>
d ney</w>
c▁ hed</w>
b▁ eg
ann o▁un
Th ere</w>
M S</w>
F i▁n
Elec tr▁
8 ▁th</w>
6 4</w>
▁underst ood</w>
▁techn iques</w>
▁t ens</w>
▁step ped</w>
▁s id
▁inter ven
▁heal ing</w>
▁Sh insegae</w>
▁Ex hibition</w>
▁Em bassy</w>
▁A wards</w>
w ar▁
trad it▁ional</w>
tain me▁nt</w>
sh in</w>
sh ed</w>
pro bl▁em</w>
pl a▁n</w>
l a</w>
jo▁ in</w>
fl ix</w>
cr▁ ea
crea t▁ed</w>
con d▁
c ateg
a▁m p</w>
a▁c tion</w>
▁w e
▁under way</w>
▁sl ump</w>
▁ship building</w>
▁resc ued</w>
▁ow nership</w>
▁im position</w>
▁exc ited</w>
▁depos its</w>
▁communic ations</w>
▁ch air</w>
▁a p▁
▁Stud ies</w>
▁J ames</w>
▁Holl ywood</w>
ye on
v▁ er</w>
vol un
su▁l a</w>
st ern</w>
res tric
re d▁uc
on als</w>
m en
leg ▁al</w>
i▁ll▁ ion</w>
hos ▁p
g ames</w>
ess ly</w>
e ur</w>
cr ime</w>
bo▁r n</w>
ad a</w>
S▁ ec
9 6</w>
▁struc tural</w>
▁s is
▁produc tivity</w>
▁pres erve</w>
▁pre ference</w>
▁dis ▁
▁cr u
▁appro pri
▁Indones ian</w>
▁Austral ian</w>
w oo▁k</w>
s▁ h</w>
respon▁ se</w>
pr▁o j▁ect</w>
m as
iv e▁d</w>
int ell
increa sed</w>
in conven
h e
es t▁s</w>
develo▁p ment</w>
d .</w>
c▁ or
compl et▁ed</w>
c enter▁ed</w>
az y</w>
at▁ a</w>
5 6</w>
▁y e▁ars</w>
▁r ank</w>
▁pre ferred</w>
▁n ights</w>
▁l ev
▁inv ent
▁ag es</w>
▁R ail
▁F u
s▁ h▁
sy n
ri e▁d</w>
pr▁ od
pri▁ vate</w>
int▁ern al</w>
eff ect</w>
der ful</w>
d i▁c
chil d▁ren</w>
beco▁m ▁e</w>
P CO</w>
In c▁heon</w>
E C</w>
▁surv ival</w>
▁recru iting</w>
▁produc ers</w>
▁pr aised</w>
▁p up
▁integr ation</w>
▁f er
▁dom in
▁des irable</w>
▁dep end
▁cons isting</w>
▁ch arm</w>
▁am azing</w>
▁ME RS</w>
▁Investig ation</w>
vi ation</w>
sch ol
p▁ ower</w>
os a</w>
oph is
off▁ ic
mov ie</w>
mit t▁ed</w>
in stitu▁
here i▁n
h a▁nd</w>
em p▁
comm▁ ittee</w>
at▁ ure</w>
air▁ man</w>
P ublic</w>
. &apos;</w>
▁t eeth</w>
▁phr ase</w>
▁m alls</w>
▁in land</w>
▁hea ded</w>
▁fres h
▁ess ay</w>
▁bir ds</w>
▁bath room</w>
▁S BS</w>
▁Med ia</w>
▁M il
▁Kak a
▁Ex pec
u▁n g
se i</w>
s n
ri ble</w>
ri a</w>
rel at▁
m i▁d
m ach
in ni▁ng</w>
h o▁s
etw ork</w>
em an</w>
c▁ ri
ch a▁n
c entr▁al</w>
b al▁l</w>
an▁ ding</w>
L e▁
I C</w>
D A</w>
5 9</w>
▁week ly</w>
▁threa tened</w>
▁see kers</w>
▁sc r
▁miss ile</w>
▁langu ages</w>
▁B each</w>
▁ on</w>
urr ing</w>
s ex</w>
pon se</w>
p u▁sh</w>
oper a▁te</w>
m▁ark ▁et</w>
he▁ at</w>
fin ancial</w>
f our▁th</w>
e▁c t▁ion</w>
en ly</w>
ell ed</w>
ec tion
eac eful</w>
d▁ ec▁
d in▁gs</w>
co a▁ch</w>
c ore</w>
c iti▁
M C</w>
Eng ine
▁t ells</w>
▁supervis or</w>
▁sal t</w>
▁increa singly</w>
▁clos ure</w>
▁S ung
▁K inderg
▁Gu ard</w>
▁D a</w>
▁Ch an</w>
y an▁g</w>
w a
uc ky</w>
r is▁
p ub▁lic</w>
ou t▁h</w>
off i▁c
li ance</w>
k l
k ets</w>
ind u▁
i u▁m</w>
enc i▁es</w>
ear cher</w>
dro me</w>
c▁ as
comm i▁t
ans w
K▁or e▁an</w>
▁un familiar</w>
▁symb ol</w>
▁re tr
▁r o▁
▁mo tiv
▁le g</w>
▁l o▁
▁k id
▁compl eting</w>
▁a▁ fter</w>
▁attor ney</w>
w▁it h▁in</w>
ul s
tour i▁sm</w>
ti f▁
sec ti▁on</w>
r▁ ights</w>
re▁ v
requ e▁st</w>
rea di▁ng</w>
play ▁er</w>
ph o▁ne</w>
pers▁ on
l▁ arge</w>
j un</w>
i▁ ti▁es</w>
in▁ ation</w>
in n▁
ilat eral</w>
f▁ fer
f ol▁
ex▁ pl
exhib iti▁on</w>
establis ▁h
dr a▁ma</w>
d augh
commer ci
at▁ eg
Sm a▁ll</w>
Institu t▁e</w>
Administr ati▁ve</w>
▁succ ession</w>
▁shou ldn</w>
▁sem i</w>
▁publ ication</w>
▁pic ked</w>
▁pat rol</w>
▁p ill
▁jum ped</w>
▁deteri or
▁cons ervation</w>
▁categ ories</w>
▁U.S.- North</w>
▁B io</w>
v▁ er
s▁ enior</w>
str eng▁
spec if▁ic</w>
sh owi▁ng</w>
pr ic▁es</w>
pos▁ al</w>
ol▁ ved</w>
in▁ st▁
int▁er est</w>
hw amun</w>
gi ene</w>
g a▁n
fu▁r ther</w>
con fi▁r
aw ar
Se ong</w>
;▁ m</w>
201 2</w>
▁sw ing</w>
▁rel atives</w>
▁princi ples</w>
▁l on
▁k i</w>
▁grat eful</w>
▁encour aging</w>
▁chec ks</w>
▁5 00,000</w>
▁4 4</w>
▁10 0th</w>
vehic l▁es</w>
uti n</w>
throu▁ g▁h</w>
s urr
olo▁g ical</w>
ing re
c▁l os
appro pri
N▁ o.</w>
C O
0 7</w>
▁show case</w>
▁sear ching</w>
▁initi ally</w>
▁in sur
▁ill ness</w>
▁Wh ether</w>
▁Pl aza</w>
▁Cheong do</w>
▁B ong</w>
u▁ p
t ou
sa▁ le</w>
pr▁o ject</w>
m ilitary</w>
ir o</w>
inter est</w>
fin ite</w>
enti onal</w>
de▁ l
cas ▁e</w>
b ri▁
as t▁ic</w>
F est▁
F ebru
C en▁ter</w>
B as
20 ▁th</w>
&a▁po▁s ;▁s</w>
▁tr uly</w>
▁o ri
▁n on
▁log ic</w>
▁h al
▁arriv al</w>
▁a ired</w>
▁T ottenham</w>
▁N atur
▁Manag er</w>
▁Dong daemun</w>
v ent
t y
st ar</w>
sp ir
sp ea
sm oki▁ng</w>
resid▁ ents</w>
pre v▁
m▁ anag
ky u▁ng</w>
i▁t ary</w>
invest ment</w>
hy ▁e</w>
constru▁c tion</w>
c ars</w>
bus i▁n
b u▁r
ac k▁
ac he</w>
P▁ ublic</w>
L og
Japa▁n ese</w>
0 1</w>
▁super ior</w>
▁prot ected</w>
▁p itcher</w>
▁n or
▁fri endship</w>
▁fi re
▁comm ander</w>
▁chec k
▁V al
▁T ower</w>
▁Chung buk</w>
v ic▁
t▁ic l▁e</w>
tal ks</w>
o▁ int</w>
oun g
on▁ ment</w>
og n▁
oc▁ k</w>
mi▁n imu▁m</w>
hea▁ ds</w>
h appy</w>
empl o▁
dis abl▁ed</w>
D o▁ng</w>
▁w oo</w>
▁taxpay er</w>
▁sp ots</w>
▁pr ayer</w>
▁compon ents</w>
▁att acks</w>
▁Tr ad
▁D e
y▁ eong</w>
t▁ in▁g</w>
p▁ ri▁
nec e▁ss
it t▁ed</w>
g ung</w>
g am▁e</w>
f ar
del i▁
conc er▁
ch e▁d</w>
atten ded</w>
adv a▁n
N ovember</w>
B o
2 3
▁surpr ise</w>
▁represent ing</w>
▁rea ction</w>
▁poll ut
▁is▁ sue</w>
▁inv ite</w>
▁ch art</w>
▁b acter
▁Ear th</w>
sum mer</w>
re ported</w>
r ain</w>
n orthe▁rn</w>
j un
i▁ ev
ic ked</w>
h uge</w>
h arm
f ul
emplo▁y ment</w>
dev e▁lop
cl▁ ud
chang ▁ed</w>
ad vis
S he</w>
Pro▁v ince</w>
I ▁n</w>
8 5</w>
▁ther apy</w>
▁targ eting</w>
▁sec onds</w>
▁r ot
▁ob jects</w>
▁n ▁
▁con clude</w>
▁ab or
▁M el
▁2 50</w>
stu▁ dy</w>
sent enc▁ed</w>
s en▁
s ale</w>
pl eas
me▁ as
lea der</w>
id eo</w>
ev i▁d
er e▁d</w>
d ai▁ly</w>
b ok
administr▁ ative</w>
M ot
6 7</w>
5 4</w>
▁t ied</w>
▁spec ulation</w>
▁sc at
▁rec all</w>
▁pr▁ ice</w>
▁mus cles</w>
▁inform atization</w>
▁comm and</w>
▁c a▁
▁b ad
▁W ol
▁N ak</w>
▁Gim hae</w>
▁G e
wr it
t elecomm
su ff▁
sm artph
r at▁
r ain
ox ide</w>
or iz
mak ers</w>
m ill
h eon</w>
h eat</w>
f▁ir s▁t</w>
f▁ ar</w>
eong buk</w>
discu▁ ss</w>
dep art▁
c ente▁r</w>
c alled</w>
a▁ ld</w>
app▁ rov
al ties</w>
U▁ S</w>
Rus sia</w>
2 .
1 .▁
▁star tup</w>
▁pun ished</w>
▁out lets</w>
▁ha bit
▁def eat</w>
▁aspec ts</w>
▁Trans portation</w>
▁R ef
y▁ st
sh▁ op</w>
p ical</w>
op pos▁ition</w>
ol ved</w>
my u▁ng</w>
ky un▁g</w>
k es</w>
jo▁ o</w>
ir eless</w>
inc re▁as
hy up</w>
grow i▁ng</w>
e▁c tive</w>
exec u▁
con f▁ir
comp▁ an▁ies</w>
cl u▁d
ar▁ ly</w>
ab ol
O r▁
K ong</w>
D irector</w>
A ir</w>
6 8</w>
10 ▁th</w>
▁prin t</w>
▁mathem atics</w>
▁f i▁
▁clou ds</w>
▁Yeong deungpo</w>
▁Inter ior</w>
▁1 ,0
y ang
w▁h a</w>
w or▁th</w>
tr aining</w>
st and</w>
s pr
rim inal</w>
p ower
manag ▁er</w>
l▁ ack</w>
im ent</w>
ign ity</w>
h all</w>
h al
d▁ irec
b en▁
arant ine</w>
G e
A▁r t</w>
▁wor ship</w>
▁restric tion</w>
▁part ners</w>
▁n arrow
▁ex ists</w>
▁d awn</w>
▁ap par
▁Republ ican</w>
▁P rivate</w>
s essi▁on</w>
refe▁r r▁ed</w>
on▁ t</w>
l▁ iving</w>
in c▁l
il▁ ar</w>
fir m</w>
fam ilies</w>
en c▁es</w>
e iling</w>
Prov▁ inc▁e</w>
Ch eo▁ng</w>
C s</w>
▁r oot</w>
▁hea twave</w>
▁exc ep
▁en able</w>
▁di esel</w>
▁dem ol
▁R eal
▁P ay</w>
▁P anmunj
▁H ope</w>
▁Chun cheon</w>
w ay▁s</w>
v▁ en
te▁ er</w>
so▁ ci
rea d▁y</w>
po▁ or</w>
m iddle</w>
ivers a▁ry</w>
dep artment</w>
cl▁ ub</w>
bel iev
an ting</w>
al▁ y
V ill
St ud
In nov
G e▁n
Elec tron
9 ▁th</w>
▁str et
▁repres ent</w>
▁p ine</w>
▁inn oc
▁bl ow</w>
▁W ang</w>
▁Trea sury</w>
▁Inst agram</w>
m al
h▁ ot</w>
g ate</w>
def en▁se</w>
ati on▁
ati n</w>
Sp▁ec ial</w>
S u</w>
Nov emb▁er</w>
H an▁
▁sil ver</w>
▁sew age</w>
▁pour ed</w>
▁p ure</w>
▁out break</w>
▁mist akes</w>
▁h obby</w>
▁contro lled</w>
▁abol ition</w>
▁Per haps</w>
ur ban</w>
up yeong</w>
um p
tr end</w>
s▁ ec▁
s exual</w>
re vi▁
pop ular</w>
or al</w>
ma i▁n
if ted</w>
i o▁r</w>
h▁erein aft▁er</w>
hou s▁es</w>
fri ends</w>
fin al</w>
fi x
fe▁ es</w>
con t▁r
c el</w>
Serv ice</w>
Dec r▁ee</w>
▁vis ual</w>
▁str eam</w>
▁sp eaker</w>
▁sm a▁ll</w>
▁manufactur er</w>
▁l ighting</w>
▁hear ts</w>
▁fl ood</w>
▁d il
▁appl iances</w>
▁advant ages</w>
▁Bur ning</w>
ven ue</w>
un til</w>
ter ies</w>
shar ehol
r▁ o</w>
res u▁lt</w>
g il</w>
g ap</w>
fi▁r s▁t</w>
f a
esti m
en j▁oy</w>
ay o▁r</w>
au g▁h
Or di▁n
O T
A f▁f
7 7</w>
6 2</w>
5▁ 0</w>
&a▁p▁os ;m</w>
▁w ood</w>
▁toil et</w>
▁prin ting</w>
▁person ally</w>
▁m in</w>
▁h urry</w>
▁at tributed</w>
▁absol ute</w>
▁J a</w>
▁Egyp t</w>
▁Con test</w>
▁B udget</w>
▁ tio▁n</w>
t▁er m</w>
tur ▁al</w>
t un
t less</w>
special iz▁ed</w>
probl e▁ms</w>
ok en</w>
indus tr▁y</w>
gre ement</w>
g rou▁p</w>
et w▁een</w>
div isi▁on</w>
distr ib▁
diff▁er en▁t</w>
compl eted</w>
c over
al ition</w>
P G</w>
C E▁
6 ▁th</w>
▁t a▁
▁sp ot
▁real istic</w>
▁k ind
▁exam s</w>
▁cos t
▁class room</w>
▁b orrow</w>
▁Y eong</w>
▁U U</w>
▁Con ference</w>
▁Cap ital</w>
▁Afr ican</w>
▁& amp;</w>
su ally</w>
sti ce</w>
situ▁ at▁ion</w>
rec ently</w>
pro▁ du▁c
pre fer
p ea▁ce</w>
mo▁n th</w>
m un
j on▁g</w>
g ye</w>
end ations</w>
emb le</w>
ca▁l led</w>
b▁ etter</w>
a▁m es</w>
ativ e▁ly</w>
J ang
H A
Comm it▁tee</w>
▁thea ters</w>
▁ter rit
▁scienti fic</w>
▁j unior</w>
▁gradu ated</w>
▁fl at</w>
▁effec tiveness</w>
▁coun sel</w>
▁contr ast</w>
▁chil dhood</w>
▁bott le</w>
sy▁st e▁m</w>
rec o▁
pop ul
op p▁os
n om
mov ▁ed</w>
m u</w>
l i▁n
g ress</w>
ex p▁er
cer emony</w>
c op
aw a▁y</w>
aul o</w>
M a▁
Hw as
H os
4 00</w>
20▁1 6</w>
&apo▁s ;t</w>
▁w ealth</w>
▁sign ature</w>
▁progres sive</w>
▁out look</w>
▁f o▁c
▁conven tion</w>
▁b ul
▁Fin ally</w>
tec h▁n
t led</w>
pur su▁
oc▁ ks</w>
l iter
inter▁ es▁ted</w>
h▁el p</w>
h▁ y
d emocr
co▁m m▁
b▁ eh
be t▁wee▁n</w>
S en
O l
E U</w>
Am e▁r
▁wor n</w>
▁wat ers</w>
▁symb ol
▁s um</w>
▁prof itability</w>
▁l abor
▁influ enced</w>
▁in appropriate</w>
▁i sol
▁dis tur
▁dis trib
▁S an</w>
▁Oper ation</w>
thr▁ oug▁h</w>
s▁ s</w>
sup po▁r
s ize</w>
o▁ ms</w>
ou ble</w>
mem▁ bers</w>
lim ited</w>
leg isl
k ly</w>
inves▁ tment</w>
ign s</w>
id ers</w>
equ ality</w>
emp▁l oy
bu▁ k</w>
S CO</w>
M ayor</w>
J un</w>
H u
▁seas ons</w>
▁aut onomy</w>
▁Dong jak</w>
▁D omestic</w>
▁7 5</w>
th rea
ra▁ in</w>
p ic▁
m▁ ust</w>
me▁ etin▁g</w>
j eo▁ng</w>
f ound</w>
f elt</w>
f a▁ll</w>
e▁m ber</w>
dem and</w>
conditi o▁ns</w>
b i▁ll</w>
a▁t eg
arb ucks</w>
ad ong</w>
N o▁
I CT</w>
E ur▁
E a▁st</w>
# 9
▁meas urement</w>
▁foot age</w>
▁fl ights</w>
▁esc al
▁emb arr
▁def ined</w>
▁ch ocolate</w>
▁be t▁ween</w>
▁T ong</w>
▁O pen</w>
▁Ben to</w>
▁B uk
▁A rea</w>
y▁ et</w>
v ily</w>
t▁im ▁e</w>
ti▁ c</w>
reg istr
receiv i▁ng</w>
p▁ ric
pr▁o duc
o▁ s▁
l▁ ea▁
if i▁c
ev ision</w>
end ants</w>
e u▁p</w>
coo p▁er
cili ation</w>
as ▁h
alifor nia</w>
ac ent</w>
G rou▁p</w>
▁t ower</w>
▁sn acks</w>
▁s ing</w>
▁S sang
▁Gwang hwamun</w>
▁F ed</w>
▁Bas ic</w>
▁4 6</w>
sh r
sh ot</w>
rel ations</w>
ph y</w>
ook ie</w>
in▁ clud
ff ers</w>
ex▁ pec
equ ▁
ep▁ t</w>
d▁ ef
d eep</w>
br a▁nd</w>
at or
ar ▁s</w>
amm ar</w>
ad i▁um</w>
J a▁n
D▁ a
Aug u▁st</w>
Ag en▁cy</w>
6 6</w>
20 20</w>
▁wal ked</w>
▁uni forms</w>
▁str aw
▁p ack</w>
▁open s</w>
▁func tional</w>
▁em issions</w>
▁Y on
▁Pal ace</w>
▁Expec tations</w>
ye▁ ong</w>
ur▁ r
ter▁ m</w>
ta▁ ek</w>
s▁ el
sup porti▁ng</w>
str ess▁ed</w>
sen ior</w>
produc ▁ed</w>
plac ▁es</w>
own e▁rs</w>
i▁ li
hy th
foll ow▁ed</w>
ex tr
each ment</w>
an▁ ted</w>
K won</w>
Dec emb▁er</w>
▁w ishes</w>
▁uplo aded</w>
▁sc ri
▁public ity</w>
▁po is
▁pl edge</w>
▁instr uments</w>
▁inquir y</w>
▁h itting</w>
▁bel t</w>
▁C E
▁Bu ilding</w>
▁A round</w>
y outh</w>
sum mi▁t</w>
n ur
k y▁u</w>
in▁ ter
ind u▁stry</w>
h ospital</w>
ex hib▁
ever y▁
el ig
di▁ rec
d ated</w>
ce▁r tain</w>
b ac▁k</w>
Oct ob▁er</w>
M oo</w>
M E</w>
▁y ear▁s</w>
▁wid th</w>
▁t ool</w>
▁system atically</w>
▁lif ted</w>
▁ex empl
▁cl ar
▁c r▁
▁ass essed</w>
▁Hu h</w>
▁F ootball</w>
▁B esides</w>
vers eas</w>
un iversi▁ty</w>
o▁ cr
min ut▁es</w>
m ix
l▁ and</w>
i▁n ter
i▁m p▁
it ory</w>
in e▁d</w>
e▁c ts</w>
exp e▁n
enc ement</w>
eb ack</w>
dire▁c t▁or</w>
d ev▁el
at al</w>
ann a</w>
adem▁ ic</w>
acc us▁ed</w>
acc or▁
U V</w>
▁wh oles
▁viol ent</w>
▁th reat</w>
▁surv ive</w>
▁str ea
▁res ort</w>
▁pow der</w>
▁e ▁
▁direc tions</w>
▁cover age</w>
▁after math</w>
▁Mok po</w>
▁K n
▁K aesong</w>
▁200 4</w>
ul ent</w>
u ating</w>
t▁ aking</w>
s▁ ee▁
spe▁ ci
res▁ earch</w>
pen ses</w>
o ther
environ ment▁al</w>
al i▁ze</w>
ai▁ led</w>
ab ies</w>
F und</w>
B▁ usan</w>
▁un ified</w>
▁mach inery</w>
▁explos ion</w>
▁con stitutional</w>
▁Mex ican</w>
▁H am
▁Comm unications</w>
v▁ ir
u e▁s</w>
s▁ec on▁d</w>
r▁ ow</w>
rev ealed</w>
p▁ ing</w>
pro perly</w>
p port</w>
o▁t al</w>
o▁n g▁
or ities</w>
oo th
i▁ ke</w>
in▁ clu▁
investig▁ at▁ion</w>
in ent</w>
ic ro</w>
herein a▁fter</w>
g row</w>
ew o▁rk</w>
ell ence</w>
distribu ti▁on</w>
b▁ ak</w>
be▁c a▁us▁e</w>
b i</w>
atis tical</w>
▁ul tra</w>
▁simultan eously</w>
▁r itual</w>
▁observ ation</w>
▁every where</w>
▁confir ming</w>
▁commerci alization</w>
▁comm encement</w>
▁attemp ts</w>
▁air line</w>
▁Pro perty</w>
▁Confuc ian</w>
t een
rank ▁ed</w>
p▁er▁ son</w>
prescri b▁ed</w>
ph y▁
m ur
ic ian</w>
f▁ ourth</w>
facil itie▁s</w>
bas is</w>
ac ro▁ss</w>
Sec reta▁ry</w>
O lymp
M r.</w>
K R▁W</w>
D▁ ec
▁th rew</w>
▁th e▁r▁e</w>
▁sec tions</w>
▁relation ships</w>
▁r ank
▁in sp
▁expres sions</w>
▁disapp ear</w>
▁bel ongs</w>
▁T ong
▁St ock</w>
▁Se odaemun</w>
un gh
uc▁ c
tak en</w>
s ymp
rep▁ or▁ted</w>
pos sibili▁ty</w>
o▁r ry</w>
fort ably</w>
es tic
cor rec
ati▁ c</w>
at mos
an ity</w>
Jos e▁on</w>
Dis tric▁t</w>
▁t all</w>
▁pursu ed</w>
▁h a▁ve</w>
▁encour aged</w>
▁cy ber</w>
▁commemor ate</w>
▁borrow ed</w>
▁ar med</w>
▁ag ents</w>
▁Sun cheon</w>
▁Ital ian</w>
▁H ae
▁Cath olic</w>
w th</w>
w ea▁
w as▁te</w>
sh owed</w>
rece i▁
rea l▁
r u▁n</w>
pr▁o f
produc tion</w>
poin▁ ts</w>
op pos
m eal</w>
im ate</w>
ic on</w>
fac tory</w>
e▁ o</w>
devel▁ op
ag a▁inst</w>
S D</w>
O c
K ing</w>
J ud
Dis trict</w>
2▁ 00
18 ▁th</w>
▁ref unded</w>
▁recru ited</w>
▁prec ed
▁mass age</w>
▁dor mit
▁d ancing</w>
▁c ats</w>
▁Techn o</w>
wh▁ ile</w>
sing▁ le</w>
r▁es▁ ult</w>
pr▁ event</w>
pre▁ ss
prev e▁n
ow▁ n
n▁ ational</w>
n or▁
i▁s s▁
h a▁ll</w>
eti es</w>
en▁t ary</w>
d▁ es▁
dus try</w>
div ision</w>
d a▁m
coun ting</w>
comp eti▁
burs ement</w>
a▁n ds</w>
Rep resent
Ph il
P C</w>
Econ o▁my</w>
C▁ omm
&ap▁os;▁ ve</w>
▁wit ness</w>
▁sl owing</w>
▁s u</w>
▁promp tly</w>
▁per ▁
▁lec tur
▁f em
▁experim ent</w>
▁exc iting</w>
▁democr atic</w>
▁Ac tually</w>
techn▁ ology</w>
s eon</w>
pro c▁
priv ileg
po▁p ular</w>
plac ▁e</w>
n is</w>
m▁ ove</w>
eo ju</w>
el der▁ly</w>
educ a▁tion</w>
ea uty</w>
at▁ is</w>
ap h
A R
▁t onight</w>
▁t elling</w>
▁s▁ ince</w>
▁str ic
▁restor ed</w>
▁rec overed</w>
▁o uter</w>
▁n omin
▁fe ed
▁f ant
▁conver gence</w>
▁additi onally</w>
▁a uction</w>
▁Th us</w>
▁St atistics</w>
▁P utin</w>
▁O ut
▁K B</w>
▁Eas tern</w>
▁Canad ian</w>
▁B roadcas
▁&▁ a▁mp;</w>
y▁ ear▁s</w>
yo▁ nd</w>
work er▁s</w>
vi ew▁
tr▁ ib
streng th▁en</w>
r▁ am</w>
pre p▁ar
m il▁lion</w>
incr▁ eased</w>
i on▁
h im
c▁ ould</w>
a▁l ue</w>
azakh stan</w>
Wh en</w>
Lib▁ erty</w>
Janu a▁ry</w>
I l</w>
Comm i▁t
8 6</w>
6 1</w>
1 00
▁won derful</w>
▁transpar ent</w>
▁tax is</w>
▁por tra
▁o cean</w>
▁l ie</w>
▁entreprene urs</w>
▁do ors</w>
▁des truction</w>
▁dep ression</w>
▁conduc ts</w>
▁concer ts</w>
▁Po cheon</w>
▁E d
▁Argent ina</w>
▁All ow
▁200 2</w>
ung er</w>
s▁ ame</w>
sho▁ w</w>
sec retary</w>
sc en
s ig▁n
out si▁de</w>
os es</w>
l ow
i▁r l</w>
f oot</w>
dis ast▁er</w>
N▁ am</w>
L abor</w>
2▁ 00</w>
▁wh▁ en</w>
▁trav eled</w>
▁th r▁ough</w>
▁surv eys</w>
▁phot ograp
▁jud iciary</w>
▁id e
▁har mon
▁cont ext</w>
▁co astal</w>
▁aud itor</w>
▁U sually</w>
▁Nam yangju</w>
z er
wr ong</w>
w arm</w>
st one</w>
st ay</w>
se o▁ng</w>
r▁ea s▁on</w>
r▁e port</w>
pri▁ se</w>
i ou▁s</w>
e▁ au</w>
emer▁ gency</w>
competi tiv
a▁t t▁
ar▁t m▁ent</w>
af▁ ety</w>
A M</w>
&a p▁o▁s
▁ter minal</w>
▁sti mul
▁ec ological</w>
▁div or
▁descri bed</w>
▁G all
v ulner
v ation</w>
tro versy</w>
tr a▁ck</w>
ti ll</w>
st ar▁
si▁ d
or g▁an
oper▁ ating</w>
n ae</w>
in y</w>
in ema</w>
ib l▁e</w>
exper ience</w>
est yle</w>
es h</w>
den ed</w>
cont e▁nt</w>
bur d▁en</w>
b i▁g
b etter</w>
al▁ led</w>
abil iti▁es</w>
Pen insula</w>
P O</w>
H▁ an
C en▁
▁w ash</w>
▁st amp</w>
▁sav ing</w>
▁r ough</w>
▁l ying</w>
▁j in</w>
▁high way</w>
▁des c
▁correc tive</w>
▁St arbucks</w>
un▁ it</w>
ti st</w>
th ink</w>
p▁l ay</w>
prosec ution</w>
on s▁
ok cho</w>
j ourn
hou s▁
ec os
dom in
cos ts</w>
ch ase</w>
b its</w>
ati tude</w>
R u▁s
▁shor ter</w>
▁reg ret
▁pro p
▁med ic
▁camp ing</w>
▁be in▁g</w>
▁b att
▁appl ies</w>
▁al liance</w>
▁Nav y</w>
▁N ob
▁F uture</w>
▁ e▁d</w>
ul▁ y</w>
sub scri
p eti
ot▁ ion</w>
ool ▁s</w>
mut at▁is</w>
i▁ red</w>
in i</w>
im pr▁ov
ec tious</w>
d▁uc t</w>
co▁ l
comm erc
c ivil</w>
at ar</w>
ar io</w>
W ar</w>
Unive▁r sity</w>
2 4
,▁ 000</w>
▁z ero</w>
▁tr ag
▁special izing</w>
▁rob ots</w>
▁rem ark
▁publ ishing</w>
▁objec tive</w>
▁hy un</w>
▁green house</w>
▁for ming</w>
▁de ployed</w>
▁S iheung</w>
▁Pur suant</w>
▁B ro
▁7 00</w>
th e▁rn</w>
th e
sk ills</w>
sec t▁or</w>
re in
rai▁ se</w>
prof ess▁
ord i▁n
i▁ e</w>
ho▁ od</w>
fras tru▁c
f a▁r</w>
denuclear izati▁on</w>
d able</w>
Y ou</w>
Se▁ ou▁l</w>
R▁ oh</w>
Gang w▁on</w>
En tr
Ar t▁
▁rem od
▁recycl ing</w>
▁pat ri
▁p iano</w>
▁obser ve</w>
▁manufactur ed</w>
▁k ey
▁in corpor
▁hot els</w>
▁hon est</w>
▁gl ob
▁fulf ill</w>
▁ap ology</w>
▁L ifelong</w>
▁Kinderg arten</w>
▁Elec tric</w>
▁5 0
t an</w>
nu▁m b▁er</w>
natur ▁al</w>
gre▁ en</w>
g age</w>
fur th▁er</w>
e▁ up</w>
e▁ sti
ex▁ per
ex ist</w>
comm un▁
b▁e e▁n</w>
busin esses</w>
be▁ for▁e</w>
at ever</w>
ann u▁al</w>
Rus s▁ia</w>
E ast</w>
Dem ocr▁atic</w>
A sian</w>
1 .5</w>
▁sh ut</w>
▁reven ues</w>
▁retur ns</w>
▁r arely</w>
▁op tions</w>
▁mois ture</w>
▁l ap
▁fin ancing</w>
▁fail ing</w>
▁f a▁
▁dismis s</w>
▁di ab
▁G ame</w>
w oman</w>
se▁ t</w>
r▁ul ing</w>
relation sh▁ip</w>
orig in▁al</w>
i▁c al</w>
h▁ ome</w>
g▁ ame</w>
el ▁s</w>
eb a▁ll</w>
d▁em a▁nd</w>
al▁ ty</w>
J u</w>
D▁ ay</w>
Ch e▁
3▁ 00</w>
▁spl it</w>
▁judg ing</w>
▁g rap
▁fro zen</w>
▁comb ines</w>
▁cap tured</w>
▁c eiling</w>
▁For tress</w>
▁Ch i▁na</w>
▁B ong
w▁or ld</w>
sk in</w>
sch oo▁l</w>
p a▁y</w>
or ds</w>
omer ates</w>
l▁ ong</w>
l▁ o
id en▁ce</w>
hom ▁e</w>
h is▁
form ance</w>
fin an▁cial</w>
e▁st ate</w>
e▁l t</w>
e▁ ach</w>
es it
ecess or</w>
crea▁ t▁e</w>
b▁ el
at te▁nd</w>
M ex
▁wh er▁e</w>
▁t ox
▁sup plement</w>
▁p etro
▁l yrics</w>
▁draw s</w>
▁del inqu
▁concentr ate</w>
▁bas ement</w>
▁architec ture</w>
wor l▁d</w>
tax i</w>
st▁ ep</w>
p a▁re</w>
ex po▁rt</w>
est a▁
en ti▁ng</w>
conf e▁r
br an▁ch</w>
b or▁
an i▁es</w>
am ation</w>
ak er</w>
P eople</w>
Ordin▁ an▁ce</w>
I FA</w>
A gency</w>
7 2</w>
1▁ 5</w>
,0 00
▁separ ation</w>
▁ref res
▁pri zes</w>
▁oper ational</w>
▁g olden</w>
▁e at
▁che ese</w>
▁c ope</w>
▁bel ief</w>
▁agre ements</w>
▁acknowl edged</w>
▁Sou thern</w>
▁S k
▁S ar
▁P angyo</w>
▁3 .
un ive▁r
tr▁ ip</w>
sh ing</w>
ser▁ ve</w>
ro a▁d</w>
p e▁r</w>
ou ses</w>
n e▁r</w>
ma▁ king</w>
lo an</w>
j oo</w>
imb ap</w>
hist or
erm al</w>
ec ti▁ng</w>
dis trict</w>
crea ti▁on</w>
bus y</w>
T BC</w>
N o</w>
Dis t▁rict</w>
Coun ci▁l</w>
Com pl▁ex</w>
▁wareh ouse</w>
▁vol ati
▁th row</w>
▁sincer ely</w>
▁p ays</w>
▁organiz ing</w>
▁fi x</w>
▁M u
▁D okdo</w>
▁20 21</w>
web site</w>
v▁ i
tr e▁ss</w>
s▁ id
sub m▁
sid ▁
sever ▁al</w>
res earch</w>
o▁ il</w>
o▁ d
n▁ ext</w>
m eter</w>
impo▁r t▁ant</w>
h ans
gr▁ ow</w>
g ar
f an</w>
emb▁ ers</w>
d▁ on</w>
cons▁ um
O E
L ove</w>
Don a▁ld</w>
8 7</w>
&▁qu ▁o▁t;</w>
▁u tion</w>
▁there for</w>
▁th inks</w>
▁sh ower</w>
▁ret ail
▁propor tional</w>
▁peti tion
▁newsp apers</w>
▁defin itely</w>
▁b e▁c
▁N ations</w>
▁Braz ilian</w>
soci e▁ty</w>
s us▁
r▁eal l▁y</w>
re fo▁rm</w>
produ▁c tion</w>
pas ▁t</w>
mee▁ ting</w>
i▁n s</w>
issi o▁n</w>
insu▁r ance</w>
in e▁s</w>
i er
high▁ ly</w>
hel▁ p</w>
electr▁ ic</w>
d▁ is▁
d eal</w>
co al</w>
c i▁ng</w>
as m</w>
T a▁
L▁ im</w>
F am
▁v ary</w>
▁sn ow
▁rem ote</w>
▁re verse</w>
▁p ep
▁new sletter</w>
▁k ill</w>
▁instruc tions</w>
▁gu ards</w>
▁exam ined</w>
▁def ects</w>
▁crow d</w>
▁M yeong
▁H aving</w>
to▁ wn</w>
ta▁l k</w>
st▁ ar</w>
r▁ eg▁
pl a▁y</w>
d ire▁ct</w>
c▁ s</w>
brea k
announ ceme▁nt</w>
al y▁
W o▁r
Sam▁ sung</w>
M a▁y</w>
K w▁on</w>
J ▁ung</w>
D s</w>
▁s ang</w>
▁re plied</w>
▁p r▁es
▁j u</w>
▁hea vily</w>
▁foun der</w>
▁challeng es</w>
▁S t▁
▁Offic ial</w>
▁M unicipal</w>
▁H igh
▁E val
w ro▁
u▁ sing</w>
t▁ alk</w>
th o▁
su▁ b▁
sch ools</w>
ra ised</w>
prov inc▁e</w>
por ary</w>
pen s▁
it▁ ted</w>
in▁ at▁ion</w>
in st▁
ho▁ using</w>
h w▁a</w>
e▁ pt</w>
dis mis
au▁ gh
at eral</w>
ai▁n ed</w>
Eng li▁sh</w>
&ap▁os; r▁e</w>
▁y uan</w>
▁vir us</w>
▁v eterans</w>
▁up date</w>
▁under go</w>
▁repres ents</w>
▁o the▁r</w>
▁fir ed</w>
▁exc eption</w>
▁en ding</w>
▁cur iosity</w>
▁c ar▁
▁bl oss
▁G olden</w>
▁Coun cilor</w>
▁Ch amber</w>
vis ion</w>
ular ities</w>
trea tment</w>
sur es</w>
scor ▁ed</w>
s ym
re▁su▁l ts</w>
our▁ ce</w>
organiz ations</w>
on line</w>
l oo▁k</w>
involv ▁ed</w>
infl▁ u
inc▁rea se</w>
in ity</w>
facil i▁ties</w>
er a▁l</w>
educ ation▁al</w>
direc ▁
dep▁ th</w>
condu▁c t</w>
con trib
chi▁l dren</w>
b▁ usiness</w>
bi▁ll ion</w>
a▁ w</w>
at o▁r</w>
arres t▁ed</w>
ar i▁es</w>
ap o▁s▁
Y ork</w>
Y eon</w>
S▁ chool</w>
▁rem emb
▁reb ound</w>
▁pr▁ o
▁em ission</w>
▁dr one</w>
▁design er</w>
▁c uts</w>
▁bloc king</w>
▁ar ise</w>
▁G ender</w>
y gen</w>
u ary</w>
t op
st an▁d
sa▁ fe</w>
r▁e p▁ort</w>
ol ine</w>
j ▁un</w>
is s
impo▁r t
h ar▁d</w>
h ang</w>
establis hed</w>
ess e▁d</w>
emb ly
duc ted</w>
di ed</w>
cust o▁m
conditi ons</w>
a▁n c▁e</w>
an es</w>
Sep t▁
Gyeongsang nam</w>
Elec tr
C ar
Bus a▁n</w>
B y
▁tr acking</w>
▁rea ders</w>
▁pack aging</w>
▁p izza</w>
▁lod ging</w>
▁for ests</w>
▁deliber ated</w>
▁With out</w>
▁M e</w>
▁Gun san</w>
▁G apyeong</w>
▁C amp</w>
un it</w>
stu▁d en▁ts</w>
st o▁ck</w>
so ft</w>
si t▁es</w>
sh o▁ws</w>
ro m
pro▁duc t▁s</w>
l ation</w>
j u▁d
is c
in▁ c
for▁ ce</w>
for eign</w>
e▁ lo▁
del eg
d am</w>
c▁h o
b▁ ette▁r</w>
brief i▁ng</w>
as er</w>
ann iversa▁ry</w>
S▁ on</w>
L ocal</w>
8 4</w>
▁text books</w>
▁terr or
▁occup ied</w>
▁mon opol
▁k n▁
▁in ser
▁flo ating</w>
▁fl ying</w>
▁ch ampionship</w>
▁b ound
▁ar tif
▁acqu ire</w>
▁B al
▁2 .5</w>
us ts</w>
us ter</w>
un ist</w>
sem icon
respon sib▁
rec o▁rd</w>
o▁ per
n ity</w>
m▁ ajor</w>
in e▁ss</w>
f▁ ood</w>
form▁ ed</w>
f ath▁er</w>
es ity</w>
de▁ al</w>
c▁om p▁
c▁om ing</w>
conv e▁n
c au▁se</w>
b ur▁
a▁ ud
ar▁ ks</w>
administr atio▁n</w>
acc ide▁nt</w>
Y i</w>
O▁ ff▁ice</w>
Jap a▁n</w>
Jap anese</w>
Gyeon▁g gi</w>
D I</w>
C iv▁il</w>
7 6</w>
▁w eigh
▁v eter
▁tran sition</w>
▁sear ched</w>
▁mus icians</w>
▁mission ary</w>
▁facilit ate</w>
▁St ar</w>
▁P a▁rty</w>
▁C alifornia</w>
▁5 4</w>
▁200 3</w>
st an
sem iconduc
j uris
it e▁ms</w>
hou ses</w>
g▁ il</w>
foll▁ owing</w>
ep ts</w>
consid er▁ed</w>
cer ta▁in</w>
br and</w>
agre▁ ed</w>
SE AN</w>
P ea▁ce</w>
J▁ap an</w>
Gw a▁ng
En vir
A R</w>
▁scre ened</w>
▁renew ed</w>
▁relig ion</w>
▁rel uc
▁over time</w>
▁journ alists</w>
▁inf ection</w>
▁exempl ary</w>
▁ex posure</w>
▁eas tern</w>
▁a t▁
▁US A</w>
▁S em
v oc
u▁ me</w>
t▁h rough</w>
t▁ est</w>
p▁er▁ iod</w>
pr▁o b▁lem</w>
pr is▁on</w>
o▁ ci
of▁f ic
o o▁t
ligh ted</w>
l im</w>
iti s</w>
im p▁rov
im age</w>
e▁ar ly</w>
er▁ n</w>
ec tly</w>
cos ▁ts</w>
cl ean
bus▁in es▁s</w>
buil t</w>
at oes</w>
ann o▁un▁
air y</w>
T E</w>
Div isi▁on</w>
7 9</w>
▁t ies</w>
▁prov isional</w>
▁necess ity</w>
▁investig ative</w>
▁inc idents</w>
▁har sh</w>
▁guarant ees</w>
▁bec ▁
▁b e▁g
▁ar t
▁Vol unt
▁Fr anc
w ill
u▁ r</w>
uni q▁ue</w>
tur ned</w>
tu al▁ly</w>
sur g
pres ent</w>
per or</w>
oth e▁rs</w>
il▁ d</w>
g am▁es</w>
and o</w>
S ang
&apo▁s ;
▁t ank</w>
▁serv es</w>
▁reserv ed</w>
▁qual ifications</w>
▁liqu or</w>
▁lic en
▁inv itation</w>
▁exten uating</w>
▁cro ps</w>
▁Ch ild</w>
vol u▁n
ul▁ ty</w>
ult▁ ure</w>
t om</w>
si bl▁e</w>
s om▁
re form</w>
p▁os e</w>
pers on▁al</w>
opin io▁ns</w>
man a▁g
g▁ ram</w>
f▁ emale</w>
f ees</w>
exp▁ ec▁te▁d</w>
end i▁ng</w>
employ ed</w>
ea▁ l</w>
di pl
c▁l ass</w>
co▁mp▁ any</w>
consecu ti▁ve</w>
ce▁n ter</w>
ce▁ pt</w>
c e▁nt</w>
b▁ ur▁
am ▁s</w>
8 9</w>
7 4</w>
▁tr ucks</w>
▁st ation
▁sever ely</w>
▁qu ota</w>
▁prov ed</w>
▁per petr
▁oblig ation</w>
▁ob taining</w>
▁l ift</w>
▁dom inated</w>
▁dis ability</w>
▁des ired</w>
▁def endant</w>
▁comp eting</w>
▁a h</w>
▁Super intendent</w>
▁M un</w>
w▁ n</w>
wh▁ y</w>
w ed
v o▁
us hing</w>
st ro
si onal</w>
ro▁ w</w>
reason able</w>
ori▁g inal</w>
ophis tic
mov eme▁nt</w>
im▁ pro▁ve</w>
i al▁ly</w>
est ab▁
es h
em et
ee▁ ded</w>
cre d▁it</w>
ci ences</w>
canc▁ er</w>
b▁ ody</w>
a▁ il</w>
ap o▁re</w>
ana▁l y
am ount</w>
T ec
I ▁f</w>
H e▁al
For ei▁gn</w>
C er
201▁ 8</w>
▁suspec ts</w>
▁stabil ize</w>
▁s ight</w>
▁r ing</w>
▁r ear</w>
▁min i</w>
▁h ea▁d</w>
▁frequ ency</w>
▁faith fully</w>
▁er rors</w>
▁conven ed</w>
▁contribu tions</w>
▁am o▁ng</w>
▁S and
▁Re form</w>
▁Comm unication</w>
▁Baek je</w>
▁B undang</w>
▁2 2
un▁ d</w>
trav▁ el</w>
ten d</w>
resp o▁n
res ta▁
r u▁l
ph ot▁
negoti ations</w>
n ee▁ds</w>
mod el</w>
l an▁
l ack</w>
jud▁ g
gov▁ern ment</w>
exam inati▁on</w>
es ti▁ng</w>
er r
di plom
contin ued</w>
com ed</w>
c as▁
a▁ pe</w>
ac▁ ks</w>
Prov in▁cial</w>
M▁in▁ istry</w>
De▁ f
6 9</w>
0 4</w>
▁un stable</w>
▁tou ching</w>
▁tend ency</w>
▁helicop ter</w>
▁d ried</w>
▁d ic
▁cri tics</w>
▁caf es</w>
▁P ress</w>
s▁ing le</w>
s▁ ea</w>
reduc ti▁on</w>
prac tic
pe▁r c▁ent</w>
op▁ le</w>
me▁n ▁t</w>
menti on▁ed</w>
l ash</w>
iz er</w>
im pres
ey▁ es</w>
ev ent
equ i▁p
dir▁ ec▁
d an</w>
cou▁ ldn</w>
c our▁se</w>
ab road</w>
K i▁ng</w>
J▁ in</w>
Hy▁ undai</w>
▁wor ldwide</w>
▁s y
▁reg eneration</w>
▁n eu
▁men tion</w>
▁me ant</w>
▁l aid</w>
▁dro ve</w>
▁ch est</w>
▁accur ately</w>
▁V R</w>
▁Nex en</w>
z y</w>
w ait</w>
under▁st a▁nd</w>
un k
rel atio▁n
pre pa▁re</w>
p u▁t</w>
organiz ation</w>
o v</w>
k▁ yu</w>
ir▁ d</w>
id ate</w>
h us
gen c▁y</w>
f al
eal and</w>
e try</w>
dr am▁
7 8</w>
▁shut down</w>
▁prot ests</w>
▁off▁ icial</w>
▁occ urrence</w>
▁mo▁n ey</w>
▁i ll</w>
▁def eated</w>
▁d ad</w>
▁cap able</w>
▁al g
▁Lt d</w>
▁L os</w>
▁D al
▁Chr ist</w>
z o▁ne</w>
wi▁ n</w>
wit h▁
t▁ ain</w>
tur n▁ed</w>
t aking</w>
st▁ ory</w>
re pr▁es
n t</w>
l im▁
l an▁d</w>
j o
i▁n come</w>
inte▁n t▁ion</w>
head quarte▁rs</w>
h and▁ed</w>
e▁c ti▁on</w>
ew ay</w>
diffic ult</w>
co▁mp an▁y</w>
con ver
coll e▁ge</w>
any▁ thing</w>
W e▁l
U r
Tour i▁sm</w>
P A</w>
IC E</w>
▁tex ture</w>
▁syn ergy</w>
▁st uck</w>
▁s and</w>
▁refr iger
▁r ub
▁pen etr
▁pain ful</w>
▁occup ation</w>
▁men us</w>
▁fish eries</w>
▁doub t</w>
▁dis tor
▁as ide</w>
▁D obong</w>
um ing</w>
ul t▁s</w>
t▁ uring</w>
tr▁ ation</w>
s ely</w>
s elli▁ng</w>
pr a▁c
po▁l ice</w>
play ers</w>
perfor▁m ance</w>
our se</w>
iv▁ id
ili ans</w>
g ave</w>
d▁ irect</w>
▁th in</w>
▁st agn
▁sched ules</w>
▁rel ieve</w>
▁rel ics</w>
▁rea ppoin
▁qu it</w>
▁pres ents</w>
▁on going</w>
▁impres sed</w>
▁g inseng</w>
▁fr amework</w>
▁coun cil
▁calcul ating</w>
▁ap art</w>
▁adop tion</w>
▁a fte▁r</w>
▁T ime</w>
▁Sy dney</w>
▁P aulo</w>
▁8 00</w>
ur c▁h</w>
s▁ u</w>
s ent▁
re▁ce ive</w>
p en▁
o▁r ed</w>
mo th▁er</w>
law m▁ak
ip o</w>
if iers</w>
e▁x c
ev ents</w>
enti▁ re</w>
c▁r▁ea te</w>
cent e▁rs</w>
av ail
L an▁d</w>
▁wor e</w>
▁v alley</w>
▁s eventh</w>
▁s eller</w>
▁requir ing</w>
▁predic ts</w>
▁photograph s</w>
▁philosoph y</w>
▁l augh
▁ex agg
▁abol ished</w>
▁Se▁ oul</w>
▁Os aka</w>
▁M icro
tr▁ ol</w>
to▁ ur</w>
tig ious</w>
sp okes
si▁ ons</w>
re▁ f
pl ane</w>
over ty</w>
onom o▁us</w>
offic ▁er</w>
m▁ ar
ien n
ic▁ ies</w>
g e▁
e els</w>
cur▁ r
c au▁
bi▁ g</w>
ar d▁s</w>
af ts</w>
Pr▁ o
F estiv▁al</w>
Comm i▁ttee</w>
C our▁t</w>
▁w ild
▁rep utation</w>
▁re un
▁pregn ancy</w>
▁meas uring</w>
▁f ly</w>
▁f ast
▁expres s
▁exc ess</w>
▁b ound</w>
▁arr ang
▁Memor ial</w>
u▁r al</w>
u▁n d
t een</w>
str▁ y</w>
s ign</w>
m▁ y
me th▁od</w>
l eme▁nt</w>
il iti▁es</w>
ft op</w>
ef▁ ul</w>
d▁ et
c▁h arge</w>
custom e▁rs</w>
bea u▁
att ack</w>
ar ea▁s</w>
am ination</w>
Me▁ tro
9 1</w>
11▁ th</w>
▁st eering</w>
▁sea food</w>
▁f eed</w>
▁do zens</w>
▁determ ination</w>
▁del eted</w>
▁d ess
▁cl ause</w>
▁car di
▁D ae
▁Cooper ation</w>
▁As ked</w>
wi▁th o▁ut</w>
us s</w>
us e▁rs</w>
un i▁on</w>
tr a▁ns
s▁ ure</w>
sec u▁re</w>
pr▁ is
opport uni▁ty</w>
mos ▁t</w>
iv e▁s</w>
intro du▁c
ig ation</w>
e▁n t▁s</w>
cour se</w>
comm itte▁e</w>
c ue</w>
b ill</w>
ans i▁on</w>
Indus ▁
Dec ember</w>
1▁ 1</w>
▁w o▁n</w>
▁u▁ p</w>
▁su its</w>
▁r id</w>
▁quar ter
▁qu oted</w>
▁qu arantine</w>
▁or d▁er</w>
▁mus h
▁manag es</w>
▁l iver</w>
▁ju ice</w>
▁heal th
▁happen ing</w>
▁advant ageous</w>
▁Ren ault</w>
▁Net flix</w>
▁Fl oor</w>
▁Exper ience</w>
um in
t▁ al</w>
reg▁ ional</w>
rec og▁n
pl▁ ace</w>
o▁ k
op es</w>
m▁ al</w>
mov▁ ie</w>
it o</w>
id em
ev ▁e</w>
d en▁
P u▁
Found ati▁on</w>
Febru a▁ry</w>
13 ▁th</w>
▁tr ains</w>
▁sur ge</w>
▁port al</w>
▁o▁ r</w>
▁l uck</w>
▁l ies</w>
▁infl ation</w>
▁dis sem
▁class ical</w>
▁bas ketball</w>
▁any time</w>
▁al ert</w>
▁a re▁
▁W e
zh ou</w>
un ▁e</w>
um ption</w>
tu▁ de</w>
techn olog
str▁ uc
so▁m e
some▁ thing</w>
shi▁ ps</w>
s qu
s en</w>
prof ess
por ate</w>
perform anc▁es</w>
particip ate</w>
or▁ d</w>
of t▁en</w>
mak ▁es</w>
k in
herei▁n a▁ft▁er</w>
g ivi▁ng</w>
f oot
e▁ duc
ess i▁ng</w>
es try</w>
ec▁ k</w>
den uclearization</w>
b out</w>
a▁t in▁g</w>
all yu</w>
adem ic</w>
P▁ ar▁ty</w>
Ma▁r ine</w>
Feder ati▁on</w>
▁spec ifically</w>
▁rev oke</w>
▁lea k</w>
▁laun dry</w>
▁l acking</w>
▁excav ation</w>
▁enthusi astic</w>
▁conver ted</w>
▁consist ently</w>
▁ch ap
▁Y eo</w>
▁E X
▁C os
▁An n
t▁ ural</w>
t as
sh▁ ould</w>
rev ol
p as▁
oun▁ ds</w>
oo d▁s</w>
loc a▁l</w>
ky ▁un</w>
it a▁n</w>
ind▁ us▁
in clu▁d
h app▁
fin ▁e</w>
dea▁ th</w>
c▁ alled</w>
b ut
a▁n ks</w>
a▁ king</w>
a▁ ir▁
ab i▁l
Y ou▁ng</w>
Tr ade</w>
H wang</w>
Gyeong sa▁ng</w>
Ass▁ embly</w>
7 3</w>
12▁ th</w>
&qu o▁t▁;</w>
▁wind ows</w>
▁ten ants</w>
▁telecomm unications</w>
▁techn ique</w>
▁professi onals</w>
▁pain ted</w>
▁notic eable</w>
▁foc uses</w>
▁disc overy</w>
▁depos ited</w>
▁ac id</w>
▁a n▁
▁Angel es</w>
▁4 7</w>
u▁n ique</w>
us er</w>
t our</w>
s▁ ex</w>
st ation</w>
ro c
rec▁ ently</w>
pur pose</w>
pro pos▁ed</w>
prepar ▁ed</w>
ol▁ og
ma▁ k▁e</w>
lo▁ oking</w>
iv in▁g</w>
i y
ed u▁c
ec▁ on▁
ea tly</w>
beg an</w>
b in</w>
b etween</w>
ag ainst</w>
S a
Dem▁ ocr
D r
D o
A l▁
7 1</w>
19 ▁th</w>
▁sur g
▁sh oot</w>
▁res trict</w>
▁rank ings</w>
▁r a▁
▁occ asion</w>
▁expec ting</w>
▁d oll</w>
▁compar ison</w>
▁anticip ated</w>
▁B yeong</w>
▁A greement</w>
wit▁h out</w>
us ers</w>
stud ent▁s</w>
sc reen</w>
rul ing</w>
rel▁ evant</w>
pl ed</w>
particip ati▁on</w>
o▁ sed</w>
no▁ un
issu▁ ed</w>
in ki▁ng</w>
import ant</w>
ic ie▁s</w>
h i▁ng</w>
est e▁rn</w>
em▁ p
em en</w>
ellig en▁ce</w>
d e▁nt</w>
c▁ en▁ter</w>
ash es</w>
an t▁ed</w>
ad▁ or</w>
Un ited</w>
Ta i
Se ocho</w>
P▁ar t▁y</w>
P y
Govern men▁t</w>
Ch eon
▁weak ened</w>
▁w ireless</w>
▁trans fer
▁r ush</w>
▁prospec tive</w>
▁negoti ating</w>
▁inquir ies</w>
▁in scri
▁hy giene</w>
▁ha bits</w>
▁dispos able</w>
▁b ike</w>
▁ab used</w>
▁O r</w>
▁E th
▁C O
ur r▁ed</w>
tif ied</w>
su▁p p▁ort</w>
su ffici
sol ve</w>
ser i▁es</w>
reduc ▁ed</w>
p▁ en</w>
on e▁s</w>
o tive</w>
n ev▁er</w>
lo a▁ns</w>
i▁s ter</w>
it a</w>
in▁ s
ill i
h▁ n</w>
fi▁ ts</w>
establi▁ sh</w>
des p
curr▁ ently</w>
car e▁er</w>
b ook
ail ▁ed</w>
ac ed</w>
F ish
A S
▁y ouths</w>
▁sub mitting</w>
▁st ones</w>
▁produc er</w>
▁postpon ed</w>
▁plat forms</w>
▁op posing</w>
▁execu ted</w>
▁econom ies</w>
▁dr astically</w>
▁S an
▁S ales</w>
▁Manch ester</w>
▁M a
s▁ eo</w>
ss▁ ion</w>
r▁ ing</w>
p▁ il</w>
prom ot▁ed</w>
particip ati▁ng</w>
i▁n v▁
it ement</w>
immedi ate▁ly</w>
i ang</w>
g roups</w>
f▁ i
est a▁b
cus▁ tom
as si▁
arant ee</w>
al▁ leg
Co▁un cil</w>
3 1st</w>
0 2</w>
&▁qu ▁ot▁;</w>
▁se em▁s</w>
▁rel easing</w>
▁neg lected</w>
▁indic ating</w>
▁f o▁und</w>
▁exam ining</w>
▁dis counts</w>
▁comp uters</w>
▁car riers</w>
▁c alligraph
▁Yang cheon</w>
▁T omorrow</w>
▁Or ig
[...]
